{
  "version": "1.0",
  "truncation": null,
  "padding": null,
  "added_tokens": [
    {
      "id": 0,
      "content": "<PAD>",
      "single_word": false,
      "lstrip": false,
      "rstrip": false,
      "normalized": false,
      "special": true
    },
    {
      "id": 1,
      "content": "<UNK>",
      "single_word": false,
      "lstrip": false,
      "rstrip": false,
      "normalized": false,
      "special": true
    },
    {
      "id": 2,
      "content": "<s>",
      "single_word": false,
      "lstrip": false,
      "rstrip": false,
      "normalized": false,
      "special": true
    },
    {
      "id": 3,
      "content": "</s>",
      "single_word": false,
      "lstrip": false,
      "rstrip": false,
      "normalized": false,
      "special": true
    }
  ],
  "normalizer": {
    "type": "NFKC"
  },
  "pre_tokenizer": {
    "type": "ByteLevel",
    "add_prefix_space": true,
    "trim_offsets": true,
    "use_regex": true
  },
  "post_processor": {
    "type": "ByteLevel",
    "add_prefix_space": true,
    "trim_offsets": true,
    "use_regex": true
  },
  "decoder": {
    "type": "ByteLevel",
    "add_prefix_space": true,
    "trim_offsets": true,
    "use_regex": true
  },
  "model": {
    "type": "BPE",
    "dropout": null,
    "unk_token": "[UNK]",
    "continuing_subword_prefix": null,
    "end_of_word_suffix": null,
    "fuse_unk": false,
    "byte_fallback": false,
    "ignore_merges": false,
    "vocab": {
      "<PAD>": 0,
      "<UNK>": 1,
      "<s>": 2,
      "</s>": 3,
      "!": 4,
      "\"": 5,
      "'": 6,
      ",": 7,
      "-": 8,
      ".": 9,
      "0": 10,
      "1": 11,
      "2": 12,
      "3": 13,
      "4": 14,
      "5": 15,
      "6": 16,
      "7": 17,
      "8": 18,
      "9": 19,
      "?": 20,
      "A": 21,
      "B": 22,
      "C": 23,
      "D": 24,
      "E": 25,
      "F": 26,
      "G": 27,
      "H": 28,
      "I": 29,
      "J": 30,
      "K": 31,
      "L": 32,
      "M": 33,
      "N": 34,
      "O": 35,
      "P": 36,
      "Q": 37,
      "R": 38,
      "S": 39,
      "T": 40,
      "U": 41,
      "V": 42,
      "W": 43,
      "X": 44,
      "Y": 45,
      "Z": 46,
      "a": 47,
      "b": 48,
      "c": 49,
      "d": 50,
      "e": 51,
      "f": 52,
      "g": 53,
      "h": 54,
      "i": 55,
      "j": 56,
      "k": 57,
      "l": 58,
      "m": 59,
      "n": 60,
      "o": 61,
      "p": 62,
      "q": 63,
      "r": 64,
      "s": 65,
      "t": 66,
      "u": 67,
      "v": 68,
      "w": 69,
      "x": 70,
      "y": 71,
      "z": 72,
      "Ġ": 73,
      "Ġt": 74,
      "he": 75,
      "Ġa": 76,
      "in": 77,
      "Ġthe": 78,
      "re": 79,
      "Ġo": 80,
      "Ġs": 81,
      "Ġw": 82,
      "er": 83,
      "on": 84,
      "en": 85,
      "Ġb": 86,
      "at": 87,
      "Ġc": 88,
      "is": 89,
      "it": 90,
      "nd": 91,
      "Ġf": 92,
      "ed": 93,
      "Ġp": 94,
      "Ġof": 95,
      "or": 96,
      "es": 97,
      "ou": 98,
      "ing": 99,
      "an": 100,
      "Ġto": 101,
      "ar": 102,
      "Ġm": 103,
      "Ġh": 104,
      "Ġin": 105,
      "al": 106,
      "Ġand": 107,
      "as": 108,
      "Ġd": 109,
      "ic": 110,
      "le": 111,
      "Ġth": 112,
      "om": 113,
      "ion": 114,
      "Ġn": 115,
      "Ġl": 116,
      "ll": 117,
      "Ġbe": 118,
      "ent": 119,
      "ly": 120,
      "Ġe": 121,
      "st": 122,
      "Ġre": 123,
      "ĠT": 124,
      "ve": 125,
      "ro": 126,
      "Ġg": 127,
      "ut": 128,
      "ad": 129,
      "ot": 130,
      "id": 131,
      "ĠI": 132,
      "Ġon": 133,
      "ac": 134,
      "Ġhe": 135,
      "ld": 136,
      "se": 137,
      "im": 138,
      "Ġis": 139,
      "Ġfor": 140,
      "et": 141,
      "ow": 142,
      "ay": 143,
      "ĠS": 144,
      "ir": 145,
      "Ġwh": 146,
      "Ġthat": 147,
      "ver": 148,
      "ig": 149,
      "Ġ'": 150,
      "ĠA": 151,
      "Ġu": 152,
      "Ġwas": 153,
      "Ġit": 154,
      "ur": 155,
      "am": 156,
      "Ġst": 157,
      "ct": 158,
      "ĠThe": 159,
      "ce": 160,
      "ith": 161,
      "ĠM": 162,
      "ĠC": 163,
      "ĠB": 164,
      "Ġas": 165,
      "Ġy": 166,
      "Ġwith": 167,
      "ter": 168,
      "'s": 169,
      "Ġwe": 170,
      "ation": 171,
      "ch": 172,
      "il": 173,
      "ol": 174,
      "Ġan": 175,
      "Ġr": 176,
      "her": 177,
      "ĠH": 178,
      "ill": 179,
      "Ġha": 180,
      "Ġat": 181,
      "Ġcon": 182,
      "ain": 183,
      "if": 184,
      "Ġ1": 185,
      "Ġfr": 186,
      "ge": 187,
      "Ġde": 188,
      "Ġse": 189,
      "ers": 190,
      "ht": 191,
      "ul": 192,
      "ĠW": 193,
      "ke": 194,
      "our": 195,
      "ould": 196,
      "ĠP": 197,
      "Ġsu": 198,
      "Ġby": 199,
      "Ġpro": 200,
      "Ġnot": 201,
      "ist": 202,
      "ore": 203,
      "Ġare": 204,
      "pp": 205,
      "ab": 206,
      "ment": 207,
      "od": 208,
      "ess": 209,
      "th": 210,
      "ri": 211,
      "Ġex": 212,
      "Ġcom": 213,
      "est": 214,
      "and": 215,
      "Ġor": 216,
      "ĠL": 217,
      "Ġhis": 218,
      "Ġne": 219,
      "Ġfrom": 220,
      "op": 221,
      "ĠE": 222,
      "Ġhad": 223,
      "Ġhave": 224,
      "ich": 225,
      "Ġsh": 226,
      "us": 227,
      "ate": 228,
      "ant": 229,
      "res": 230,
      "Ġ-": 231,
      "ight": 232,
      "ĠG": 233,
      "ĠF": 234,
      "qu": 235,
      "em": 236,
      "os": 237,
      "ĠD": 238,
      "ive": 239,
      "Ġch": 240,
      "art": 241,
      "pe": 242,
      "un": 243,
      "ies": 244,
      "Ġv": 245,
      "red": 246,
      "Ġal": 247,
      "ard": 248,
      "Ġwhich": 249,
      "ĠR": 250,
      "oc": 251,
      "ort": 252,
      "Ġle": 253,
      "Ġyou": 254,
      "oug": 255,
      "ity": 256,
      "el": 257,
      "ast": 258,
      "ĠN": 259,
      "nt": 260,
      "ie": 261,
      "ust": 262,
      "end": 263,
      "iv": 264,
      "ome": 265,
      "all": 266,
      "Ġbut": 267,
      "um": 268,
      "ap": 269,
      "Ġwere": 270,
      "Ġab": 271,
      "Ġtr": 272,
      "out": 273,
      "Ġwhe": 274,
      "Ġwor": 275,
      "Ġhas": 276,
      "Ġgo": 277,
      "Ġthey": 278,
      "Ġint": 279,
      "Ġthis": 280,
      "ost": 281,
      "ear": 282,
      "ag": 283,
      "Ġall": 284,
      "Ġwho": 285,
      "Ġsa": 286,
      "ous": 287,
      "Ġpl": 288,
      "Ġtheir": 289,
      "ial": 290,
      "ack": 291,
      "ĠO": 292,
      "ak": 293,
      "ok": 294,
      "Ġdo": 295,
      "Ġher": 296,
      "Ġwill": 297,
      ".'": 298,
      "Ġme": 299,
      "Ġ19": 300,
      "Ġj": 301,
      "ure": 302,
      "ong": 303,
      "Ġk": 304,
      "Ġout": 305,
      "Ġso": 306,
      "ther": 307,
      "Ġbeen": 308,
      "ough": 309,
      "ound": 310,
      "ide": 311,
      "ĠJ": 312,
      "ish": 313,
      "Ġone": 314,
      "Ġwould": 315,
      "ff": 316,
      "Ġup": 317,
      "Ġun": 318,
      "ud": 319,
      "Ġcan": 320,
      "ally": 321,
      "Ġar": 322,
      "Ġman": 323,
      "pt": 324,
      "ĠIt": 325,
      "one": 326,
      "ice": 327,
      "Ġmore": 328,
      "Ġshe": 329,
      "ĠHe": 330,
      "rit": 331,
      "pl": 332,
      "Ġcl": 333,
      "act": 334,
      "ind": 335,
      "ĠTh": 336,
      "age": 337,
      "Ġag": 338,
      "ect": 339,
      "ry": 340,
      "Ġthere": 341,
      "able": 342,
      "ions": 343,
      "ime": 344,
      "are": 345,
      "Ġsaid": 346,
      "ĠIn": 347,
      "Ġim": 348,
      "Ġli": 349,
      "ine": 350,
      "ance": 351,
      "ame": 352,
      "Ġper": 353,
      "ra": 354,
      "Ġen": 355,
      "Ġcomp": 356,
      "very": 357,
      "ook": 358,
      "ary": 359,
      "Ġcont": 360,
      "Ġpart": 361,
      "Ġthem": 362,
      "cc": 363,
      "ond": 364,
      "00": 365,
      "ber": 366,
      "Ġits": 367,
      "ence": 368,
      "ose": 369,
      "Ġyear": 370,
      "Ġad": 371,
      "Ġhim": 372,
      "'t": 373,
      "per": 374,
      "ake": 375,
      "ven": 376,
      "ated": 377,
      "Ġabout": 378,
      "ans": 379,
      "Ġoff": 380,
      "ical": 381,
      "Ġno": 382,
      "Ġover": 383,
      "au": 384,
      "Ġdis": 385,
      "ere": 386,
      "ace": 387,
      "ble": 388,
      "ass": 389,
      "Ġthan": 390,
      "Ġsp": 391,
      "Ġpr": 392,
      "Ġfe": 393,
      "Ġwhen": 394,
      "wn": 395,
      "ip": 396,
      "ays": 397,
      "Ġsome": 398,
      "Ġinto": 399,
      "ord": 400,
      "Ġother": 401,
      "own": 402,
      "Ġ2": 403,
      "av": 404,
      "Ġbec": 405,
      "ĠK": 406,
      "ĠMr": 407,
      "ire": 408,
      "ub": 409,
      "ĠU": 410,
      "ree": 411,
      "Ġtw": 412,
      "Ġqu": 413,
      "Ġro": 414,
      "ue": 415,
      "Ġres": 416,
      "Ġpe": 417,
      "Ġapp": 418,
      "Ġte": 419,
      "Ġlike": 420,
      "hed": 421,
      "Ġus": 422,
      "ark": 423,
      "uc": 424,
      "ĠCh": 425,
      "ep": 426,
      "Ġcould": 427,
      "ress": 428,
      "og": 429,
      "Ġgr": 430,
      "Ġkn": 431,
      "ade": 432,
      "ount": 433,
      "ult": 434,
      "ign": 435,
      "Ġwork": 436,
      "we": 437,
      "Ġinc": 438,
      "Ġonly": 439,
      "Ġtime": 440,
      "Ġfir": 441,
      "te": 442,
      "mer": 443,
      "fter": 444,
      "ings": 445,
      "Ġif": 446,
      "Ġany": 447,
      "Ġrec": 448,
      "reat": 449,
      "ite": 450,
      "sel": 451,
      "Ġmy": 452,
      "ach": 453,
      "ick": 454,
      "Ġnew": 455,
      "ious": 456,
      "erv": 457,
      "ction": 458,
      ",'": 459,
      "orm": 460,
      "ng": 461,
      "ĠBut": 462,
      "Ġpo": 463,
      "Ġpol": 464,
      "ations": 465,
      "Ġsc": 466,
      "ail": 467,
      "Ġpre": 468,
      "oy": 469,
      "Ġwhat": 470,
      "so": 471,
      "ition": 472,
      "ople": 473,
      "Ġco": 474,
      "ood": 475,
      "Ġtwo": 476,
      "..": 477,
      "nder": 478,
      "ild": 479,
      "ens": 480,
      "Ġbet": 481,
      "ons": 482,
      "Ġimp": 483,
      "Ġcent": 484,
      "man": 485,
      "ĠSt": 486,
      "ang": 487,
      "ru": 488,
      "ian": 489,
      "int": 490,
      "ink": 491,
      "Ġfirst": 492,
      "ove": 493,
      "Ġind": 494,
      "urn": 495,
      "ise": 496,
      "li": 497,
      "Ġalso": 498,
      "Ġpeople": 499,
      "vel": 500,
      "anc": 501,
      "ile": 502,
      "Ġafter": 503,
      "ater": 504,
      "itt": 505,
      "Ġfl": 506,
      "ors": 507,
      "iff": 508,
      "ict": 509,
      "Ġagain": 510,
      "ia": 511,
      "ory": 512,
      "land": 513,
      "Ġback": 514,
      "Ġmost": 515,
      "ause": 516,
      "ĠY": 517,
      "ne": 518,
      "Ġbr": 519,
      "ĠBrit": 520,
      "Ġspe": 521,
      "Ġnow": 522,
      "uch": 523,
      "Ġbl": 524,
      "Ġunder": 525,
      "Ġatt": 526,
      "ase": 527,
      "ock": 528,
      "fore": 529,
      "ull": 530,
      "hing": 531,
      "Ġam": 532,
      "Ġdes": 533,
      "Ġdid": 534,
      "ov": 535,
      "ual": 536,
      "Ġyour": 537,
      "ms": 538,
      "Ġrem": 539,
      "amp": 540,
      "Ġjust": 541,
      "Ġcomm": 542,
      "Ġlook": 543,
      "Ġeven": 544,
      "Ġshould": 545,
      "self": 546,
      "ft": 547,
      "Ġdec": 548,
      "Ġhow": 549,
      "Ġthr": 550,
      "day": 551,
      "Ġyears": 552,
      "Ġ3": 553,
      "ĠThis": 554,
      "Ġcons": 555,
      "Ġvery": 556,
      "ought": 557,
      "Ġthen": 558,
      "Ġsuch": 559,
      "ational": 560,
      "oss": 561,
      "Ġmay": 562,
      "Ġown": 563,
      "other": 564,
      "vern": 565,
      "Ġway": 566,
      "Ġmade": 567,
      "ily": 568,
      "arly": 569,
      "Ġwhere": 570,
      "Ġlast": 571,
      "ward": 572,
      "Ġdiff": 573,
      "Ġacc": 574,
      "Ġsee": 575,
      "Ġdown": 576,
      "Ġmuch": 577,
      "pect": 578,
      "ĠV": 579,
      "ath": 580,
      "Ġsm": 581,
      "les": 582,
      "Ġget": 583,
      "Ġac": 584,
      "Ġrep": 585,
      "ather": 586,
      "tain": 587,
      "ife": 588,
      "iz": 589,
      "ĠShe": 590,
      "row": 591,
      "Ġrel": 592,
      "air": 593,
      "Ġthrough": 594,
      "tern": 595,
      "igh": 596,
      "Ġlong": 597,
      "iss": 598,
      "form": 599,
      "ning": 600,
      "ew": 601,
      "du": 602,
      "ks": 603,
      "Ġsec": 604,
      "ween": 605,
      "Ġinv": 606,
      "iet": 607,
      "'.": 608,
      "oth": 609,
      "ied": 610,
      "lic": 611,
      "Ġbeing": 612,
      "old": 613,
      "ange": 614,
      "ful": 615,
      "Ġour": 616,
      "Ġcar": 617,
      "Ġwell": 618,
      "way": 619,
      "ĠWe": 620,
      "Ġbetween": 621,
      "Ġbecause": 622,
      "Ġknow": 623,
      "Ġneed": 624,
      "Ġmany": 625,
      "ments": 626,
      "led": 627,
      "ĠAs": 628,
      "Ġsupp": 629,
      "xt": 630,
      "ren": 631,
      "ates": 632,
      "Ġbefore": 633,
      "vers": 634,
      "Ġbu": 635,
      "hes": 636,
      "enc": 637,
      "Ġ198": 638,
      "Ġthese": 639,
      "lect": 640,
      "ob": 641,
      "Ġgood": 642,
      "Ġem": 643,
      "ved": 644,
      "ib": 645,
      "als": 646,
      "Ġend": 647,
      "ible": 648,
      "oll": 649,
      "?'": 650,
      "ents": 651,
      "ting": 652,
      "ities": 653,
      "ower": 654,
      "ener": 655,
      "ĠThere": 656,
      "hen": 657,
      "Ġfin": 658,
      "oup": 659,
      "vernment": 660,
      "ec": 661,
      "Ġmake": 662,
      "Ġob": 663,
      "Ġwant": 664,
      "Ġthose": 665,
      "Ġhand": 666,
      "ĠWh": 667,
      "Ġpub": 668,
      "ative": 669,
      "Ġcount": 670,
      "Ġtoo": 671,
      "Ġmin": 672,
      "ĠThey": 673,
      "ism": 674,
      "Ġsub": 675,
      "omm": 676,
      "ty": 677,
      "ters": 678,
      "Ġstill": 679,
      "aw": 680,
      "gan": 681,
      "ject": 682,
      "Ġact": 683,
      "Ġ4": 684,
      "ouse": 685,
      "Ġbel": 686,
      "ave": 687,
      "ĠAnd": 688,
      "ts": 689,
      "aking": 690,
      "ell": 691,
      "Ġstr": 692,
      "cept": 693,
      "Ġsur": 694,
      "Ġright": 695,
      "Ġevery": 696,
      "ating": 697,
      "ever": 698,
      "ised": 699,
      "Ġsy": 700,
      "ten": 701,
      "Ġfar": 702,
      "Ġmon": 703,
      "Ġev": 704,
      "ident": 705,
      "omet": 706,
      "Ġpres": 707,
      "ph": 708,
      "ank": 709,
      "Ġsl": 710,
      "Ġplay": 711,
      "Ġgreat": 712,
      "oun": 713,
      "Ġthree": 714,
      "ered": 715,
      "Ġ5": 716,
      "Ġset": 717,
      "Ġreg": 718,
      "ince": 719,
      "Ġthink": 720,
      "Ġcour": 721,
      "con": 722,
      "uro": 723,
      "ists": 724,
      "Ġlead": 725,
      "up": 726,
      "Ġseem": 727,
      "ool": 728,
      "Ġke": 729,
      "ern": 730,
      "its": 731,
      "Ġtake": 732,
      "Ġworld": 733,
      "Ġmust": 734,
      "Ġprov": 735,
      "Ġsay": 736,
      "ited": 737,
      "hip": 738,
      "gr": 739,
      "get": 740,
      "Ġent": 741,
      "Ġconf": 742,
      "ax": 743,
      "ittle": 744,
      "ision": 745,
      "ular": 746,
      "Ġpers": 747,
      "ared": 748,
      "lud": 749,
      "Ġagainst": 750,
      "Ġeff": 751,
      "Ġmark": 752,
      "alk": 753,
      "Ġref": 754,
      "gg": 755,
      "Ġconc": 756,
      "cial": 757,
      "Ġwee": 758,
      "Ġday": 759,
      "rib": 760,
      "Ġdef": 761,
      "ness": 762,
      "und": 763,
      "Ġext": 764,
      "ĠUn": 765,
      "ĠEng": 766,
      "Ġsoc": 767,
      "Ġlife": 768,
      "ures": 769,
      "ĠEuro": 770,
      "ific": 771,
      "Ġop": 772,
      "Ġcr": 773,
      "read": 774,
      "Ġserv": 775,
      "000": 776,
      "Ġdisc": 777,
      "Ġexp": 778,
      "Ġcol": 779,
      "cess": 780,
      "Ġold": 781,
      "ĠBritish": 782,
      "Ġfam": 783,
      "meric": 784,
      "Ġcle": 785,
      "Ġass": 786,
      "',": 787,
      "Ġmight": 788,
      "Ġcall": 789,
      "Ġlittle": 790,
      "uring": 791,
      "Ġturn": 792,
      "Ġpolit": 793,
      "ix": 794,
      "Ġput": 795,
      "ives": 796,
      "iew": 797,
      "ĠFr": 798,
      "ually": 799,
      "ices": 800,
      "Ġwar": 801,
      "Ġcompan": 802,
      "ĠEurope": 803,
      "Ġshow": 804,
      "ĠIf": 805,
      "Ġboth": 806,
      "ted": 807,
      "ution": 808,
      "arge": 809,
      "Ġter": 810,
      "ĠLe": 811,
      "Ġsame": 812,
      "ros": 813,
      "ins": 814,
      "ĠAn": 815,
      "ĠAmeric": 816,
      "Ġpoint": 817,
      "ving": 818,
      "Ġform": 819,
      "ves": 820,
      "Ġsomet": 821,
      "ale": 822,
      "Ġnever": 823,
      "Ġsim": 824,
      "Ġdiffere": 825,
      "erest": 826,
      "Ġinst": 827,
      "Ġins": 828,
      "Ġdr": 829,
      "ling": 830,
      "Ġhel": 831,
      "Ġwom": 832,
      "Ġhigh": 833,
      "Ġchild": 834,
      "Ġreal": 835,
      "ways": 836,
      "Ġret": 837,
      "Ġhead": 838,
      "ret": 839,
      "ably": 840,
      "Ġmem": 841,
      "ics": 842,
      "ĠAl": 843,
      "ility": 844,
      "olog": 845,
      "ants": 846,
      "duc": 847,
      "ner": 848,
      "here": 849,
      "Ġgener": 850,
      "ury": 851,
      "velop": 852,
      "Ġ6": 853,
      "Ġfound": 854,
      "imes": 855,
      "Ġmat": 856,
      "Ġanother": 857,
      "Ġph": 858,
      "Ġfact": 859,
      "Ġgl": 860,
      "Ġuse": 861,
      "ished": 862,
      "Ġgovernment": 863,
      "ĠGer": 864,
      "Ġche": 865,
      "Ġdep": 866,
      "...": 867,
      "ĠMar": 868,
      "Ġthought": 869,
      "Ġpartic": 870,
      "ĠFor": 871,
      "Ġloc": 872,
      "Ġbo": 873,
      "ces": 874,
      "Ġhelp": 875,
      "ĠComm": 876,
      "Ġinterest": 877,
      "ug": 878,
      "Ġgroup": 879,
      "ased": 880,
      "Ġcome": 881,
      "aj": 882,
      "Ġbus": 883,
      "Ġdem": 884,
      "ton": 885,
      "Ġinclud": 886,
      "ley": 887,
      "Ġdist": 888,
      "me": 889,
      "less": 890,
      "iness": 891,
      "Ġadd": 892,
      "Ġfew": 893,
      "ying": 894,
      "Ġwrit": 895,
      "Ġsmall": 896,
      "ient": 897,
      "Ġposs": 898,
      "Ġdire": 899,
      "ont": 900,
      "Ġmain": 901,
      "ollow": 902,
      "Ġdoes": 903,
      "Ġinter": 904,
      "Ġfind": 905,
      "Ġless": 906,
      "Ġread": 907,
      "Ġproble": 908,
      "ef": 909,
      "Ġpublic": 910,
      "Ġused": 911,
      "pr": 912,
      "Ġstart": 913,
      "ked": 914,
      "Ġaut": 915,
      "ĠAr": 916,
      "ross": 917,
      "Ġhome": 918,
      "ys": 919,
      "Ġrest": 920,
      "pped": 921,
      "Ġide": 922,
      "Ġdon": 923,
      "Ġdevelop": 924,
      "ason": 925,
      "Ġbelie": 926,
      "ertain": 927,
      "outh": 928,
      "Ġwhile": 929,
      "wards": 930,
      "Ġrun": 931,
      "ondon": 932,
      "Ġleft": 933,
      "ined": 934,
      "Ġpri": 935,
      "nce": 936,
      "Ġplace": 937,
      "oh": 938,
      "Ġdet": 939,
      "Ġsecond": 940,
      "ĠLondon": 941,
      "stem": 942,
      "Ġaway": 943,
      "ried": 944,
      "Ġadv": 945,
      "Ġopen": 946,
      "ĠThat": 947,
      "Ġcame": 948,
      "Ġmarket": 949,
      "Ġbro": 950,
      "Ġeach": 951,
      "alf": 952,
      "Ġnum": 953,
      "Ġgu": 954,
      "Ġfour": 955,
      "Ġweek": 956,
      "der": 957,
      "ric": 958,
      "ĠAt": 959,
      "ody": 960,
      "Ġnext": 961,
      "Ġhard": 962,
      "akes": 963,
      "Ġopp": 964,
      "Ġinf": 965,
      "ided": 966,
      "Ġprodu": 967,
      "ield": 968,
      "Ġgoing": 969,
      "Ġthough": 970,
      "Ġsince": 971,
      "ues": 972,
      "Ġalways": 973,
      "Ġimport": 974,
      "ĠBritain": 975,
      "lish": 976,
      "Ġmonth": 977,
      "Ġstand": 978,
      "aps": 979,
      "Ġfollow": 980,
      "bers": 981,
      "Ġgiv": 982,
      "chool": 983,
      "Ġperson": 984,
      "ĠSc": 985,
      "Ġfeel": 986,
      "ester": 987,
      "Ġmod": 988,
      "conom": 989,
      "Ġwithout": 990,
      "ute": 991,
      "Ġsystem": 992,
      "ural": 993,
      "Ġear": 994,
      "Ġcontin": 995,
      "Ġart": 996,
      "Ġstud": 997,
      "ience": 998,
      "ral": 999,
      "Ġincre": 1000,
      "Ġchar": 1001,
      "Ġcor": 1002,
      "Ġ7": 1003,
      "Ġed": 1004,
      "ising": 1005,
      "Ġpass": 1006,
      "abour": 1007,
      "Ġbook": 1008,
      "Ġexper": 1009,
      "Ġmet": 1010,
      "Ġunt": 1011,
      "Ġsign": 1012,
      "Ġhere": 1013,
      "ract": 1014,
      "Ġpower": 1015,
      "ines": 1016,
      "ced": 1017,
      "sh": 1018,
      "illion": 1019,
      "Ġcare": 1020,
      "Ġcap": 1021,
      "ention": 1022,
      "Ġfull": 1023,
      "Ġgot": 1024,
      "osed": 1025,
      "Ġnight": 1026,
      "rist": 1027,
      "ajor": 1028,
      "Ġmar": 1029,
      "Ġcur": 1030,
      "Ġexpl": 1031,
      "ained": 1032,
      "ider": 1033,
      "Ġaround": 1034,
      "Ġser": 1035,
      "ĠGerman": 1036,
      "Ġbeh": 1037,
      "Ġfore": 1038,
      "orth": 1039,
      "Ġpolic": 1040,
      "ĠRe": 1041,
      "ĠCl": 1042,
      "Ġhapp": 1043,
      "Ġlarge": 1044,
      "Ġlet": 1045,
      "Ġprof": 1046,
      "Ġrather": 1047,
      "Ġbre": 1048,
      "med": 1049,
      "esterday": 1050,
      "oney": 1051,
      "Ġcountry": 1052,
      "Ġeconom": 1053,
      "Ġbest": 1054,
      "Ġwent": 1055,
      "Ġmen": 1056,
      "ĠHow": 1057,
      "thing": 1058,
      "Ġhouse": 1059,
      "Ġdirect": 1060,
      "ister": 1061,
      "ash": 1062,
      "Ġav": 1063,
      "uss": 1064,
      "aken": 1065,
      "Ġdifferent": 1066,
      "Ġlocal": 1067,
      "az": 1068,
      "ird": 1069,
      "ott": 1070,
      "Ġeffect": 1071,
      "Ġtrans": 1072,
      "aug": 1073,
      "though": 1074,
      "ages": 1075,
      "ged": 1076,
      "ĠYou": 1077,
      "son": 1078,
      "Ġparty": 1079,
      "Ġsomething": 1080,
      "Ġyoung": 1081,
      "ries": 1082,
      "ham": 1083,
      "Ġtook": 1084,
      "rop": 1085,
      "ense": 1086,
      "ccess": 1087,
      "The": 1088,
      "Ġ10": 1089,
      "most": 1090,
      "ically": 1091,
      "Ġocc": 1092,
      "urch": 1093,
      "ature": 1094,
      "Ġyesterday": 1095,
      "Ġwin": 1096,
      "br": 1097,
      "min": 1098,
      "ĠNew": 1099,
      "ently": 1100,
      "Ġsupport": 1101,
      "Ġuntil": 1102,
      "ĠOn": 1103,
      "Ġleg": 1104,
      "Ġstate": 1105,
      "hor": 1106,
      "ired": 1107,
      "Ġvis": 1108,
      "Ġthings": 1109,
      "alth": 1110,
      "ier": 1111,
      "Ġschool": 1112,
      "ains": 1113,
      "Ġcontro": 1114,
      "Ġoften": 1115,
      "osition": 1116,
      "Ġpay": 1117,
      "Ġgive": 1118,
      "Ġcomple": 1119,
      "Ġbig": 1120,
      "Ġresp": 1121,
      "ital": 1122,
      "ork": 1123,
      "ours": 1124,
      "Ġpar": 1125,
      "Ġwater": 1126,
      "ĠWhen": 1127,
      "Ġele": 1128,
      "Ġbusiness": 1129,
      "ĠLabour": 1130,
      "'d": 1131,
      "Ġbuild": 1132,
      "ched": 1133,
      "Ġcourse": 1134,
      "Ġsays": 1135,
      "Ġmeet": 1136,
      "Ġsuccess": 1137,
      "Ġ8": 1138,
      "Ġsw": 1139,
      "Ġair": 1140,
      "Ġcost": 1141,
      "Ġconst": 1142,
      "Ġest": 1143,
      "Ġpop": 1144,
      "Ġel": 1145,
      "Ġview": 1146,
      "Ġhalf": 1147,
      "Ġplan": 1148,
      "Ġsocial": 1149,
      "Ġpolitical": 1150,
      "ĠAll": 1151,
      "iety": 1152,
      "Ġresult": 1153,
      "Ġprop": 1154,
      "Ġmove": 1155,
      "the": 1156,
      "ohn": 1157,
      "icult": 1158,
      "ends": 1159,
      "Ġcre": 1160,
      "Ġpast": 1161,
      "Ġduring": 1162,
      "ately": 1163,
      "aim": 1164,
      "Ġsk": 1165,
      "Ġorgan": 1166,
      "Ġequ": 1167,
      "Ġhimself": 1168,
      "Ġbetter": 1169,
      "ruct": 1170,
      "ither": 1171,
      "uck": 1172,
      "ger": 1173,
      "Ġtold": 1174,
      "Ġlater": 1175,
      "Ġmoney": 1176,
      "Ġeas": 1177,
      "Ġfri": 1178,
      "Ġbecome": 1179,
      "Ġexpect": 1180,
      "side": 1181,
      "atch": 1182,
      "Ġindust": 1183,
      "Ġmus": 1184,
      "ĠJohn": 1185,
      "Ġearly": 1186,
      "ĠChrist": 1187,
      "Ġ18": 1188,
      "Ġcompany": 1189,
      "ars": 1190,
      "ament": 1191,
      "reen": 1192,
      "ards": 1193,
      "aining": 1194,
      "ĠPr": 1195,
      "ready": 1196,
      "ats": 1197,
      "Ġlight": 1198,
      "Ġalmost": 1199,
      "ĠSh": 1200,
      "ived": 1201,
      "Ġenough": 1202,
      "Ġquest": 1203,
      "oot": 1204,
      "ering": 1205,
      "Ġfil": 1206,
      "ians": 1207,
      "Ġseen": 1208,
      "cl": 1209,
      "Ġwithin": 1210,
      "aff": 1211,
      "Ġaff": 1212,
      "Ġdays": 1213,
      "Ġcertain": 1214,
      "Ġland": 1215,
      "Ġ197": 1216,
      "den": 1217,
      "Ġpress": 1218,
      "empt": 1219,
      "by": 1220,
      "Ġfur": 1221,
      "Ġey": 1222,
      "Ġvar": 1223,
      "Ġnumber": 1224,
      "orts": 1225,
      "Ġside": 1226,
      "oint": 1227,
      "ĠWest": 1228,
      "unity": 1229,
      "Ġhop": 1230,
      "Ġroom": 1231,
      "Ġrequ": 1232,
      "ional": 1233,
      "app": 1234,
      "Ġ199": 1235,
      "Ġonce": 1236,
      "ck": 1237,
      "ames": 1238,
      "Ġfamily": 1239,
      "Ġpresent": 1240,
      "Ġkeep": 1241,
      "Ġval": 1242,
      "Ġprom": 1243,
      "Ġstre": 1244,
      "ster": 1245,
      "Ġgiven": 1246,
      "ales": 1247,
      "Ġallow": 1248,
      "Ġalready": 1249,
      "Ġtaken": 1250,
      "Ġleast": 1251,
      "ploy": 1252,
      "Ġreturn": 1253,
      "ĠInd": 1254,
      "Ġround": 1255,
      "Ġmil": 1256,
      "Ġoffic": 1257,
      "Ġimportant": 1258,
      "io": 1259,
      "rap": 1260,
      "Ġword": 1261,
      "Ġcase": 1262,
      "Ġmajor": 1263,
      "Ġrecord": 1264,
      "Ġtop": 1265,
      "elt": 1266,
      "Ġwomen": 1267,
      "Ġinvest": 1268,
      "ned": 1269,
      "ĠEngland": 1270,
      "ets": 1271,
      "'m": 1272,
      "ĠSo": 1273,
      "Ġchildren": 1274,
      "ĠHis": 1275,
      "ĠMrs": 1276,
      "ĠBr": 1277,
      "Ġgrow": 1278,
      "ĠDe": 1279,
      "'ve": 1280,
      "vious": 1281,
      "Ġcalled": 1282,
      "Ġdifficult": 1283,
      "atic": 1284,
      "haps": 1285,
      "gin": 1286,
      "Ġtrad": 1287,
      "ĠOne": 1288,
      "'re": 1289,
      "ĠSe": 1290,
      "Ġ15": 1291,
      "Ġhist": 1292,
      "used": 1293,
      "Ġreally": 1294,
      "Ġcut": 1295,
      "iron": 1296,
      "Ġes": 1297,
      "Ġfive": 1298,
      "ivers": 1299,
      "'ll": 1300,
      "Ġpat": 1301,
      "Ġelect": 1302,
      "Ġmind": 1303,
      "ung": 1304,
      "inc": 1305,
      "ances": 1306,
      "ample": 1307,
      "ened": 1308,
      "lf": 1309,
      "orn": 1310,
      "Ġhum": 1311,
      "Ġshort": 1312,
      "ivid": 1313,
      "selves": 1314,
      "Ġclass": 1315,
      "Ġchang": 1316,
      "Ġoper": 1317,
      "ĠRo": 1318,
      "oub": 1319,
      "arch": 1320,
      "Ġprot": 1321,
      "Ġann": 1322,
      "aid": 1323,
      "arent": 1324,
      "ended": 1325,
      "Ġmov": 1326,
      "Ġkind": 1327,
      "Ġpriv": 1328,
      "Ġappro": 1329,
      "Ġlevel": 1330,
      "hat": 1331,
      "gy": 1332,
      "Ġface": 1333,
      "Ġtre": 1334,
      "Ġdeal": 1335,
      "Ġhowever": 1336,
      "Ġever": 1337,
      "duced": 1338,
      "stand": 1339,
      "Ġtell": 1340,
      "ĠEuropean": 1341,
      "Ġdesc": 1342,
      "Ġty": 1343,
      "ĠPro": 1344,
      "ggest": 1345,
      "rown": 1346,
      "rent": 1347,
      "ency": 1348,
      "ĠAmerican": 1349,
      "ots": 1350,
      "ential": 1351,
      "ĠGod": 1352,
      "Ġsuggest": 1353,
      "ĠGr": 1354,
      "Ġpossible": 1355,
      "ides": 1356,
      "chn": 1357,
      "be": 1358,
      "ls": 1359,
      "Ġinvol": 1360,
      "Ġauthor": 1361,
      "ality": 1362,
      "Ġwind": 1363,
      "Ġiss": 1364,
      "Ġasked": 1365,
      "Ġsimp": 1366,
      "not": 1367,
      "Ġspec": 1368,
      "Ġmanag": 1369,
      "raw": 1370,
      "Ġnothing": 1371,
      "ission": 1372,
      "gu": 1373,
      "Ġlooked": 1374,
      "ford": 1375,
      "aring": 1376,
      "Ġclaim": 1377,
      "Ġwhole": 1378,
      "ĠGo": 1379,
      "itions": 1380,
      "Ġhaving": 1381,
      "Ġproper": 1382,
      "Ġclose": 1383,
      "sp": 1384,
      "ases": 1385,
      "Ġfree": 1386,
      "Ġsix": 1387,
      "Ġpract": 1388,
      "!'": 1389,
      "Ġsing": 1390,
      "Ġchange": 1391,
      "Ġbar": 1392,
      "Ġcrit": 1393,
      "Ġfail": 1394,
      "ĠMan": 1395,
      "Ġmembers": 1396,
      "Ġinfl": 1397,
      "ĠWhat": 1398,
      "urs": 1399,
      "irc": 1400,
      "Ġquite": 1401,
      "Ġfurther": 1402,
      "Ġ9": 1403,
      "que": 1404,
      "Ġamong": 1405,
      "over": 1406,
      "Ġlaw": 1407,
      "Ġsum": 1408,
      "Ġste": 1409,
      "ember": 1410,
      "Ġinform": 1411,
      "ane": 1412,
      "Ġca": 1413,
      "omp": 1414,
      "Ġexample": 1415,
      "Ġspecial": 1416,
      "Ġdri": 1417,
      "iving": 1418,
      "Ġmid": 1419,
      "Ġtoget": 1420,
      "Ġtogether": 1421,
      "Ġfall": 1422,
      "ĠNo": 1423,
      "ories": 1424,
      "idence": 1425,
      "ĠPh": 1426,
      "ounc": 1427,
      "Ġ12": 1428,
      "Ġtele": 1429,
      "Ġsit": 1430,
      "Ġmor": 1431,
      "oice": 1432,
      "Ġyet": 1433,
      "Ġtalk": 1434,
      "rew": 1435,
      "Ġdesign": 1436,
      "Ġable": 1437,
      "ĠBe": 1438,
      "Ġmean": 1439,
      "ming": 1440,
      "ured": 1441,
      "ĠEnglish": 1442,
      "Ġdone": 1443,
      "Ġclear": 1444,
      "ĠQ": 1445,
      "ape": 1446,
      "Ġstrong": 1447,
      "iation": 1448,
      "enn": 1449,
      "Ġrev": 1450,
      "Ġbecame": 1451,
      "It": 1452,
      "Ġfac": 1453,
      "Ġwhether": 1454,
      "Ġsol": 1455,
      "Ġmaking": 1456,
      "Ġtax": 1457,
      "gram": 1458,
      "Ġorder": 1459,
      "Ġmed": 1460,
      "Ġdidn": 1461,
      "att": 1462,
      "ert": 1463,
      "Ġcamp": 1464,
      "ĠLi": 1465,
      "ium": 1466,
      "Ġtowards": 1467,
      "Ġnational": 1468,
      "Ġappear": 1469,
      "ges": 1470,
      "Ġlo": 1471,
      "ĠTo": 1472,
      "hy": 1473,
      "ler": 1474,
      "ending": 1475,
      "ĠTr": 1476,
      "ĠIs": 1477,
      "ex": 1478,
      "Ġteam": 1479,
      "ularly": 1480,
      "Ġalong": 1481,
      "Ġ20": 1482,
      "iod": 1483,
      "ully": 1484,
      "ony": 1485,
      "Ġitself": 1486,
      "Ġhold": 1487,
      "ĠWith": 1488,
      "Ġthing": 1489,
      "ĠUS": 1490,
      "ĠDav": 1491,
      "ison": 1492,
      "Ġthemselves": 1493,
      "Ġwon": 1494,
      "Ġrece": 1495,
      "aper": 1496,
      "ĠSp": 1497,
      "ump": 1498,
      "Ġben": 1499,
      "ailable": 1500,
      "Ġconsider": 1501,
      "Ġmonths": 1502,
      "Ġtimes": 1503,
      "cher": 1504,
      "Ġfelt": 1505,
      "ĠChar": 1506,
      "ternational": 1507,
      "Ġproblem": 1508,
      "Ġground": 1509,
      "Ġaccept": 1510,
      "Ġblack": 1511,
      "iting": 1512,
      "Ġreport": 1513,
      "ĠMin": 1514,
      "ief": 1515,
      "Ġpolice": 1516,
      "Ġwhy": 1517,
      "Ġbed": 1518,
      "vent": 1519,
      "Ġbas": 1520,
      "Ġpost": 1521,
      "ery": 1522,
      "aster": 1523,
      "els": 1524,
      "Ġperiod": 1525,
      "Ġwhose": 1526,
      "Ġalthough": 1527,
      "let": 1528,
      "Ġreason": 1529,
      "Ġcond": 1530,
      "ĠCons": 1531,
      "ĠEast": 1532,
      "erence": 1533,
      "ified": 1534,
      "ĠZ": 1535,
      "reed": 1536,
      "Ġfig": 1537,
      "Ġprogram": 1538,
      "Ġgeneral": 1539,
      "Ġpain": 1540,
      "arty": 1541,
      "Ġaccount": 1542,
      "Ġbody": 1543,
      "por": 1544,
      "ift": 1545,
      "Ġothers": 1546,
      "Ġknown": 1547,
      "Ġjob": 1548,
      "Ġtechn": 1549,
      "Ġappe": 1550,
      "Ġlim": 1551,
      "Ġprob": 1552,
      "Ġperform": 1553,
      "Ġwa": 1554,
      "Ġhor": 1555,
      "osp": 1556,
      "Ġsuff": 1557,
      "Ġwalk": 1558,
      "Ġcompet": 1559,
      "Ġworking": 1560,
      "Ġmom": 1561,
      "Ġbit": 1562,
      "Ġsaw": 1563,
      "ĠHowever": 1564,
      "Ġpolicy": 1565,
      "Ġdeath": 1566,
      "Ġlikely": 1567,
      "Ġvot": 1568,
      "Ġlow": 1569,
      "Ġservice": 1570,
      "Ġsense": 1571,
      "lling": 1572,
      "Ġprocess": 1573,
      "Ġlove": 1574,
      "Ġline": 1575,
      "Ġseemed": 1576,
      "ĠSome": 1577,
      "Ġavailable": 1578,
      "Ġconcern": 1579,
      "Ġcannot": 1580,
      "Ġhot": 1581,
      "Ġarea": 1582,
      "Ġple": 1583,
      "avour": 1584,
      "Ġproblems": 1585,
      "ouncil": 1586,
      "Ġdeb": 1587,
      "ively": 1588,
      "ops": 1589,
      "Ġtri": 1590,
      "ĠNot": 1591,
      "ĠSec": 1592,
      "ograp": 1593,
      "ches": 1594,
      "Ġattempt": 1595,
      "ior": 1596,
      "Ġmillion": 1597,
      "Ġcirc": 1598,
      "eed": 1599,
      "Ġfront": 1600,
      "ĠCon": 1601,
      "ĠOr": 1602,
      "Ġbehind": 1603,
      "arden": 1604,
      "Ġexist": 1605,
      "ocr": 1606,
      "Ġquestion": 1607,
      "You": 1608,
      "Ġname": 1609,
      "ulation": 1610,
      "Ġheld": 1611,
      "ology": 1612,
      "HE": 1613,
      "ued": 1614,
      "Ġlist": 1615,
      "ividual": 1616,
      "ressed": 1617,
      "idge": 1618,
      "Ġbegan": 1619,
      "Ġgir": 1620,
      "Ġincluding": 1621,
      "Ġidea": 1622,
      "ĠBy": 1623,
      "Ġcontrol": 1624,
      "rench": 1625,
      "king": 1626,
      "Ġsent": 1627,
      "ize": 1628,
      "Ġmusic": 1629,
      "Ġturned": 1630,
      "ron": 1631,
      "Ġfut": 1632,
      "istic": 1633,
      "ands": 1634,
      "Ġago": 1635,
      "Ġenc": 1636,
      "Ġmeans": 1637,
      "Ġknew": 1638,
      "Ġself": 1639,
      "ee": 1640,
      "Ġdoor": 1641,
      "inal": 1642,
      "mb": 1643,
      "ises": 1644,
      "ĠPar": 1645,
      "my": 1646,
      "Ġra": 1647,
      "utes": 1648,
      "Ġanything": 1649,
      "ĠHer": 1650,
      "resent": 1651,
      "par": 1652,
      "Ġfun": 1653,
      "Ġrepl": 1654,
      "Ġelse": 1655,
      "We": 1656,
      "ĠSouth": 1657,
      "Ġsat": 1658,
      "Ġacross": 1659,
      "Ġseems": 1660,
      "ush": 1661,
      "ĠNational": 1662,
      "Ġeng": 1663,
      "ences": 1664,
      "ĠAfter": 1665,
      "Ġsever": 1666,
      "ination": 1667,
      "Ġdiv": 1668,
      "Ġeither": 1669,
      "Ġgave": 1670,
      "Ġrese": 1671,
      "Ġwanted": 1672,
      "Ġchair": 1673,
      "Ġrad": 1674,
      "itted": 1675,
      "ized": 1676,
      "eter": 1677,
      "chie": 1678,
      "Ġnecess": 1679,
      "sc": 1680,
      "Ġdoub": 1681,
      "Ġindividual": 1682,
      "Ġsound": 1683,
      "ĠThese": 1684,
      "aced": 1685,
      "Ġeduc": 1686,
      "pecial": 1687,
      "Ġunderstand": 1688,
      "of": 1689,
      "Ġlost": 1690,
      "ilt": 1691,
      "Ġsure": 1692,
      "Ġjo": 1693,
      "viron": 1694,
      "Ġwoman": 1695,
      "Ġbad": 1696,
      "Ġroad": 1697,
      "ration": 1698,
      "Ġfood": 1699,
      "Ġperhaps": 1700,
      "dle": 1701,
      "ring": 1702,
      "ached": 1703,
      "oor": 1704,
      "Ġadm": 1705,
      "Ġtoday": 1706,
      "lished": 1707,
      "ctor": 1708,
      "oon": 1709,
      "Ġfund": 1710,
      "Ġseveral": 1711,
      "Ġaw": 1712,
      "ession": 1713,
      "Ġban": 1714,
      "Ġmother": 1715,
      "ina": 1716,
      "amb": 1717,
      "arm": 1718,
      "Ġparticular": 1719,
      "itive": 1720,
      "Ġcharac": 1721,
      "Ġeconomic": 1722,
      "ĠBl": 1723,
      "asing": 1724,
      "Ġpot": 1725,
      "ogn": 1726,
      "ĠWor": 1727,
      "ĠNorth": 1728,
      "Ġhig": 1729,
      "Ġsubject": 1730,
      "Ġlate": 1731,
      "Ġcult": 1732,
      "Ġnear": 1733,
      "Ġant": 1734,
      "rote": 1735,
      "Ġill": 1736,
      "Ġtot": 1737,
      "Ġfuture": 1738,
      "vironment": 1739,
      "Ġlot": 1740,
      "room": 1741,
      "Ġwhite": 1742,
      "aign": 1743,
      "eng": 1744,
      "Ġeyes": 1745,
      "Ġabove": 1746,
      "oyal": 1747,
      "Ġshare": 1748,
      "ĠGovernment": 1749,
      "Ġcommon": 1750,
      "uff": 1751,
      "ĠHar": 1752,
      "use": 1753,
      "isation": 1754,
      "aces": 1755,
      "Ġposition": 1756,
      "fort": 1757,
      "acy": 1758,
      "Ġemploy": 1759,
      "Ġbrought": 1760,
      "Ġconv": 1761,
      "to": 1762,
      "agement": 1763,
      "Ġupon": 1764,
      "Ġwrote": 1765,
      "Ġprobably": 1766,
      "Ġachie": 1767,
      "Ġlooking": 1768,
      "port": 1769,
      "Ġformer": 1770,
      "Ġsex": 1771,
      "Ġparticularly": 1772,
      "vision": 1773,
      "fully": 1774,
      "Ġcentury": 1775,
      "Ġbelieve": 1776,
      "ĠBar": 1777,
      "ĠPer": 1778,
      "Ġexc": 1779,
      "ival": 1780,
      "Ġtradition": 1781,
      "ev": 1782,
      "Ġsoon": 1783,
      "Ġmoment": 1784,
      "ibility": 1785,
      "Ġve": 1786,
      "Ġdescrib": 1787,
      "Ġhealth": 1788,
      "itte": 1789,
      "illed": 1790,
      "Ġabs": 1791,
      "Ġsn": 1792,
      "Ġrelations": 1793,
      "Ġthird": 1794,
      "aged": 1795,
      "ĠGermany": 1796,
      "Ġstri": 1797,
      "Ġbal": 1798,
      "Ġbreak": 1799,
      "ze": 1800,
      "head": 1801,
      "Ġbegin": 1802,
      "ĠMc": 1803,
      "Ġimpro": 1804,
      "Ġexperience": 1805,
      "Ġfinal": 1806,
      "yle": 1807,
      "lled": 1808,
      "50": 1809,
      "ĠConserv": 1810,
      "aut": 1811,
      "ĠEx": 1812,
      "Ġ196": 1813,
      "Ġcompanies": 1814,
      "ĠEd": 1815,
      "Ġargu": 1816,
      "Ġindustry": 1817,
      "ows": 1818,
      "Ġorig": 1819,
      "Ġinformation": 1820,
      "Ġdoing": 1821,
      "Ġdecl": 1822,
      "Ġhands": 1823,
      "ĠThen": 1824,
      "Ġ16": 1825,
      "ilar": 1826,
      "ĠGl": 1827,
      "iver": 1828,
      "like": 1829,
      "Ġrespons": 1830,
      "ĠLord": 1831,
      "Ġoutside": 1832,
      "ĠFrench": 1833,
      "aving": 1834,
      "ann": 1835,
      "ĠParty": 1836,
      "ead": 1837,
      "ah": 1838,
      "ĠAmerica": 1839,
      "Ġmag": 1840,
      "ĠSir": 1841,
      "Ġestab": 1842,
      "Ġfather": 1843,
      "hern": 1844,
      "Ġ11": 1845,
      "Ġwr": 1846,
      "ection": 1847,
      "ĠCol": 1848,
      "men": 1849,
      "Ġrepresent": 1850,
      "omes": 1851,
      "Ġserious": 1852,
      "Ġareas": 1853,
      "Ġ17": 1854,
      "Ġfield": 1855,
      "ĠAd": 1856,
      "Ġterms": 1857,
      "Ġactiv": 1858,
      "ĠDavid": 1859,
      "ored": 1860,
      "Ġprivate": 1861,
      "Ġproduct": 1862,
      "Ġeight": 1863,
      "Ġlear": 1864,
      "Ġquick": 1865,
      "ole": 1866,
      "Ġdom": 1867,
      "Ġdevelopment": 1868,
      "iter": 1869,
      "Ġhuman": 1870,
      "Ġevent": 1871,
      "where": 1872,
      "fact": 1873,
      "Ġhours": 1874,
      "ills": 1875,
      "fer": 1876,
      "Ġnat": 1877,
      "Ġsort": 1878,
      "ares": 1879,
      "Ġtaking": 1880,
      "Ġboy": 1881,
      "Ġlive": 1882,
      "Ġbring": 1883,
      "ouble": 1884,
      "Ġhistory": 1885,
      "Ġbank": 1886,
      "sw": 1887,
      "Ġcampaign": 1888,
      "une": 1889,
      "Ġdev": 1890,
      "Ġobject": 1891,
      "Ġ30": 1892,
      "Ġtest": 1893,
      "ĠUnited": 1894,
      "ording": 1895,
      "Ġdel": 1896,
      "Ġsuper": 1897,
      "pecially": 1898,
      "ĠTHE": 1899,
      "Ġfell": 1900,
      "Ġdiscuss": 1901,
      "iding": 1902,
      "Ġcountries": 1903,
      "augh": 1904,
      "work": 1905,
      "Ġarri": 1906,
      "Ġtry": 1907,
      "pping": 1908,
      "Ġbuilding": 1909,
      "ese": 1910,
      "Ġfilm": 1911,
      "ption": 1912,
      "rict": 1913,
      "Ġsold": 1914,
      "Ġservices": 1915,
      "Ġred": 1916,
      "eth": 1917,
      "ox": 1918,
      "ĠDr": 1919,
      "unch": 1920,
      "itting": 1921,
      "Ġvict": 1922,
      "Ġattack": 1923,
      "epend": 1924,
      "Ġlonger": 1925,
      "inn": 1926,
      "Ġwall": 1927,
      "Ġwond": 1928,
      "Ġintro": 1929,
      "Ġcomplete": 1930,
      "Ġaction": 1931,
      "ele": 1932,
      "Ġpur": 1933,
      "ression": 1934,
      "Ġofficial": 1935,
      "illi": 1936,
      "Ġleaders": 1937,
      "Ġage": 1938,
      "Ġmakes": 1939,
      "ĠCar": 1940,
      "Ġespecially": 1941,
      "Ġcentre": 1942,
      "Ġsingle": 1943,
      "retary": 1944,
      "ening": 1945,
      "Ġfoot": 1946,
      "Ġfavour": 1947,
      "Ġprovide": 1948,
      "Ġtown": 1949,
      "aterial": 1950,
      "Ġwords": 1951,
      "Ġoffer": 1952,
      "Ġ0": 1953,
      "uge": 1954,
      "Ġbenef": 1955,
      "ague": 1956,
      "Ġjud": 1957,
      "ik": 1958,
      "apan": 1959,
      "ĠWorld": 1960,
      "Ġliving": 1961,
      "Ġten": 1962,
      "ream": 1963,
      "Ġmot": 1964,
      "ĠPol": 1965,
      "lier": 1966,
      "Ġsil": 1967,
      "Ġfear": 1968,
      "ĠPl": 1969,
      "oke": 1970,
      "Ġap": 1971,
      "ney": 1972,
      "ipl": 1973,
      "ĠMay": 1974,
      "Ġrate": 1975,
      "Ġ14": 1976,
      "Ġsal": 1977,
      "Ġstay": 1978,
      "joy": 1979,
      "pite": 1980,
      "ones": 1981,
      "Ġdetail": 1982,
      "ER": 1983,
      "Ġled": 1984,
      "Ġmodern": 1985,
      "Ġvisit": 1986,
      "Ġrecogn": 1987,
      "ĠJapan": 1988,
      "Ġinflu": 1989,
      "ator": 1990,
      "ĠGe": 1991,
      "Ġfollowing": 1992,
      "reet": 1993,
      "medi": 1994,
      "Ġfriend": 1995,
      "Ġtour": 1996,
      "ĠAf": 1997,
      "erc": 1998,
      "Ġmatter": 1999,
      "aly": 2000,
      "enty": 2001,
      "Ġsaf": 2002,
      "Ġrange": 2003,
      "Ġtrying": 2004,
      "Ġfinanc": 2005,
      "Ġdark": 2006,
      "Ġrole": 2007,
      "Ġfarm": 2008,
      "Ġdraw": 2009,
      "Ġcharacter": 2010,
      "got": 2011,
      "Ġpict": 2012,
      "Ġnon": 2013,
      "mp": 2014,
      "iday": 2015,
      "olution": 2016,
      "Ġdeter": 2017,
      "Ġcolle": 2018,
      "ene": 2019,
      "ĠPres": 2020,
      "ĠEven": 2021,
      "ĠNow": 2022,
      "str": 2023,
      "Ġheart": 2024,
      "Ġagree": 2025,
      "Ġprep": 2026,
      "Ġpie": 2027,
      "ĠNe": 2028,
      "umb": 2029,
      "Ġgame": 2030,
      "Ġris": 2031,
      "Ġextra": 2032,
      "ĠPhil": 2033,
      "Ġord": 2034,
      "Ġsimilar": 2035,
      "Ġelection": 2036,
      "Ġstruct": 2037,
      "Ġsurpr": 2038,
      "Ġident": 2039,
      "Ġmaterial": 2040,
      "Ġenjoy": 2041,
      "Ġwood": 2042,
      "Ġgone": 2043,
      "mber": 2044,
      "Ġrele": 2045,
      "Ġfriends": 2046,
      "atives": 2047,
      "Ġunc": 2048,
      "Ġprice": 2049,
      "Ġgarden": 2050,
      "Ġmeeting": 2051,
      "Ġsimply": 2052,
      "lin": 2053,
      "Ġleave": 2054,
      "anger": 2055,
      "Ġvill": 2056,
      "Ġsitu": 2057,
      "Ġmorning": 2058,
      "Ġdog": 2059,
      "Ġdisp": 2060,
      "Ġheav": 2061,
      "Ġanim": 2062,
      "for": 2063,
      "year": 2064,
      "yl": 2065,
      "Ġthreat": 2066,
      "ension": 2067,
      "liament": 2068,
      "Ġexpected": 2069,
      "Ġla": 2070,
      "Ġcompl": 2071,
      "Ġ13": 2072,
      "Ġdeep": 2073,
      "hold": 2074,
      "Ġsens": 2075,
      "ĠPe": 2076,
      "Ġstarted": 2077,
      "vert": 2078,
      "Ġsun": 2079,
      "ability": 2080,
      "Ġclub": 2081,
      "irt": 2082,
      "Ġneeds": 2083,
      "Ġsociety": 2084,
      "Ġproject": 2085,
      "itary": 2086,
      "ĠSw": 2087,
      "Ġenvironment": 2088,
      "inet": 2089,
      "ĠAust": 2090,
      "Ġsqu": 2091,
      "Ġusually": 2092,
      "Ġdecision": 2093,
      "Ġneeded": 2094,
      "Ġhous": 2095,
      "Ġ194": 2096,
      "Ġpersonal": 2097,
      "ittee": 2098,
      "Ġtrade": 2099,
      "Ġwide": 2100,
      "Ġtraining": 2101,
      "Ġhol": 2102,
      "Ġrul": 2103,
      "Ġvol": 2104,
      "Ġdecided": 2105,
      "Ġlat": 2106,
      "Ġpoll": 2107,
      "Ġess": 2108,
      "gest": 2109,
      "ĠHouse": 2110,
      "unt": 2111,
      "ledge": 2112,
      "che": 2113,
      "Ġinternational": 2114,
      "Ġexcept": 2115,
      "ivil": 2116,
      "oviet": 2117,
      "Ġbuy": 2118,
      "Ġdam": 2119,
      "Ġtelevision": 2120,
      "airs": 2121,
      "Ġchurch": 2122,
      "Ġcentral": 2123,
      "Ġattract": 2124,
      "af": 2125,
      "Ġcross": 2126,
      "Ġwrong": 2127,
      "Ġobs": 2128,
      "ners": 2129,
      "oman": 2130,
      "Ġseason": 2131,
      "ĠKing": 2132,
      "bed": 2133,
      "Ġstory": 2134,
      "set": 2135,
      "Ġstage": 2136,
      "ĠFore": 2137,
      "Ġtrue": 2138,
      "ald": 2139,
      "ps": 2140,
      "Ġheard": 2141,
      "oid": 2142,
      "yn": 2143,
      "urity": 2144,
      "owers": 2145,
      "ĠSoviet": 2146,
      "Ġmanagement": 2147,
      "Ġcurrent": 2148,
      "ceed": 2149,
      "Ġdemand": 2150,
      "hel": 2151,
      "Ġswe": 2152,
      "Ġgetting": 2153,
      "ĠMinister": 2154,
      "ĠOff": 2155,
      "itud": 2156,
      "ĠSte": 2157,
      "ĠSm": 2158,
      "Ġminutes": 2159,
      "Ġdead": 2160,
      "ological": 2161,
      "Ġsignific": 2162,
      "Ġsle": 2163,
      "Ġsomeone": 2164,
      "Ġsour": 2165,
      "Ġtyp": 2166,
      "Ġinvolved": 2167,
      "Ġworth": 2168,
      "Ġgroups": 2169,
      "ĠSoc": 2170,
      "Ġpopular": 2171,
      "Ġstat": 2172,
      "Ġ50": 2173,
      "Ġcapital": 2174,
      "Ġ193": 2175,
      "Ġusing": 2176,
      "Ġrecent": 2177,
      "iversity": 2178,
      "Ġmiss": 2179,
      "oud": 2180,
      "Ġcommun": 2181,
      "Ġparent": 2182,
      "Ġhigher": 2183,
      "Ġadded": 2184,
      "Ġcontr": 2185,
      "ĠMor": 2186,
      "spect": 2187,
      "artment": 2188,
      "oe": 2189,
      "Ġtreat": 2190,
      "Ġcover": 2191,
      "Ġevidence": 2192,
      "Ġhope": 2193,
      "Ġmeas": 2194,
      "Ġforce": 2195,
      "Ġprinc": 2196,
      "inary": 2197,
      "Ġnorm": 2198,
      "Ġlay": 2199,
      "Ġ192": 2200,
      "ĠAfric": 2201,
      "Ġsometimes": 2202,
      "Ġnature": 2203,
      "sequ": 2204,
      "Ġrelig": 2205,
      "Ġproduction": 2206,
      "raft": 2207,
      "Ġemer": 2208,
      "ĠRich": 2209,
      "Ġrespect": 2210,
      "Ġeducation": 2211,
      "Ġdram": 2212,
      "Ġresearch": 2213,
      "Ġfa": 2214,
      "ĠIr": 2215,
      "ĠWar": 2216,
      "Ġstep": 2217,
      "Ġarr": 2218,
      "Ġcommunity": 2219,
      "Ġstock": 2220,
      "Ġslow": 2221,
      "Ġeasy": 2222,
      "ected": 2223,
      "osing": 2224,
      "Ġwife": 2225,
      "ĠCan": 2226,
      "Ġfamil": 2227,
      "val": 2228,
      "Ġprogramme": 2229,
      "Ġcoming": 2230,
      "ĠEn": 2231,
      "Ġtherefore": 2232,
      "Ġcal": 2233,
      "ror": 2234,
      "ishing": 2235,
      "Ġimmedi": 2236,
      "acher": 2237,
      "Ġfight": 2238,
      "Ġcomes": 2239,
      "ĠUK": 2240,
      "gress": 2241,
      "off": 2242,
      "ensive": 2243,
      "Ġincrease": 2244,
      "Ġtem": 2245,
      "Ġcomb": 2246,
      "ĠPeter": 2247,
      "Ġcity": 2248,
      "ĠUnion": 2249,
      "Ġpred": 2250,
      "Ġloss": 2251,
      "Ġnecessary": 2252,
      "Ġlar": 2253,
      "Ġfirm": 2254,
      "Ġpick": 2255,
      "Ġcritic": 2256,
      "Ġsummer": 2257,
      "ociation": 2258,
      "Ġlack": 2259,
      "ging": 2260,
      "Ġbased": 2261,
      "Ġur": 2262,
      "Ġapproach": 2263,
      "body": 2264,
      "Ġgen": 2265,
      "Ġweeks": 2266,
      "ĠThatcher": 2267,
      "Ġoccas": 2268,
      "Ġansw": 2269,
      "uly": 2270,
      "bert": 2271,
      "ĠFrance": 2272,
      "uit": 2273,
      "eb": 2274,
      "Ġexam": 2275,
      "Ġeverything": 2276,
      "Ġfinancial": 2277,
      "Ġsche": 2278,
      "ĠAb": 2279,
      "Ġearlier": 2280,
      "Ġprevious": 2281,
      "Ġlink": 2282,
      "Ġbur": 2283,
      "ĠGu": 2284,
      "Ġimag": 2285,
      "Ġplants": 2286,
      "Ġpaper": 2287,
      "ĠAlthough": 2288,
      "IN": 2289,
      "ergy": 2290,
      "Ġdoubt": 2291,
      "rey": 2292,
      "Ġsaying": 2293,
      "omb": 2294,
      "Ġsurv": 2295,
      "Ġencour": 2296,
      "ĠMy": 2297,
      "ky": 2298,
      "Ġforeign": 2299,
      "Ġfre": 2300,
      "Ġtried": 2301,
      "Ġbeaut": 2302,
      "oming": 2303,
      "Ġplant": 2304,
      "Ġquality": 2305,
      "ĠAm": 2306,
      "ators": 2307,
      "Ġblood": 2308,
      "Ġredu": 2309,
      "Ġoffice": 2310,
      "iol": 2311,
      "orrow": 2312,
      "Ġissue": 2313,
      "Ġmis": 2314,
      "Ġindepend": 2315,
      "Ġherself": 2316,
      "What": 2317,
      "Ġden": 2318,
      "ĠTw": 2319,
      "Ġtou": 2320,
      "ady": 2321,
      "Ġwhom": 2322,
      "Ġnatural": 2323,
      "ĠRoyal": 2324,
      "Ġchance": 2325,
      "Ġclim": 2326,
      "Ġdisapp": 2327,
      "Ġobvious": 2328,
      "Ġannoun": 2329,
      "cent": 2330,
      "Ġstaff": 2331,
      "Ġremember": 2332,
      "Ġtotal": 2333,
      "ilities": 2334,
      "come": 2335,
      "Ġwatch": 2336,
      "Ġcop": 2337,
      "ĠNor": 2338,
      "Ġens": 2339,
      "ĠCharles": 2340,
      "ĠBer": 2341,
      "aul": 2342,
      "aves": 2343,
      "ĠScot": 2344,
      "olic": 2345,
      "Ġkept": 2346,
      "icient": 2347,
      "Ġball": 2348,
      "ĠChurch": 2349,
      "Ġways": 2350,
      "Ġbott": 2351,
      "Ġdest": 2352,
      "antly": 2353,
      "ĠAss": 2354,
      "ĠCo": 2355,
      "Ġprovided": 2356,
      "Ġaud": 2357,
      "ously": 2358,
      "Ġpack": 2359,
      "rial": 2360,
      "Ġtra": 2361,
      "Ġmass": 2362,
      "Ġpoints": 2363,
      "Ġopport": 2364,
      "Ġfeet": 2365,
      "Ġamount": 2366,
      "ining": 2367,
      "ON": 2368,
      "Ġsubst": 2369,
      "hod": 2370,
      "enth": 2371,
      "estern": 2372,
      "Ġfollowed": 2373,
      "Ġfair": 2374,
      "Ġincreasing": 2375,
      "Ġpaid": 2376,
      "Ġvoice": 2377,
      "Ġcontrib": 2378,
      "Ġchanges": 2379,
      "ustom": 2380,
      "aught": 2381,
      "Ġgreen": 2382,
      "Ġ1990": 2383,
      "Ġmatch": 2384,
      "ental": 2385,
      "Ġcases": 2386,
      "Ġstyle": 2387,
      "mes": 2388,
      "Ġalone": 2389,
      "reg": 2390,
      "nes": 2391,
      "Ġstra": 2392,
      "ael": 2393,
      "ask": 2394,
      "Ġleading": 2395,
      "sy": 2396,
      "Ġ100": 2397,
      "ĠYet": 2398,
      "itable": 2399,
      "ĠCup": 2400,
      "Ġregard": 2401,
      "rs": 2402,
      "Ġarch": 2403,
      "Ġcold": 2404,
      "Ġcertainly": 2405,
      "Ġcontract": 2406,
      "Ġseries": 2407,
      "Ġhorse": 2408,
      "Ġpull": 2409,
      "Ġdro": 2410,
      "Ġrates": 2411,
      "ique": 2412,
      "ils": 2413,
      "Ġunion": 2414,
      "Ġ25": 2415,
      "Ġshall": 2416,
      "Ġpoor": 2417,
      "lands": 2418,
      "Ġbuilt": 2419,
      "Ġchairman": 2420,
      "Ġproduced": 2421,
      "Ġer": 2422,
      "itution": 2423,
      "ĠCam": 2424,
      "Ġperf": 2425,
      "reme": 2426,
      "Ġemb": 2427,
      "ĠChristian": 2428,
      "Ġcause": 2429,
      "isters": 2430,
      "Ġdrink": 2431,
      "Ġaim": 2432,
      "aker": 2433,
      "Ġcarry": 2434,
      "Ġvalue": 2435,
      "uter": 2436,
      "oard": 2437,
      "iled": 2438,
      "Ġbroad": 2439,
      "ĠUN": 2440,
      "oured": 2441,
      "Ġprim": 2442,
      "Ġmach": 2443,
      "Ġund": 2444,
      "ams": 2445,
      "Ġrout": 2446,
      "ĠCent": 2447,
      "ublic": 2448,
      "Ġcosts": 2449,
      "Ġremark": 2450,
      "Ġproperty": 2451,
      "rest": 2452,
      "Ġsepar": 2453,
      "eneral": 2454,
      "Ġpen": 2455,
      "Ġcourt": 2456,
      "Ġfine": 2457,
      "Ġ195": 2458,
      "Ġsett": 2459,
      "Ġglass": 2460,
      "Ġrunning": 2461,
      "Ġprofess": 2462,
      "het": 2463,
      "ĠPresident": 2464,
      "Ġdied": 2465,
      "ĠIre": 2466,
      "Ġengine": 2467,
      "Ġpotential": 2468,
      "Ġreform": 2469,
      "uth": 2470,
      "Ġstudy": 2471,
      "Ġplayed": 2472,
      "ification": 2473,
      "Ġmovement": 2474,
      "itor": 2475,
      "Ġnews": 2476,
      "Ġcoup": 2477,
      "Ġrise": 2478,
      "Ġevening": 2479,
      "bit": 2480,
      "iar": 2481,
      "tered": 2482,
      "Ġson": 2483,
      "Ġdanger": 2484,
      "Ġstreng": 2485,
      "time": 2486,
      "Ġforward": 2487,
      "irst": 2488,
      "rug": 2489,
      "ĠScotland": 2490,
      "Ġbi": 2491,
      "ĠCouncil": 2492,
      "Ġseven": 2493,
      "undred": 2494,
      "Ġperformance": 2495,
      "Ġallowed": 2496,
      "ĠMost": 2497,
      "Ġhus": 2498,
      "uses": 2499,
      "Ġforest": 2500,
      "Ġgreater": 2501,
      "Ġdemon": 2502,
      "Ġinclude": 2503,
      "uted": 2504,
      "itch": 2505,
      "Ġcoll": 2506,
      "Ġlower": 2507,
      "Ġspent": 2508,
      "ĠAct": 2509,
      "eds": 2510,
      "Ġpurp": 2511,
      "ĠIreland": 2512,
      "Ġfire": 2513,
      "Ġknowledge": 2514,
      "ule": 2515,
      "Ġhair": 2516,
      "allen": 2517,
      "Ġgirl": 2518,
      "ĠGeor": 2519,
      "Ġrelationship": 2520,
      "iated": 2521,
      "Ġcreat": 2522,
      "urg": 2523,
      "Ġ40": 2524,
      "asc": 2525,
      "Ġcho": 2526,
      "kn": 2527,
      "isc": 2528,
      "Ġreve": 2529,
      "Ġmoved": 2530,
      "Ġstop": 2531,
      "Ġliter": 2532,
      "Ġcollect": 2533,
      "Ġphys": 2534,
      "Ġstraight": 2535,
      "Ġwasn": 2536,
      "attle": 2537,
      "ken": 2538,
      "Ġtal": 2539,
      "Ġtable": 2540,
      "AN": 2541,
      "oes": 2542,
      "Ġcivil": 2543,
      "pper": 2544,
      "Ġjour": 2545,
      "leg": 2546,
      "Ġpret": 2547,
      "urb": 2548,
      "Ġmilitary": 2549,
      "line": 2550,
      "Ġask": 2551,
      "hire": 2552,
      "usion": 2553,
      "ights": 2554,
      "Ġleader": 2555,
      "dden": 2556,
      "Ġnet": 2557,
      "Ġreact": 2558,
      "ĠCity": 2559,
      "Ġ1989": 2560,
      "He": 2561,
      "well": 2562,
      "ĠEli": 2563,
      "ris": 2564,
      "angu": 2565,
      "Ġpressure": 2566,
      "vey": 2567,
      "Ġinit": 2568,
      "Ġaccording": 2569,
      "Ġreceived": 2570,
      "Ġspir": 2571,
      "ĠStreet": 2572,
      "Ġmiddle": 2573,
      "cast": 2574,
      "Ġcat": 2575,
      "cious": 2576,
      "ech": 2577,
      "Ġtend": 2578,
      "arily": 2579,
      "ote": 2580,
      "Ġmethod": 2581,
      "fl": 2582,
      "Ġattention": 2583,
      "Ġanti": 2584,
      "aur": 2585,
      "avi": 2586,
      "aching": 2587,
      "Ġcontinue": 2588,
      "Ġmanager": 2589,
      "Ġsudden": 2590,
      "Ġdescribed": 2591,
      "Ġsea": 2592,
      "Ġrecently": 2593,
      "band": 2594,
      "ĠWilli": 2595,
      "Ġdirector": 2596,
      "Ġwritten": 2597,
      "yond": 2598,
      "Ġinj": 2599,
      "aughter": 2600,
      "oved": 2601,
      "ĠConservative": 2602,
      "ĠMany": 2603,
      "Ġtrain": 2604,
      "Ġmere": 2605,
      "Ġslight": 2606,
      "Ġinterv": 2607,
      "Ġcontinued": 2608,
      "field": 2609,
      "Ġproduc": 2610,
      "Ġsimple": 2611,
      "Ġmeant": 2612,
      "arp": 2613,
      "Ġeveryone": 2614,
      "amed": 2615,
      "Ġanyone": 2616,
      "Ġaver": 2617,
      "wood": 2618,
      "Ġfeeling": 2619,
      "ĠAustral": 2620,
      "Ġpos": 2621,
      "Ġworkers": 2622,
      "Ġbeginning": 2623,
      "ĠMid": 2624,
      "Ġsto": 2625,
      "lex": 2626,
      "ĠJust": 2627,
      "Ġhundred": 2628,
      "utions": 2629,
      "ĠJan": 2630,
      "Ġmember": 2631,
      "Ġmaintain": 2632,
      "ĠDes": 2633,
      "ĠRuss": 2634,
      "Ġchoice": 2635,
      "Ġspace": 2636,
      "Ġentire": 2637,
      "Ġgiving": 2638,
      "Ġsituation": 2639,
      "Ġcred": 2640,
      "Ġmount": 2641,
      "lement": 2642,
      "ify": 2643,
      "ES": 2644,
      "Ġnar": 2645,
      "Ġhear": 2646,
      "Ġagreed": 2647,
      "Ġeconomy": 2648,
      "Ġdue": 2649,
      "lying": 2650,
      "Ġir": 2651,
      "illing": 2652,
      "orthern": 2653,
      "Ġparents": 2654,
      "Ġquar": 2655,
      "aviour": 2656,
      "Ġmyself": 2657,
      "ograph": 2658,
      "Ġexec": 2659,
      "Ġideas": 2660,
      "Ġconditions": 2661,
      "Ġindeed": 2662,
      "OR": 2663,
      "ĠOct": 2664,
      "Ġworked": 2665,
      "anced": 2666,
      "Ġlooks": 2667,
      "ternal": 2668,
      "add": 2669,
      "ĠBel": 2670,
      "Ġchamp": 2671,
      "beral": 2672,
      "lo": 2673,
      "resh": 2674,
      "ĠFrom": 2675,
      "Ġindic": 2676,
      "Ġhy": 2677,
      "Ġthinking": 2678,
      "Ġphot": 2679,
      "Ġpractice": 2680,
      "ufact": 2681,
      "Ġvers": 2682,
      "ĠMich": 2683,
      "Ġsoft": 2684,
      "Ġletter": 2685,
      "mark": 2686,
      "Ġhosp": 2687,
      "Ġworks": 2688,
      "Ġclearly": 2689,
      "Ġaddition": 2690,
      "ips": 2691,
      "Ġactually": 2692,
      "Ġchem": 2693,
      "ompan": 2694,
      "ĠOf": 2695,
      "Ġtraditional": 2696,
      "ĠSim": 2697,
      "duct": 2698,
      "Ġshares": 2699,
      "ĠCour": 2700,
      "Ġvarious": 2701,
      "Ġmajority": 2702,
      "Ġanswer": 2703,
      "Ġschools": 2704,
      "ests": 2705,
      "Ġqual": 2706,
      "Ġremain": 2707,
      "Ġgovern": 2708,
      "Ġbelow": 2709,
      "Ġenergy": 2710,
      "Ġfloor": 2711,
      "Ġhistor": 2712,
      "dd": 2713,
      "inct": 2714,
      "Ġanal": 2715,
      "ĠDon": 2716,
      "ĠYork": 2717,
      "Ġappeared": 2718,
      "Ġapparent": 2719,
      "iction": 2720,
      "ĠRichard": 2721,
      "Ġbillion": 2722,
      "ĠMark": 2723,
      "inated": 2724,
      "Ġcolour": 2725,
      "Ġconcerned": 2726,
      "Ġviol": 2727,
      "Ġshows": 2728,
      "Ġgoes": 2729,
      "Ġdi": 2730,
      "ĠCor": 2731,
      "Ġhost": 2732,
      "urd": 2733,
      "Ġquickly": 2734,
      "Ġtakes": 2735,
      "Ġreached": 2736,
      "Ġexh": 2737,
      "Ġoffered": 2738,
      "ĠDem": 2739,
      "rief": 2740,
      "Ġnearly": 2741,
      "Ġassum": 2742,
      "ients": 2743,
      "Ġcustom": 2744,
      "rugg": 2745,
      "Ġwonder": 2746,
      "ober": 2747,
      "ĠLaw": 2748,
      "Ġbooks": 2749,
      "Ġdespite": 2750,
      "Ġsurf": 2751,
      "Ġgrowth": 2752,
      "ength": 2753,
      "Ġrequired": 2754,
      "Ġmess": 2755,
      "oph": 2756,
      "Ġfailed": 2757,
      "Ġprices": 2758,
      "Ġsize": 2759,
      "Ġstood": 2760,
      "ĠMore": 2761,
      "Ġran": 2762,
      "Ġappoint": 2763,
      "Ġchanged": 2764,
      "Ġauthority": 2765,
      "Ġprevent": 2766,
      "Ġplaying": 2767,
      "mon": 2768,
      "de": 2769,
      "Ġexerc": 2770,
      "Ġindustrial": 2771,
      "ĠMichael": 2772,
      "bour": 2773,
      "Ġthroughout": 2774,
      "Ġrights": 2775,
      "Ġweight": 2776,
      "ĠPark": 2777,
      "Ġ1980": 2778,
      "xford": 2779,
      "isions": 2780,
      "idered": 2781,
      "Ġfigure": 2782,
      "Ġsleep": 2783,
      "ires": 2784,
      "ĠMe": 2785,
      "Ġfem": 2786,
      "Ġreflect": 2787,
      "ruction": 2788,
      "AT": 2789,
      "uary": 2790,
      "Ġtit": 2791,
      "Ġfif": 2792,
      "ĠApr": 2793,
      "alled": 2794,
      "Ġesc": 2795,
      "Ġessential": 2796,
      "ĠPat": 2797,
      "Ġ24": 2798,
      "ground": 2799,
      "Ġshowed": 2800,
      "Ġsexual": 2801,
      "Ġacqu": 2802,
      "Ġchief": 2803,
      "Ġproduce": 2804,
      "Ġrail": 2805,
      "go": 2806,
      "Ġconference": 2807,
      "Ġremains": 2808,
      "ĠScott": 2809,
      "Ġforces": 2810,
      "Ġsecurity": 2811,
      "ĠSecretary": 2812,
      "Ġnor": 2813,
      "Ġbehaviour": 2814,
      "EN": 2815,
      "ĠJune": 2816,
      "Ġperfect": 2817,
      "iers": 2818,
      "Ġcharge": 2819,
      "Ġflat": 2820,
      "Ġfigures": 2821,
      "Ġhotel": 2822,
      "Ġrelative": 2823,
      "Ġminister": 2824,
      "overed": 2825,
      "Ġhusband": 2826,
      "Ġparties": 2827,
      "ids": 2828,
      "ĠAg": 2829,
      "Ġinside": 2830,
      "enced": 2831,
      "ĠPhilip": 2832,
      "ites": 2833,
      "Ġbeyond": 2834,
      "ounter": 2835,
      "Ġopened": 2836,
      "ball": 2837,
      "Ġmanufact": 2838,
      "Ġconcent": 2839,
      "Ġhappened": 2840,
      "Ġgrowing": 2841,
      "Ġvillage": 2842,
      "Ġcomfort": 2843,
      "Ġparts": 2844,
      "rec": 2845,
      "imum": 2846,
      "ĠWil": 2847,
      "ĠHigh": 2848,
      "Ġachieve": 2849,
      "ĠOctober": 2850,
      "asons": 2851,
      "Ġhuge": 2852,
      "Ġinvestment": 2853,
      "amm": 2854,
      "Ġsales": 2855,
      "Ġsuccessful": 2856,
      "isted": 2857,
      "Ġtro": 2858,
      "Ġincome": 2859,
      "Ġconsum": 2860,
      "oses": 2861,
      "Ġtrees": 2862,
      "Ġfrequ": 2863,
      "ĠApril": 2864,
      "Ġrequire": 2865,
      "Ġchallen": 2866,
      "wise": 2867,
      "Ġspl": 2868,
      "lear": 2869,
      "ĠInst": 2870,
      "Ġoccur": 2871,
      "Ġaware": 2872,
      "Ġmer": 2873,
      "iful": 2874,
      "Ġbox": 2875,
      "Ġbeat": 2876,
      "uty": 2877,
      "Ġones": 2878,
      "ĠAug": 2879,
      "ĠRoman": 2880,
      "Ġcarried": 2881,
      "minist": 2882,
      "AR": 2883,
      "Ġfast": 2884,
      "Ġlangu": 2885,
      "ĠServ": 2886,
      "right": 2887,
      "Ġwat": 2888,
      "Ġfit": 2889,
      "Ġshown": 2890,
      "atever": 2891,
      "ĠFl": 2892,
      "Ġprepared": 2893,
      "Ġcomplex": 2894,
      "aded": 2895,
      "aries": 2896,
      "Ġdrug": 2897,
      "ĠTheir": 2898,
      "Ġrace": 2899,
      "Ġclot": 2900,
      "aled": 2901,
      "Ġang": 2902,
      "Ġconsidered": 2903,
      "Ġpolitics": 2904,
      "Ġincreased": 2905,
      "Ġpopulation": 2906,
      "Ġdefence": 2907,
      "ĠAssociation": 2908,
      "change": 2909,
      "okes": 2910,
      "Ġprec": 2911,
      "Ġspecies": 2912,
      "Ġopt": 2913,
      "Ġbase": 2914,
      "iling": 2915,
      "Ġplayers": 2916,
      "astic": 2917,
      "Ġheavy": 2918,
      "Ġcouncil": 2919,
      "Ġpleas": 2920,
      "Ġda": 2921,
      "Ġdispl": 2922,
      "ocked": 2923,
      "eder": 2924,
      "Ġoriginal": 2925,
      "rect": 2926,
      "ĠGeneral": 2927,
      "aging": 2928,
      "Ġspeak": 2929,
      "Ġtype": 2930,
      "ĠJack": 2931,
      "ibly": 2932,
      "Ġclean": 2933,
      "Ġinstead": 2934,
      "Ġlives": 2935,
      "ĠSat": 2936,
      "rate": 2937,
      "ĠSept": 2938,
      "Ġprincip": 2939,
      "ĠForest": 2940,
      "Ġgra": 2941,
      "Ġplans": 2942,
      "ĠPrime": 2943,
      "acing": 2944,
      "Ġmist": 2945,
      "Ġarm": 2946,
      "Ġteacher": 2947,
      "Ġimm": 2948,
      "Ġimprove": 2949,
      "itude": 2950,
      "Ġahead": 2951,
      "sec": 2952,
      "erved": 2953,
      "Ġcontact": 2954,
      "icle": 2955,
      "ĠSund": 2956,
      "Ġgrand": 2957,
      "Ġpublished": 2958,
      "Ġmiles": 2959,
      "Ġcast": 2960,
      "iment": 2961,
      "Ġpeace": 2962,
      "ĠDep": 2963,
      "Ġpoet": 2964,
      "Ġdeveloped": 2965,
      "Ġrisk": 2966,
      "iny": 2967,
      "Ġrare": 2968,
      "Ġinfluence": 2969,
      "ĠDo": 2970,
      "Ġsafe": 2971,
      "na": 2972,
      "Ġaltern": 2973,
      "Ġlegal": 2974,
      "Ġtrust": 2975,
      "ĠOther": 2976,
      "rowd": 2977,
      "ĠMac": 2978,
      "Ġsell": 2979,
      "ables": 2980,
      "ĠJames": 2981,
      "Ġwriting": 2982,
      "Ġaverage": 2983,
      "house": 2984,
      "Ġquiet": 2985,
      "Ġemph": 2986,
      "Ġsouth": 2987,
      "ĠFirst": 2988,
      "ixed": 2989,
      "Ġoccup": 2990,
      "erve": 2991,
      "ĠEC": 2992,
      "ĠRep": 2993,
      "Ġ1988": 2994,
      "ading": 2995,
      "Ġdifference": 2996,
      "Ġpiece": 2997,
      "Th": 2998,
      "atory": 2999,
      "Ġboard": 3000,
      "ĠAugust": 3001,
      "alt": 3002,
      "ades": 3003,
      "ĠPaul": 3004,
      "Ġgold": 3005,
      "Ġcouldn": 3006,
      "pro": 3007,
      "Ġthous": 3008,
      "apers": 3009,
      "eness": 3010,
      "Ġcand": 3011,
      "Ġhur": 3012,
      "Ġ1987": 3013,
      "Ġtouch": 3014,
      "Ġblue": 3015,
      "Ġhappy": 3016,
      "ata": 3017,
      "Ġextreme": 3018,
      "Ġbrother": 3019,
      "Ġtar": 3020,
      "acks": 3021,
      "Ġannounced": 3022,
      "Ġbud": 3023,
      "mercial": 3024,
      "Ġauthorities": 3025,
      "ĠQu": 3026,
      "Ġstructure": 3027,
      "ses": 3028,
      "Ġnorth": 3029,
      "ĠPal": 3030,
      "ctions": 3031,
      "Ġlength": 3032,
      "Ġpicture": 3033,
      "ees": 3034,
      "Ġnovel": 3035,
      "lied": 3036,
      "iles": 3037,
      "Ġdeli": 3038,
      "ĠQue": 3039,
      "ĠDemocr": 3040,
      "Ġfresh": 3041,
      "utive": 3042,
      "Ġkey": 3043,
      "umn": 3044,
      "Ġunlike": 3045,
      "Ġimage": 3046,
      "Ġlif": 3047,
      "irth": 3048,
      "ancy": 3049,
      "urance": 3050,
      "apter": 3051,
      "Ġcontinu": 3052,
      "Ġresults": 3053,
      "ashion": 3054,
      "Ġoil": 3055,
      "Ġamb": 3056,
      "No": 3057,
      "ope": 3058,
      "ĠAng": 3059,
      "Ġscheme": 3060,
      "ĠSu": 3061,
      "Ġwarm": 3062,
      "Ġeye": 3063,
      "ĠSeptember": 3064,
      "Ġfish": 3065,
      "ĠKe": 3066,
      "Ġestablish": 3067,
      "Ġlines": 3068,
      "ĠGeorge": 3069,
      "30": 3070,
      "Ġevents": 3071,
      "ĠMarch": 3072,
      "lection": 3073,
      "Ġhardly": 3074,
      "Ġapart": 3075,
      "Ġconn": 3076,
      "Ġexact": 3077,
      "aint": 3078,
      "Ġquestions": 3079,
      "ushed": 3080,
      "Ġpassed": 3081,
      "Ġdemonstr": 3082,
      "oul": 3083,
      "istry": 3084,
      "ateg": 3085,
      "Ġbelieved": 3086,
      "Ġissues": 3087,
      "Ġstandard": 3088,
      "Ġcompetition": 3089,
      "Ġkit": 3090,
      "Ġimpl": 3091,
      "BC": 3092,
      "Ġhit": 3093,
      "ett": 3094,
      "Ġdefe": 3095,
      "Ġadvant": 3096,
      "cul": 3097,
      "ĠMajor": 3098,
      "Ġport": 3099,
      "Ġ22": 3100,
      "Ġopin": 3101,
      "ĠCommission": 3102,
      "Ġinn": 3103,
      "icit": 3104,
      "ĠMP": 3105,
      "Ġ60": 3106,
      "inner": 3107,
      "Ġbanks": 3108,
      "ĠSmith": 3109,
      "Ġcouple": 3110,
      "cell": 3111,
      "oted": 3112,
      "Ġpropos": 3113,
      "vere": 3114,
      "ization": 3115,
      "wh": 3116,
      "ĠMon": 3117,
      "ĠWhite": 3118,
      "Ġbasis": 3119,
      "Ġrock": 3120,
      "Ġdoesn": 3121,
      "Ġcars": 3122,
      "ĠTwo": 3123,
      "Ġemot": 3124,
      "ĠMag": 3125,
      "Ġrefer": 3126,
      "road": 3127,
      "sych": 3128,
      "ĠSunday": 3129,
      "hester": 3130,
      "anch": 3131,
      "oper": 3132,
      "Ġleaving": 3133,
      "rawn": 3134,
      "Ġgenerally": 3135,
      "Ġprofessional": 3136,
      "Ġsusp": 3137,
      "ĠJuly": 3138,
      "atholic": 3139,
      "dom": 3140,
      "bridge": 3141,
      "Ġrap": 3142,
      "fast": 3143,
      "Ġgives": 3144,
      "Ġband": 3145,
      "Ġstar": 3146,
      "ĠGreen": 3147,
      "ĠIrish": 3148,
      "cy": 3149,
      "zer": 3150,
      "Ġrain": 3151,
      "Ġcircum": 3152,
      "Ġreligious": 3153,
      "chen": 3154,
      "Ġwish": 3155,
      "Ġpan": 3156,
      "orough": 3157,
      "Ġlevels": 3158,
      "och": 3159,
      "uel": 3160,
      "Ġvote": 3161,
      "ray": 3162,
      "erson": 3163,
      "Ġsatis": 3164,
      "Ġraised": 3165,
      "Ġsen": 3166,
      "Ġwild": 3167,
      "Ġdream": 3168,
      "Ġstrugg": 3169,
      "ĠBank": 3170,
      "Ġcaused": 3171,
      "Ġ21": 3172,
      "Ġshop": 3173,
      "Ġtwenty": 3174,
      "Ġwindow": 3175,
      "night": 3176,
      "Ġphil": 3177,
      "Ġestablished": 3178,
      "Ġanalys": 3179,
      "Ġmoving": 3180,
      "ĠCourt": 3181,
      "Ġarms": 3182,
      "Ġready": 3183,
      "Ġplanning": 3184,
      "ĠStates": 3185,
      "Ġopposition": 3186,
      "Ġhour": 3187,
      "sey": 3188,
      "ĠWales": 3189,
      "nces": 3190,
      "Ġplaces": 3191,
      "Ġminor": 3192,
      "Ġeasily": 3193,
      "Ġnegot": 3194,
      "Ġver": 3195,
      "using": 3196,
      "Ġprefer": 3197,
      "round": 3198,
      "Ġclosed": 3199,
      "onse": 3200,
      "Ġbeg": 3201,
      "ĠBoth": 3202,
      "ĠJapanese": 3203,
      "Ġhouses": 3204,
      "Ġhon": 3205,
      "Ġreb": 3206,
      "Ġdeg": 3207,
      "ĠWhile": 3208,
      "Ġcareer": 3209,
      "abor": 3210,
      "Ġaccess": 3211,
      "Ġexperi": 3212,
      "antic": 3213,
      "Ġfeat": 3214,
      "Ġvictory": 3215,
      "Ġemphas": 3216,
      "Ġmort": 3217,
      "ropri": 3218,
      "hood": 3219,
      "Ġthus": 3220,
      "Ġstrength": 3221,
      "Ġign": 3222,
      "Ġspeed": 3223,
      "Ġmult": 3224,
      "Ġforms": 3225,
      "Ġtrouble": 3226,
      "Ġincluded": 3227,
      "Ġwrite": 3228,
      "Ġreview": 3229,
      "Ġculture": 3230,
      "Ġanimals": 3231,
      "eal": 3232,
      "ĠMary": 3233,
      "Ġpattern": 3234,
      "hem": 3235,
      "Ġeat": 3236,
      "Ġstudents": 3237,
      "Ġcrowd": 3238,
      "Ġfat": 3239,
      "Ġsection": 3240,
      "Ġdeterm": 3241,
      "ĠBec": 3242,
      "Ġreturned": 3243,
      "Ġpage": 3244,
      "riage": 3245,
      "Ġcommercial": 3246,
      "Ġsharp": 3247,
      "Ġimmediately": 3248,
      "Ġrose": 3249,
      "Ġconcept": 3250,
      "Ġscient": 3251,
      "ixt": 3252,
      "Ġtheory": 3253,
      "Ġnewsp": 3254,
      "Ġspect": 3255,
      "ĠHen": 3256,
      "Ġtext": 3257,
      "Ġholiday": 3258,
      "Ġstation": 3259,
      "Ġbasic": 3260,
      "Ġbenefit": 3261,
      "oly": 3262,
      "Ġenter": 3263,
      "ĠCommun": 3264,
      "Ġtim": 3265,
      "Ġpolicies": 3266,
      "bs": 3267,
      "lt": 3268,
      "adem": 3269,
      "Ġaspect": 3270,
      "oring": 3271,
      "ques": 3272,
      "mas": 3273,
      "Ġpun": 3274,
      "Ġmention": 3275,
      "anged": 3276,
      "ĠMiss": 3277,
      "Ġwaiting": 3278,
      "Ġarrange": 3279,
      "aches": 3280,
      "Ġforced": 3281,
      "ĠUniversity": 3282,
      "ĠRoad": 3283,
      "Ġensure": 3284,
      "isl": 3285,
      "ashing": 3286,
      "There": 3287,
      "ĠCount": 3288,
      "Ġtruth": 3289,
      "udd": 3290,
      "Ġadop": 3291,
      "Ġsystems": 3292,
      "ny": 3293,
      "Ġreasons": 3294,
      "Ġwants": 3295,
      "Ġstandards": 3296,
      "Ġbreat": 3297,
      "rian": 3298,
      "Ġadvice": 3299,
      "Ġresponse": 3300,
      "mans": 3301,
      "isher": 3302,
      "icket": 3303,
      "Ġbought": 3304,
      "ĠEvery": 3305,
      "Ġbeautiful": 3306,
      "Ġindependent": 3307,
      "But": 3308,
      "rated": 3309,
      "ortion": 3310,
      "Ġhar": 3311,
      "irty": 3312,
      "ĠNove": 3313,
      "Ġcommittee": 3314,
      "Ġopening": 3315,
      "Ġbalance": 3316,
      "ocks": 3317,
      "ĠOnly": 3318,
      "Ġsignificant": 3319,
      "Ġpsych": 3320,
      "Ġwel": 3321,
      "Ġdism": 3322,
      "Ġtalking": 3323,
      "ban": 3324,
      "Ġreach": 3325,
      "ĠCr": 3326,
      "Ġdesigned": 3327,
      "Ġtravel": 3328,
      "Ġadminist": 3329,
      "Ġbelief": 3330,
      "Ġcreated": 3331,
      "Ġfamous": 3332,
      "Ġspirit": 3333,
      "Ġstopped": 3334,
      "ĠScottish": 3335,
      "Ġrepe": 3336,
      "olph": 3337,
      "Ġcomment": 3338,
      "Ġparliament": 3339,
      "gar": 3340,
      "Ġcell": 3341,
      "Ġuseful": 3342,
      "Ġbrief": 3343,
      "iced": 3344,
      "Ġnuc": 3345,
      "Ġprotect": 3346,
      "Ġfort": 3347,
      "ĠTre": 3348,
      "Ġstreet": 3349,
      "ĠAfrica": 3350,
      "ĠGreat": 3351,
      "ĠInternational": 3352,
      "aste": 3353,
      "ĠJanuary": 3354,
      "Ġremained": 3355,
      "Ġresour": 3356,
      "Ġhelped": 3357,
      "lig": 3358,
      "wing": 3359,
      "ston": 3360,
      "Ġreject": 3361,
      "Ġstick": 3362,
      "Ġleaves": 3363,
      "Ġassoc": 3364,
      "Ġgrant": 3365,
      "ĠFrank": 3366,
      "Ġlanguage": 3367,
      "omen": 3368,
      "Ġgoal": 3369,
      "Ġdetails": 3370,
      "Ġtom": 3371,
      "Ġspecific": 3372,
      "itect": 3373,
      "Ġarrived": 3374,
      "nal": 3375,
      "Ġterm": 3376,
      "EA": 3377,
      "Ġcele": 3378,
      "abinet": 3379,
      "Ġstanding": 3380,
      "Ġsuggested": 3381,
      "Ġshot": 3382,
      "Ġavoid": 3383,
      "Ġhospital": 3384,
      "Ġsitting": 3385,
      "Ġspread": 3386,
      "Ġcreate": 3387,
      "That": 3388,
      "ples": 3389,
      "Ġconfir": 3390,
      "Ġinvestig": 3391,
      "Ġbow": 3392,
      "eenth": 3393,
      "Ġbag": 3394,
      "Ġpet": 3395,
      "anging": 3396,
      "Ġgirls": 3397,
      "ĠQueen": 3398,
      "ĠRes": 3399,
      "aph": 3400,
      "ĠPerhaps": 3401,
      "Ġappeal": 3402,
      "ĠSuch": 3403,
      "ĠMill": 3404,
      "ooking": 3405,
      "Ġsecret": 3406,
      "ĠWestern": 3407,
      "Ġhighly": 3408,
      "Ġoccasion": 3409,
      "ĠNovember": 3410,
      "pir": 3411,
      "oned": 3412,
      "ander": 3413,
      "Ġaftern": 3414,
      "pre": 3415,
      "imate": 3416,
      "Ġeffective": 3417,
      "Ġdrive": 3418,
      "olk": 3419,
      "ĠAnother": 3420,
      "Ġvirt": 3421,
      "Ġclos": 3422,
      "ĠThom": 3423,
      "ingly": 3424,
      "Ġreading": 3425,
      "Ġprogress": 3426,
      "Ġ1991": 3427,
      "Ġsurface": 3428,
      "Ġscr": 3429,
      "Ġagreement": 3430,
      "Ġphilos": 3431,
      "kes": 3432,
      "Ġlived": 3433,
      "Ġprison": 3434,
      "Ġyourself": 3435,
      "Ġopportunity": 3436,
      "put": 3437,
      "ĠEnd": 3438,
      "urday": 3439,
      "Ġspeech": 3440,
      "ĠBrown": 3441,
      "Ġbudget": 3442,
      "uct": 3443,
      "Ġbab": 3444,
      "Ġhom": 3445,
      "Ġnumbers": 3446,
      "ĠSince": 3447,
      "Ġapplic": 3448,
      "Ġreported": 3449,
      "Ġrules": 3450,
      "Ġwinter": 3451,
      "Ġwouldn": 3452,
      "ĠSaturday": 3453,
      "ieties": 3454,
      "Ġdirection": 3455,
      "Ġnormal": 3456,
      "Ġcommit": 3457,
      "Ġlimited": 3458,
      "Ġslightly": 3459,
      "cle": 3460,
      "Ġiron": 3461,
      "Ġcash": 3462,
      "Ġarmy": 3463,
      "ĠHere": 3464,
      "orses": 3465,
      "Ġbound": 3466,
      "ĠBBC": 3467,
      "Ġvariety": 3468,
      "atre": 3469,
      "ĠSy": 3470,
      "Ġaccepted": 3471,
      "ĠEliot": 3472,
      "oz": 3473,
      "Ġbecomes": 3474,
      "Ġprofits": 3475,
      "Ġcontrast": 3476,
      "burg": 3477,
      "illy": 3478,
      "ĠOld": 3479,
      "bury": 3480,
      "Ġfreed": 3481,
      "Ġsenior": 3482,
      "Ġconvers": 3483,
      "apt": 3484,
      "ĠUNK": 3485,
      "ae": 3486,
      "ols": 3487,
      "Ġtitle": 3488,
      "ĠLew": 3489,
      "Ġtarget": 3490,
      "If": 3491,
      "rupt": 3492,
      "Ġdemocr": 3493,
      "Ġactivities": 3494,
      "Ġkitchen": 3495,
      "arian": 3496,
      "ĠClub": 3497,
      "ĠOffice": 3498,
      "ĠSocial": 3499,
      "Ġfaith": 3500,
      "ĠEm": 3501,
      "ems": 3502,
      "Ġsong": 3503,
      "Ġanc": 3504,
      "ishop": 3505,
      "Ġannual": 3506,
      "aud": 3507,
      "ocu": 3508,
      "phone": 3509,
      "Ġcelebr": 3510,
      "Ġanx": 3511,
      "ĠEl": 3512,
      "Ġlargely": 3513,
      "Ġce": 3514,
      "iations": 3515,
      "Ġfing": 3516,
      "Ġasse": 3517,
      "ai": 3518,
      "Ġcomputer": 3519,
      "Ġparticip": 3520,
      "itute": 3521,
      "Ġclothes": 3522,
      "Ġunless": 3523,
      "ipment": 3524,
      "Ġpowerful": 3525,
      "Ġintrodu": 3526,
      "Ġpath": 3527,
      "Ġneigh": 3528,
      "Ġsuddenly": 3529,
      "ek": 3530,
      "ĠOxford": 3531,
      "ĠJew": 3532,
      "Ġfully": 3533,
      "ĠReg": 3534,
      "ault": 3535,
      "Ġrich": 3536,
      "key": 3537,
      "ĠVict": 3538,
      "ĠSal": 3539,
      "ĠNorthern": 3540,
      "ially": 3541,
      "down": 3542,
      "lim": 3543,
      "ety": 3544,
      "Ġinstance": 3545,
      "ka": 3546,
      "Ġdry": 3547,
      "Ġdouble": 3548,
      "ĠPeople": 3549,
      "Ġorganis": 3550,
      "rol": 3551,
      "ĠAir": 3552,
      "Ġrule": 3553,
      "Ġargument": 3554,
      "unn": 3555,
      "Ġgrad": 3556,
      "Ġpolitic": 3557,
      "Ġopinion": 3558,
      "Ġafternoon": 3559,
      "pool": 3560,
      "Ġpound": 3561,
      "Ġcris": 3562,
      "Ġmale": 3563,
      "Ġuns": 3564,
      "Ġproducts": 3565,
      "Ġjudge": 3566,
      "Ġconsequ": 3567,
      "Ġability": 3568,
      "Ġbecoming": 3569,
      "ĠState": 3570,
      "sid": 3571,
      "aret": 3572,
      "Ġspending": 3573,
      "ĠHong": 3574,
      "Ġinterests": 3575,
      "employ": 3576,
      "Ġcontem": 3577,
      "Ġadvert": 3578,
      "Ġjoin": 3579,
      "Ġcircumst": 3580,
      "lict": 3581,
      "Ġodd": 3582,
      "ĠNig": 3583,
      "oms": 3584,
      "Ġperm": 3585,
      "ĠBlack": 3586,
      "And": 3587,
      "ulf": 3588,
      "ĠKinn": 3589,
      "Ġtea": 3590,
      "Ġcoff": 3591,
      "arr": 3592,
      "Ġfinally": 3593,
      "Ġfamilies": 3594,
      "Ġtemper": 3595,
      "estic": 3596,
      "Ġimposs": 3597,
      "Ġsand": 3598,
      "orters": 3599,
      "Ġcounter": 3600,
      "ĠUnder": 3601,
      "Ġrestrict": 3602,
      "Ġearn": 3603,
      "Ġoperation": 3604,
      "ĠLike": 3605,
      "Ġresponsible": 3606,
      "RA": 3607,
      "Ġmouth": 3608,
      "ĠFin": 3609,
      "Ġreality": 3610,
      "Ġaudience": 3611,
      "ĠMal": 3612,
      "Ġpresident": 3613,
      "Ġinteresting": 3614,
      "Ġfilms": 3615,
      "Ġsport": 3616,
      "iously": 3617,
      "tr": 3618,
      "Ġbirth": 3619,
      "Ġet": 3620,
      "Ġdisplay": 3621,
      "back": 3622,
      "ipe": 3623,
      "ĠTory": 3624,
      "ĠIts": 3625,
      "Ġnice": 3626,
      "Ġspring": 3627,
      "ĠTe": 3628,
      "Ġrecomm": 3629,
      "Ġdebate": 3630,
      "Ġactivity": 3631,
      "Ġarchitect": 3632,
      "unk": 3633,
      "Ġcandid": 3634,
      "ĠAcc": 3635,
      "Ġobtain": 3636,
      "Ġearth": 3637,
      "Ġinflation": 3638,
      "Ġprospect": 3639,
      "Ġradio": 3640,
      "Ġlatest": 3641,
      "ĠKinnock": 3642,
      "ĠHoll": 3643,
      "Ġconduct": 3644,
      "Ġadj": 3645,
      "Ġminute": 3646,
      "Ġolder": 3647,
      "Ġmarried": 3648,
      "overy": 3649,
      "Ġsight": 3650,
      "Ġfoc": 3651,
      "Ġ1986": 3652,
      "Ġachieved": 3653,
      "Ġsource": 3654,
      "Ġtrave": 3655,
      "Ġrestaur": 3656,
      "olute": 3657,
      "ores": 3658,
      "Ġfinished": 3659,
      "Ġtreatment": 3660,
      "Ġpark": 3661,
      "Ġowners": 3662,
      "Ġpresence": 3663,
      "Ġmanaged": 3664,
      "Ġconsiderable": 3665,
      "Ġexercise": 3666,
      "ĠLewis": 3667,
      "Ġnation": 3668,
      "ĠGold": 3669,
      "Ġterr": 3670,
      "ĠMarx": 3671,
      "Ġclaims": 3672,
      "light": 3673,
      "Ġdress": 3674,
      "Ġreduced": 3675,
      "Ġwhatever": 3676,
      "ĠCal": 3677,
      "ĠCong": 3678,
      "Ġproved": 3679,
      "Ġkilled": 3680,
      "Ġcompared": 3681,
      "Ġbird": 3682,
      "ented": 3683,
      "Ġenth": 3684,
      "Ġfarmers": 3685,
      "Ġinterview": 3686,
      "Oh": 3687,
      "Ġmur": 3688,
      "istance": 3689,
      "ĠEar": 3690,
      "Ġbelong": 3691,
      "Ġlearn": 3692,
      "ĠItal": 3693,
      "Ġbright": 3694,
      "They": 3695,
      "Ġrespond": 3696,
      "Ġexisting": 3697,
      "Ġsav": 3698,
      "Ġclaimed": 3699,
      "ĠCommunity": 3700,
      "Ġappears": 3701,
      "Ġnuclear": 3702,
      "bon": 3703,
      "Ġbomb": 3704,
      "itation": 3705,
      "Ġmerely": 3706,
      "Ġexactly": 3707,
      "Ġneg": 3708,
      "usi": 3709,
      "ĠFeb": 3710,
      "Ġworse": 3711,
      "order": 3712,
      "Ġpersu": 3713,
      "Ġcaught": 3714,
      "Ġnine": 3715,
      "ĠOur": 3716,
      "Ġjoined": 3717,
      "Ġisn": 3718,
      "Ġholding": 3719,
      "ĠAny": 3720,
      "Ġbattle": 3721,
      "rael": 3722,
      "ĠWhy": 3723,
      "ĠMarie": 3724,
      "Ġimportance": 3725,
      "Ġdim": 3726,
      "Ġdocu": 3727,
      "Ġtask": 3728,
      "Ġbid": 3729,
      "Ġbod": 3730,
      "Ġunf": 3731,
      "IS": 3732,
      "Ġconfidence": 3733,
      "ĠParliament": 3734,
      "Ġleadership": 3735,
      "roy": 3736,
      "Ġbiggest": 3737,
      "icated": 3738,
      "ript": 3739,
      "Ġphysical": 3740,
      "co": 3741,
      "ĠOnce": 3742,
      "Ġprotest": 3743,
      "ĠDepartment": 3744,
      "Ġalternative": 3745,
      "ike": 3746,
      "Ġnotice": 3747,
      "Ġexcell": 3748,
      "ĠItaly": 3749,
      "ĠKong": 3750,
      "shire": 3751,
      "Ġconsult": 3752,
      "uz": 3753,
      "ĠHall": 3754,
      "ionship": 3755,
      "Ġadvantage": 3756,
      "Ġmarkets": 3757,
      "Ġofficers": 3758,
      "Ġbes": 3759,
      "ĠApp": 3760,
      "ĠWell": 3761,
      "Ġappropri": 3762,
      "essed": 3763,
      "Ġgrass": 3764,
      "Ġcorner": 3765,
      "Ġdepart": 3766,
      "cember": 3767,
      "Ġcondition": 3768,
      "Ġborn": 3769,
      "ĠVictor": 3770,
      "ipped": 3771,
      "mi": 3772,
      "ties": 3773,
      "term": 3774,
      "Ġfailure": 3775,
      "Ġcircumstances": 3776,
      "Ġdate": 3777,
      "Ġplaced": 3778,
      "Ġdefin": 3779,
      "Ġnarrow": 3780,
      "com": 3781,
      "Ġministers": 3782,
      "Ġlegisl": 3783,
      "porary": 3784,
      "orks": 3785,
      "odd": 3786,
      "Ġequipment": 3787,
      "vant": 3788,
      "ĠSer": 3789,
      "ume": 3790,
      "Ġtransport": 3791,
      "Ġusual": 3792,
      "Ġregular": 3793,
      "Ġdolph": 3794,
      "ĠSam": 3795,
      "Ġjump": 3796,
      "ruary": 3797,
      "Ġknows": 3798,
      "ĠWilliam": 3799,
      "Ġspot": 3800,
      "Ġ200": 3801,
      "Ġdesire": 3802,
      "Ġedge": 3803,
      "Ġfunction": 3804,
      "ĠFer": 3805,
      "Ġspokes": 3806,
      "Ġaid": 3807,
      "Ġlose": 3808,
      "Ġstone": 3809,
      "Ġeffort": 3810,
      "ĠHenry": 3811,
      "bing": 3812,
      "hest": 3813,
      "...'": 3814,
      "ĠDecember": 3815,
      "ext": 3816,
      "Ġretain": 3817,
      "Ġarg": 3818,
      "Ġcompletely": 3819,
      "Ġshout": 3820,
      "Ġ191": 3821,
      "Ġinterested": 3822,
      "Ġeventually": 3823,
      "ĠLuc": 3824,
      "Ġpretty": 3825,
      "Ġcredit": 3826,
      "vered": 3827,
      "Ġstrange": 3828,
      "ether": 3829,
      "ellow": 3830,
      "Ġdepend": 3831,
      "Ġhappen": 3832,
      "iance": 3833,
      "Ġcry": 3834,
      "Ġletters": 3835,
      "Ġviews": 3836,
      "Ġresponsibility": 3837,
      "iate": 3838,
      "Ġsale": 3839,
      "Ġfashion": 3840,
      "Ġstatus": 3841,
      "Ġquarter": 3842,
      "Ġchallenge": 3843,
      "Ġimpossible": 3844,
      "ĠFebruary": 3845,
      "Ġexistence": 3846,
      "Ġchemical": 3847,
      "Ġsuc": 3848,
      "ĠRob": 3849,
      "ears": 3850,
      "teen": 3851,
      "Ġeffects": 3852,
      "ĠParis": 3853,
      "Ġhall": 3854,
      "osite": 3855,
      "Ġjoint": 3856,
      "Ġpurpose": 3857,
      "Ġrapid": 3858,
      "AL": 3859,
      "orry": 3860,
      "Ġmainly": 3861,
      "Ġsurround": 3862,
      "Ġextent": 3863,
      "Ġmodel": 3864,
      "ĠProt": 3865,
      "ios": 3866,
      "Ġhorses": 3867,
      "ĠManc": 3868,
      "akers": 3869,
      "mosp": 3870,
      "ĠWel": 3871,
      "Ġdirectly": 3872,
      "Ġdamage": 3873,
      "Ġatmosp": 3874,
      "Ġsector": 3875,
      "ulated": 3876,
      "Ġshape": 3877,
      "Ġflowers": 3878,
      "Ġweekend": 3879,
      "Ġbul": 3880,
      "ĠGroup": 3881,
      "Ġlargest": 3882,
      "Ġcompar": 3883,
      "ĠLeague": 3884,
      "ĠChristmas": 3885,
      "Ġmeaning": 3886,
      "Ġintroduced": 3887,
      "ĠWhere": 3888,
      "Ġdrop": 3889,
      "ĠSur": 3890,
      "ulations": 3891,
      "ender": 3892,
      "Ġsupply": 3893,
      "Ġdrama": 3894,
      "Ġcatch": 3895,
      "Ġnames": 3896,
      "Ġriver": 3897,
      "ancing": 3898,
      "Ġsumm": 3899,
      "ashed": 3900,
      "ĠBir": 3901,
      "ple": 3902,
      "Ġdiss": 3903,
      "ĠThus": 3904,
      "Ġfirms": 3905,
      "rom": 3906,
      "Ġaffect": 3907,
      "rid": 3908,
      "Ġz": 3909,
      "Ġgun": 3910,
      "Ġrid": 3911,
      "Ġking": 3912,
      "Ġfavourite": 3913,
      "Ġdropped": 3914,
      "ux": 3915,
      "Ġprem": 3916,
      "Ġconserv": 3917,
      "Ġideal": 3918,
      "Ġweak": 3919,
      "ĠWood": 3920,
      "Ġcheck": 3921,
      "ĠCommittee": 3922,
      "Ġmarriage": 3923,
      "ĠAustralia": 3924,
      "war": 3925,
      "verse": 3926,
      "ĠEas": 3927,
      "atter": 3928,
      "ille": 3929,
      "Ġwait": 3930,
      "Ġorigin": 3931,
      "Ġbottom": 3932,
      "Ġvictim": 3933,
      "Ġmotor": 3934,
      "Ġcriticism": 3935,
      "Ġpurch": 3936,
      "Ġbroken": 3937,
      "Ġadult": 3938,
      "Ġexpress": 3939,
      "ĠIsrael": 3940,
      "ĠII": 3941,
      "Ġ23": 3942,
      "Ġturning": 3943,
      "class": 3944,
      "Ġpractical": 3945,
      "Ġwalked": 3946,
      "ĠCont": 3947,
      "Ġspend": 3948,
      "Ġrefused": 3949,
      "Ġresources": 3950,
      "Ġenthusi": 3951,
      "IT": 3952,
      "iture": 3953,
      "osen": 3954,
      "Ġserved": 3955,
      "Ġunderstanding": 3956,
      "Ġseparate": 3957,
      "gen": 3958,
      "Ġnote": 3959,
      "Ġexchange": 3960,
      "Ġputting": 3961,
      "ĠLee": 3962,
      "ĠRobert": 3963,
      "Ġlarger": 3964,
      "rel": 3965,
      "Ġegg": 3966,
      "ĠTony": 3967,
      "uries": 3968,
      "Ġstates": 3969,
      "Ġscreen": 3970,
      "Ġempt": 3971,
      "Ġcorrect": 3972,
      "mm": 3973,
      "Ġselect": 3974,
      "Ġnone": 3975,
      "Ġanalysis": 3976,
      "ĠManchester": 3977,
      "olf": 3978,
      "Well": 3979,
      "Ġcontain": 3980,
      "ception": 3981,
      "Ġdistinct": 3982,
      "ĠEdward": 3983,
      "Ġdaughter": 3984,
      "raz": 3985,
      "Ġmeasure": 3986,
      "Ġsite": 3987,
      "Ġpurs": 3988,
      "Ġreports": 3989,
      "Ġconflict": 3990,
      "Ġreduce": 3991,
      "Ġexecutive": 3992,
      "ĠThomas": 3993,
      "Ġluck": 3994,
      "ĠHealth": 3995,
      "hens": 3996,
      "Ġincreasingly": 3997,
      "aven": 3998,
      "ker": 3999,
      "Ġfle": 4000,
      "Ġ26": 4001,
      "Ġunderst": 4002,
      "Ġacadem": 4003,
      "ught": 4004,
      "Ġdance": 4005,
      "Ġsmaller": 4006,
      "Ġrooms": 4007,
      "Ġsufficient": 4008,
      "Ġdebt": 4009,
      "net": 4010,
      "ada": 4011,
      "ama": 4012,
      "Ġprior": 4013,
      "ĠSecond": 4014,
      "Ġfreedom": 4015,
      "Ġdrawn": 4016,
      "ache": 4017,
      "Ġcommission": 4018,
      "Ġtypes": 4019,
      "Ġstuff": 4020,
      "Ġbuildings": 4021,
      "Ġneither": 4022,
      "Ġscene": 4023,
      "OU": 4024,
      "ĠMus": 4025,
      "craft": 4026,
      "Ġhero": 4027,
      "aped": 4028,
      "Ġaband": 4029,
      "Ġsupposed": 4030,
      "Ġmagaz": 4031,
      "Ġsources": 4032,
      "Yes": 4033,
      "Ġinev": 4034,
      "adow": 4035,
      "ĠMart": 4036,
      "Ġwithd": 4037,
      "ĠDuring": 4038,
      "Ġpredict": 4039,
      "Ġtalks": 4040,
      "ommod": 4041,
      "Ġdistrib": 4042,
      "ĠLiberal": 4043,
      "Ġfamiliar": 4044,
      "Ġtrib": 4045,
      "ĠTV": 4046,
      "Ġkick": 4047,
      "Ġgas": 4048,
      "aked": 4049,
      "theless": 4050,
      "encies": 4051,
      "Ġmax": 4052,
      "Ġrub": 4053,
      "Ġ27": 4054,
      "Ġdomin": 4055,
      "Ġlatter": 4056,
      "Ġton": 4057,
      "Ġstret": 4058,
      "ode": 4059,
      "ĠDist": 4060,
      "Ġtight": 4061,
      "Ġpil": 4062,
      "Ġscale": 4063,
      "ĠProf": 4064,
      "Ġentirely": 4065,
      "een": 4066,
      "llor": 4067,
      "Ġ28": 4068,
      "Ġequally": 4069,
      "Ġsurprising": 4070,
      "Ġsubstant": 4071,
      "ipp": 4072,
      "ĠEs": 4073,
      "Ġcalls": 4074,
      "acity": 4075,
      "ĠLast": 4076,
      "Ġremind": 4077,
      "Ġfootball": 4078,
      "idents": 4079,
      "emb": 4080,
      "ĠRed": 4081,
      "Ġfacilities": 4082,
      "ĠLet": 4083,
      "Ġdoct": 4084,
      "Ġfeed": 4085,
      "Ġbedroom": 4086,
      "Ġrelatively": 4087,
      "Ġexcellent": 4088,
      "Ġsac": 4089,
      "Ġsecretary": 4090,
      "Ġended": 4091,
      "ĠNigel": 4092,
      "Ġcoffee": 4093,
      "Ġtree": 4094,
      "Ġsad": 4095,
      "Ġharm": 4096,
      "ĠLa": 4097,
      "Ġrow": 4098,
      "Ġtroops": 4099,
      "quir": 4100,
      "Ġformed": 4101,
      "Ġoppon": 4102,
      "Ġsuit": 4103,
      "hetic": 4104,
      "ĠDiv": 4105,
      "Ġ1985": 4106,
      "Ġsurvey": 4107,
      "Ġprotection": 4108,
      "Ġversion": 4109,
      "ads": 4110,
      "ĠHit": 4111,
      "Ġdistance": 4112,
      "Ġreceive": 4113,
      "Ġofficials": 4114,
      "Ġmill": 4115,
      "outhern": 4116,
      "Ġpromot": 4117,
      "Ġtransfer": 4118,
      "ĠX": 4119,
      "ĠLl": 4120,
      "resp": 4121,
      "Ġcoal": 4122,
      "ference": 4123,
      "arant": 4124,
      "Ġmir": 4125,
      "Ġ1970": 4126,
      "bl": 4127,
      "aling": 4128,
      "Ġvast": 4129,
      "Ġcovered": 4130,
      "Ġmatters": 4131,
      "Ġdegree": 4132,
      "Ġartist": 4133,
      "Ġcrisis": 4134,
      "ĠItalian": 4135,
      "equ": 4136,
      "ĠDan": 4137,
      "Ġjobs": 4138,
      "Ġsucceed": 4139,
      "Ġburn": 4140,
      "Ġweap": 4141,
      "Ġconsist": 4142,
      "ĠSociety": 4143,
      "Ġsides": 4144,
      "Ġotherwise": 4145,
      "Ġconscious": 4146,
      "Ġrural": 4147,
      "oyd": 4148,
      "Ġdiscovered": 4149,
      "while": 4150,
      "Ġdetermined": 4151,
      "asm": 4152,
      "Ġbill": 4153,
      "Ġder": 4154,
      "Ġult": 4155,
      "ĠIndeed": 4156,
      "Ġraise": 4157,
      "Ġabsolute": 4158,
      "Ġsafety": 4159,
      "ifying": 4160,
      "Ġunemploy": 4161,
      "Ġsymp": 4162,
      "cont": 4163,
      "Ġmanufacture": 4164,
      "Ġtelephone": 4165,
      "ication": 4166,
      "Ġunit": 4167,
      "inson": 4168,
      "Ġdogs": 4169,
      "Ġweather": 4170,
      "Ġprove": 4171,
      "Ġroof": 4172,
      "ĠAmericans": 4173,
      "Ġslowly": 4174,
      "ING": 4175,
      "Ġphilosop": 4176,
      "Ġbath": 4177,
      "Ġsetting": 4178,
      "Ġregarded": 4179,
      "vest": 4180,
      "Ġenvironmental": 4181,
      "Ġsend": 4182,
      "iser": 4183,
      "utch": 4184,
      "Ġinstit": 4185,
      "Ġorganisation": 4186,
      "Ġstrike": 4187,
      "ius": 4188,
      "ĠSomet": 4189,
      "ding": 4190,
      "ĠMed": 4191,
      "Ġkill": 4192,
      "ĠGermans": 4193,
      "Ġhousing": 4194,
      "Ġexhib": 4195,
      "Ġtomorrow": 4196,
      "ications": 4197,
      "Ġworry": 4198,
      "Ġflow": 4199,
      "ĠService": 4200,
      "Ġpowers": 4201,
      "ĠTele": 4202,
      "ĠNever": 4203,
      "Ġimpact": 4204,
      "Ġruns": 4205,
      "ĠGrand": 4206,
      "Ġinvolve": 4207,
      "Ġdomestic": 4208,
      "orb": 4209,
      "ager": 4210,
      "Ġgets": 4211,
      "Ġshowing": 4212,
      "Ġappropriate": 4213,
      "Ġaccommod": 4214,
      "Ġfourth": 4215,
      "Ġmedia": 4216,
      "ingu": 4217,
      "ĠSch": 4218,
      "berg": 4219,
      "ellig": 4220,
      "ĠWilson": 4221,
      "ien": 4222,
      "Ġcarefully": 4223,
      "ĠPrince": 4224,
      "Ġdelight": 4225,
      "EC": 4226,
      "Ġthrow": 4227,
      "Ġep": 4228,
      "ĠRose": 4229,
      "Ġdecade": 4230,
      "itiz": 4231,
      "Ġeld": 4232,
      "Ġgent": 4233,
      "Ġsearch": 4234,
      "Ġtraff": 4235,
      "Ġdoctor": 4236,
      "pton": 4237,
      "Ġdemands": 4238,
      "ĠBerlin": 4239,
      "Ġmachine": 4240,
      "Ġut": 4241,
      "ivity": 4242,
      "Ġworst": 4243,
      "Ġwalking": 4244,
      "omin": 4245,
      "Ġfruit": 4246,
      "Ġseat": 4247,
      "Ġoffers": 4248,
      "Ġ70": 4249,
      "useum": 4250,
      "Ġordinary": 4251,
      "Ġdangerous": 4252,
      "amental": 4253,
      "ĠCambridge": 4254,
      "ns": 4255,
      "ulate": 4256,
      "ĠBecause": 4257,
      "Ġcourses": 4258,
      "Ġaddress": 4259,
      "Ġanimal": 4260,
      "lie": 4261,
      "hered": 4262,
      "Ġcup": 4263,
      "Ġfro": 4264,
      "osl": 4265,
      "Ġchapter": 4266,
      "ardens": 4267,
      "Ġexplain": 4268,
      "Ġveh": 4269,
      "Ġfeatures": 4270,
      "Ġunable": 4271,
      "Ġexpensive": 4272,
      "Ġguarant": 4273,
      "Ġwinning": 4274,
      "Ġconstit": 4275,
      "know": 4276,
      "Ġprinciple": 4277,
      "Ġdefeat": 4278,
      "ĠJe": 4279,
      "Ġpictures": 4280,
      "Ġshops": 4281,
      "Ġelectric": 4282,
      "Ġgovernments": 4283,
      "rim": 4284,
      "oral": 4285,
      "Ġforget": 4286,
      "agon": 4287,
      "Ġextremely": 4288,
      "chan": 4289,
      "Ġenorm": 4290,
      "Ġsymb": 4291,
      "Ġprovides": 4292,
      "Ġstatement": 4293,
      "Ġsuggests": 4294,
      "ennis": 4295,
      "Ġillust": 4296,
      "lies": 4297,
      "Ġgri": 4298,
      "ĠChina": 4299,
      "Ġcruc": 4300,
      "Ġexplained": 4301,
      "Ġofficer": 4302,
      "Ġrevolution": 4303,
      "Ġfemale": 4304,
      "Ġatmosphere": 4305,
      "egr": 4306,
      "anks": 4307,
      "ara": 4308,
      "AS": 4309,
      "Ġhomes": 4310,
      "ellect": 4311,
      "Ġopposite": 4312,
      "Ġ.": 4313,
      "ĠMil": 4314,
      "usse": 4315,
      "Ġdecide": 4316,
      "Ġtechnology": 4317,
      "Ġfunds": 4318,
      "how": 4319,
      "ĠPre": 4320,
      "Ġwrites": 4321,
      "Ġ1979": 4322,
      "Ġcam": 4323,
      "col": 4324,
      "Ġtwice": 4325,
      "Ġdisappoint": 4326,
      "rant": 4327,
      "Ġprime": 4328,
      "Ġcultural": 4329,
      "Ġsteps": 4330,
      "ĠEastern": 4331,
      "part": 4332,
      "ugg": 4333,
      "ĠGood": 4334,
      "ĠJay": 4335,
      "Ġinsurance": 4336,
      "ĠHitler": 4337,
      "Ġring": 4338,
      "Ġaccompan": 4339,
      "Ġunlikely": 4340,
      "ĠBen": 4341,
      "Ġpray": 4342,
      "Ġrelax": 4343,
      "Ġprovision": 4344,
      "Ġreplace": 4345,
      "Ġmessage": 4346,
      "Ġlog": 4347,
      "Ġsubsid": 4348,
      "Ġproviding": 4349,
      "Ġlegs": 4350,
      "Ġproposed": 4351,
      "Ġapparently": 4352,
      "wick": 4353,
      "ĠPri": 4354,
      "lets": 4355,
      "Ġproceed": 4356,
      "Ġindividuals": 4357,
      "ĠDespite": 4358,
      "Ġdies": 4359,
      "Ġgrown": 4360,
      "ĠMond": 4361,
      "Ġarrest": 4362,
      "Ġfighting": 4363,
      "IC": 4364,
      "iant": 4365,
      "Ġfasc": 4366,
      "Ġgames": 4367,
      "Ġplayer": 4368,
      "19": 4369,
      "Ġlaug": 4370,
      "ĠThose": 4371,
      "Ġkeeping": 4372,
      "Ġwine": 4373,
      "ici": 4374,
      "Ġthick": 4375,
      "This": 4376,
      "uine": 4377,
      "icles": 4378,
      "Ġninet": 4379,
      "ĠWed": 4380,
      "unched": 4381,
      "Ġapplied": 4382,
      "Ġprofit": 4383,
      "Ġunions": 4384,
      "Ġselling": 4385,
      "Ġgreatest": 4386,
      "cer": 4387,
      "pret": 4388,
      "vis": 4389,
      "Ġdinner": 4390,
      "ĠTrent": 4391,
      "Ġpartly": 4392,
      "Ġfeature": 4393,
      "Ġfinance": 4394,
      "Ġassess": 4395,
      "ĠFranc": 4396,
      "Ġ80": 4397,
      "Ġduty": 4398,
      "icial": 4399,
      "ĠCabinet": 4400,
      "ĠChance": 4401,
      "ĠCentral": 4402,
      "based": 4403,
      "ĠBoard": 4404,
      "ĠHel": 4405,
      "agues": 4406,
      "Ġpossibility": 4407,
      "Ġmut": 4408,
      "Ġdata": 4409,
      "Ġcapt": 4410,
      "Ġseeing": 4411,
      "ĠCommon": 4412,
      "Ġwalls": 4413,
      "Ġwidely": 4414,
      "Ġchoose": 4415,
      "Ġsick": 4416,
      "ĠBR": 4417,
      "Ġplus": 4418,
      "Ġattitude": 4419,
      "Ġpresented": 4420,
      "ĠAfrican": 4421,
      "uild": 4422,
      "Ġge": 4423,
      "Don": 4424,
      "ĠPan": 4425,
      "Ġflo": 4426,
      "ĠClass": 4427,
      "Ġjournal": 4428,
      "Ġthousands": 4429,
      "Ġbodies": 4430,
      "Ġaward": 4431,
      "Ġrhy": 4432,
      "Ġsoil": 4433,
      "Ġresign": 4434,
      "Ġconstitution": 4435,
      "cr": 4436,
      "uous": 4437,
      "Ġyouth": 4438,
      "Ġscore": 4439,
      "Ġunderstood": 4440,
      "Ġpal": 4441,
      "Ġdie": 4442,
      "Ġframe": 4443,
      "Ġmethods": 4444,
      "Ġviolence": 4445,
      "Ġlie": 4446,
      "Ġloyal": 4447,
      "Ġpointed": 4448,
      "Ġskills": 4449,
      "Ġconvention": 4450,
      "Ġhung": 4451,
      "Ġeth": 4452,
      "Ġunits": 4453,
      "Ġattractive": 4454,
      "Ġobviously": 4455,
      "ey": 4456,
      "Ġplenty": 4457,
      "Ġroute": 4458,
      "20": 4459,
      "Ġlift": 4460,
      "ĠSchool": 4461,
      "ĠStr": 4462,
      "Ġreaction": 4463,
      "ĠGree": 4464,
      "Ġtrack": 4465,
      "Ġoverall": 4466,
      "Ġspoke": 4467,
      "ogue": 4468,
      "ails": 4469,
      "Ġstudent": 4470,
      "ography": 4471,
      "Ġcard": 4472,
      "Ġlies": 4473,
      "Ġmechan": 4474,
      "Ġpool": 4475,
      "Ġpieces": 4476,
      "ĠHome": 4477,
      "osc": 4478,
      "Ġ29": 4479,
      "Ġreaders": 4480,
      "Ġcommitment": 4481,
      "ĠAccording": 4482,
      "ET": 4483,
      "ari": 4484,
      "ĠDor": 4485,
      "Ġ1983": 4486,
      "Ġgenuine": 4487,
      "alty": 4488,
      "Ġisland": 4489,
      "Ġseats": 4490,
      "Ġunus": 4491,
      "Ġapprec": 4492,
      "Ġefforts": 4493,
      "Ġbelieves": 4494,
      "Ġlabour": 4495,
      "Ġgar": 4496,
      "Ġgrey": 4497,
      "Ġblock": 4498,
      "ĠCatholic": 4499,
      "Ġintellect": 4500,
      "In": 4501,
      "Ġborrow": 4502,
      "Ġsemi": 4503,
      "Ġreck": 4504,
      "Ġacid": 4505,
      "ĠDistrict": 4506,
      "what": 4507,
      "Ġswim": 4508,
      "Ġwatched": 4509,
      "Ġliked": 4510,
      "Ġdepartment": 4511,
      "Ġaircraft": 4512,
      "Ġsolid": 4513,
      "ĠConservatives": 4514,
      "She": 4515,
      "Ġpartners": 4516,
      "Ġpulled": 4517,
      "Ġbaby": 4518,
      "Ġchosen": 4519,
      "unately": 4520,
      "Ġsave": 4521,
      "Ġprint": 4522,
      "Ġprogrammes": 4523,
      "worth": 4524,
      "Ġpure": 4525,
      "Ġcontext": 4526,
      "Ġdecline": 4527,
      "Ġdismiss": 4528,
      "Ġ500": 4529,
      "Ġproportion": 4530,
      "Ġoblig": 4531,
      "Ġpaint": 4532,
      "Ġadmitted": 4533,
      "Ġdiscussion": 4534,
      "Ġspokesman": 4535,
      "fra": 4536,
      "ishes": 4537,
      "ĠRam": 4538,
      "Ġintended": 4539,
      "Ġestim": 4540,
      "Ġemerg": 4541,
      "Ġintellig": 4542,
      "Ġimpress": 4543,
      "Ġmurder": 4544,
      "ĠLucy": 4545,
      "Ġinstitutions": 4546,
      "Ġsch": 4547,
      "Ġinternal": 4548,
      "ĠSl": 4549,
      "igg": 4550,
      "Ġowner": 4551,
      "Ġrelated": 4552,
      "Ġwindows": 4553,
      "hand": 4554,
      "Ġthin": 4555,
      "ĠKen": 4556,
      "Ġaccur": 4557,
      "Ġconcl": 4558,
      "Ġappearance": 4559,
      "Ġbond": 4560,
      "uls": 4561,
      "Ġheads": 4562,
      "Ġfinding": 4563,
      "ricult": 4564,
      "atically": 4565,
      "Ġcy": 4566,
      "Ġlit": 4567,
      "Ġstro": 4568,
      "aints": 4569,
      "Ġgeneration": 4570,
      "century": 4571,
      "lor": 4572,
      "Ġwit": 4573,
      "ĠWater": 4574,
      "Ġlimit": 4575,
      "Ġsquare": 4576,
      "Ġimmediate": 4577,
      "Ġphotograph": 4578,
      "eper": 4579,
      "Ġrough": 4580,
      "ĠPound": 4581,
      "Ġskin": 4582,
      "Ġelections": 4583,
      "Ġenjoyed": 4584,
      "ylie": 4585,
      "Ġproposals": 4586,
      "Ġancient": 4587,
      "inem": 4588,
      "Ġheat": 4589,
      "Ġbackground": 4590,
      "Ġsubsequ": 4591,
      "ĠCentre": 4592,
      "Ġintegr": 4593,
      "Ġwriter": 4594,
      "Ġsharehold": 4595,
      "essor": 4596,
      "ĠJose": 4597,
      "Ġvalues": 4598,
      "40": 4599,
      "EL": 4600,
      "Ġcas": 4601,
      "Ġsevent": 4602,
      "Ġcoast": 4603,
      "Ġelement": 4604,
      "Ġargued": 4605,
      "ica": 4606,
      "ĠJane": 4607,
      "mingham": 4608,
      "iples": 4609,
      "Ġcustomers": 4610,
      "Ġempty": 4611,
      "zen": 4612,
      "Ġenem": 4613,
      "Ġcommand": 4614,
      "Ġpolicem": 4615,
      "Ġprofession": 4616,
      "Ġmedical": 4617,
      "Ġfrequently": 4618,
      "Ġnewspaper": 4619,
      "ĠBro": 4620,
      "Ġsuspect": 4621,
      "Ġdifficulties": 4622,
      "Ġradical": 4623,
      "annel": 4624,
      "Ġpapers": 4625,
      "ĠTom": 4626,
      "Ġstress": 4627,
      "Ġagricult": 4628,
      "ĠArab": 4629,
      "Ġdriving": 4630,
      "Ġasking": 4631,
      "Ġexcl": 4632,
      "Ġboys": 4633,
      "Ġassociated": 4634,
      "10": 4635,
      "writ": 4636,
      "ĠPet": 4637,
      "Ġactive": 4638,
      "Ġcrime": 4639,
      "Ġcheap": 4640,
      "Ġpleasure": 4641,
      "ĠRepublic": 4642,
      "ĠCongress": 4643,
      "Ġtraffic": 4644,
      "ĠMer": 4645,
      "ĠBur": 4646,
      "ĠLeon": 4647,
      "Ġequal": 4648,
      "Ġeasier": 4649,
      "standing": 4650,
      "Ġdaily": 4651,
      "ooth": 4652,
      "ĠBill": 4653,
      "ĠOver": 4654,
      "Ġaccident": 4655,
      "Ġmanagers": 4656,
      "Ġfaces": 4657,
      "Ġsister": 4658,
      "ushing": 4659,
      "ĠRec": 4660,
      "eless": 4661,
      "Ġcapacity": 4662,
      "Ġstreets": 4663,
      "Ġveget": 4664,
      "hall": 4665,
      "Ġpair": 4666,
      "Ġmental": 4667,
      "Ġlab": 4668,
      "ĠRussian": 4669,
      "lege": 4670,
      "ĠHot": 4671,
      "Ġdecisions": 4672,
      "Ġ35": 4673,
      "Ġdefend": 4674,
      "Ġ1992": 4675,
      "Ġsnow": 4676,
      "known": 4677,
      "ĠBirmingham": 4678,
      "ID": 4679,
      "uke": 4680,
      "Ġlunch": 4681,
      "Ġvital": 4682,
      "Ġapply": 4683,
      "Ġacknow": 4684,
      "Ġnormally": 4685,
      "Ġprecise": 4686,
      "ĠWall": 4687,
      "ĠDef": 4688,
      "Ġpossibly": 4689,
      "Ġhighest": 4690,
      "ĠTest": 4691,
      "Ġgrew": 4692,
      "iable": 4693,
      "Ġbeer": 4694,
      "ĠGra": 4695,
      "Ġlect": 4696,
      "Ġcontent": 4697,
      "Ġcommitted": 4698,
      "Ġrelief": 4699,
      "Ġrising": 4700,
      "Ġhadn": 4701,
      "new": 4702,
      "Ġautumn": 4703,
      "Ġseriously": 4704,
      "xual": 4705,
      "Ġdise": 4706,
      "Ġsupporters": 4707,
      "Ġgoods": 4708,
      "Ġcorpor": 4709,
      "Ġmetal": 4710,
      "Ġhopes": 4711,
      "Ġtiny": 4712,
      "ching": 4713,
      "Ġseek": 4714,
      "Ġdivision": 4715,
      "Ġwatching": 4716,
      "Ġpoliticians": 4717,
      "Ġwear": 4718,
      "Ġpeas": 4719,
      "Ġscar": 4720,
      "Ġarticle": 4721,
      "Ġbrew": 4722,
      "Ġdifficulty": 4723,
      "Ġfalling": 4724,
      "ĠDivision": 4725,
      "tle": 4726,
      "Ġpension": 4727,
      "ĠPort": 4728,
      "Ġaged": 4729,
      "Ġperman": 4730,
      "Ġrecession": 4731,
      "Ġfactors": 4732,
      "Ġestate": 4733,
      "Ġcritical": 4734,
      "force": 4735,
      "Ġlegislation": 4736,
      "ino": 4737,
      "ĠComp": 4738,
      "Ġoffering": 4739,
      "Ġcool": 4740,
      "Ġ1984": 4741,
      "ĠFriday": 4742,
      "Ġmemory": 4743,
      "Ġincludes": 4744,
      "Ġautom": 4745,
      "Ġcollection": 4746,
      "inter": 4747,
      "Ġstories": 4748,
      "Ġsuppose": 4749,
      "Ġstarting": 4750,
      "Ġchanging": 4751,
      "Ġsuffered": 4752,
      "ĠCommunist": 4753,
      "Ġsought": 4754,
      "Ġinh": 4755,
      "Ġshut": 4756,
      "Ġattend": 4757,
      "Ġconfident": 4758,
      "Ġdeclared": 4759,
      "Ġdestroy": 4760,
      "embered": 4761,
      "gl": 4762,
      "Ġcook": 4763,
      "Ġlaid": 4764,
      "Ġeast": 4765,
      "istics": 4766,
      "Ġuniversity": 4767,
      "Ġscience": 4768,
      "Ġreplied": 4769,
      "Ġsoldiers": 4770,
      "Ġwelcome": 4771,
      "ĠChancellor": 4772,
      "60": 4773,
      "ait": 4774,
      "Ġforgot": 4775,
      "ĠAut": 4776,
      "rative": 4777,
      "Ġcateg": 4778,
      "oked": 4779,
      "Ġinstruct": 4780,
      "Ġcurren": 4781,
      "Ġlaws": 4782,
      "Ġsurprise": 4783,
      "Ġinjury": 4784,
      "Ġdrugs": 4785,
      "Ġgall": 4786,
      "ĠCap": 4787,
      "raq": 4788,
      "ĠKylie": 4789,
      "Ġmarked": 4790,
      "Ġsupported": 4791,
      "Ġelsewhere": 4792,
      "Ġobserv": 4793,
      "Ġsweet": 4794,
      "ĠMonday": 4795,
      "board": 4796,
      "gent": 4797,
      "Ġdramatic": 4798,
      "urally": 4799,
      "Ġmanner": 4800,
      "Ġterror": 4801,
      "ĠArmy": 4802,
      "ĠLiver": 4803,
      "Ġcolleagues": 4804,
      "ĠLloyd": 4805,
      "rehens": 4806,
      "aine": 4807,
      "quar": 4808,
      "ĠOp": 4809,
      "Ġunivers": 4810,
      "Ġrefere": 4811,
      "Ġtelling": 4812,
      "Ġfairly": 4813,
      "Ġpock": 4814,
      "Ġisol": 4815,
      "Ġexcess": 4816,
      "Ġadvance": 4817,
      "Ġopportun": 4818,
      "Ġought": 4819,
      "Ġheight": 4820,
      "iring": 4821,
      "ĠHam": 4822,
      "ĠDot": 4823,
      "Ġmoral": 4824,
      "ĠSimon": 4825,
      "ĠHung": 4826,
      "Ġflight": 4827,
      "Ġelements": 4828,
      "Ġoperations": 4829,
      "ais": 4830,
      "kin": 4831,
      "Ġmaster": 4832,
      "ĠTories": 4833,
      "ĠAN": 4834,
      "Ġcharges": 4835,
      "million": 4836,
      "Ġsust": 4837,
      "Ġregion": 4838,
      "Ġgrounds": 4839,
      "Ġtechnical": 4840,
      "ĠMartin": 4841,
      "point": 4842,
      "Ġcitiz": 4843,
      "Ġyellow": 4844,
      "Ġtreated": 4845,
      "25": 4846,
      "Ġbare": 4847,
      "Ġbear": 4848,
      "Ġeating": 4849,
      "ĠChel": 4850,
      "olved": 4851,
      "rible": 4852,
      "iveness": 4853,
      "rave": 4854,
      "Ġsports": 4855,
      "ĠKar": 4856,
      "Ġentertain": 4857,
      "Ġappointed": 4858,
      "Ġwest": 4859,
      "Ġhabit": 4860,
      "Ġbroke": 4861,
      "Ġstudies": 4862,
      "Ġmilk": 4863,
      "Ġwaste": 4864,
      "Ġdoll": 4865,
      "Ġexpression": 4866,
      "Ġformal": 4867,
      "Ġtall": 4868,
      "Ġhat": 4869,
      "Ġwearing": 4870,
      "Ġalt": 4871,
      "Ġmaximum": 4872,
      "Ġmood": 4873,
      "Ġalle": 4874,
      "Ġremoved": 4875,
      "Ġexpressed": 4876,
      "Ġreplaced": 4877,
      "ĠGlas": 4878,
      "Ġteachers": 4879,
      "Ġexperienced": 4880,
      "ĠWelsh": 4881,
      "Ġmic": 4882,
      "throp": 4883,
      "Ġvide": 4884,
      "alling": 4885,
      "Ġroy": 4886,
      "Ġplanned": 4887,
      "Ġclasses": 4888,
      "Ġencourage": 4889,
      "Ġbeside": 4890,
      "Ġrelease": 4891,
      "Ġpicked": 4892,
      "RE": 4893,
      "mph": 4894,
      "Ġwealth": 4895,
      "oles": 4896,
      "Ġwilling": 4897,
      "Ġremembered": 4898,
      "Ġrhyth": 4899,
      "IL": 4900,
      "ĠThough": 4901,
      "Ġinterpret": 4902,
      "Ġartists": 4903,
      "Ġcaptain": 4904,
      "Ġinvestors": 4905,
      "Ġwid": 4906,
      "Ġplain": 4907,
      "Ġsmile": 4908,
      "Ġkinds": 4909,
      "Ġvoters": 4910,
      "Ġpoetry": 4911,
      "apes": 4912,
      "Ġaffected": 4913,
      "Ġattempts": 4914,
      "ription": 4915,
      "ĠDer": 4916,
      "luded": 4917,
      "nesday": 4918,
      "ederal": 4919,
      "ha": 4920,
      "Ġnurs": 4921,
      "ĠIraq": 4922,
      "Ġbrain": 4923,
      "Ġbrown": 4924,
      "99": 4925,
      "How": 4926,
      "Ġtack": 4927,
      "Ġhun": 4928,
      "ĠSand": 4929,
      "Ġteaching": 4930,
      "Ġdesper": 4931,
      "Ġreput": 4932,
      "Ġconstruct": 4933,
      "Ġdocument": 4934,
      "ĠProtest": 4935,
      "ĠLiverpool": 4936,
      "orial": 4937,
      "otic": 4938,
      "Ġ31": 4939,
      "izing": 4940,
      "Ġlaunched": 4941,
      "Ġmeasures": 4942,
      "Ġtaste": 4943,
      "Ġneighbour": 4944,
      "Ġfurn": 4945,
      "aved": 4946,
      "ĠClar": 4947,
      "Ġrecords": 4948,
      "wich": 4949,
      "ĠTur": 4950,
      "ĠSpe": 4951,
      "ĠIndian": 4952,
      "Ġreleased": 4953,
      "etary": 4954,
      "Ġfallen": 4955,
      "Ġtrip": 4956,
      "Ġtotally": 4957,
      "gow": 4958,
      "inent": 4959,
      "ĠAlex": 4960,
      "Ġselection": 4961,
      "ungo": 4962,
      "ĠMiller": 4963,
      "Ġcrop": 4964,
      "asters": 4965,
      "Ġdiet": 4966,
      "Ġlic": 4967,
      "ĠAnt": 4968,
      "Ġshared": 4969,
      "Ġboat": 4970,
      "Ġtrading": 4971,
      "Ġaspects": 4972,
      "respond": 4973,
      "ington": 4974,
      "Ġthirty": 4975,
      "abled": 4976,
      "ĠSpain": 4977,
      "Ġescape": 4978,
      "Ġsatisf": 4979,
      "ĠLand": 4980,
      "ĠRA": 4981,
      "ĠNorm": 4982,
      "Ġoverse": 4983,
      "ĠAlan": 4984,
      "ducing": 4985,
      "Ġsigns": 4986,
      "Ġbreakfast": 4987,
      "ĠCollege": 4988,
      "Ġdrawing": 4989,
      "itudes": 4990,
      "Ġmortg": 4991,
      "Ġcos": 4992,
      "usted": 4993,
      "ĠJim": 4994,
      "Ġcrim": 4995,
      "Ġphr": 4996,
      "ĠRev": 4997,
      "Ġtransform": 4998,
      "Ġsli": 4999,
      "orter": 5000,
      "ĠIm": 5001,
      "urches": 5002,
      "ĠCompan": 5003,
      "Ġ1960": 5004,
      "Ġbenefits": 5005,
      "ĠDemocrats": 5006,
      "Ġnerv": 5007,
      "owing": 5008,
      "Ġpassion": 5009,
      "Ġlaunch": 5010,
      "rig": 5011,
      "Ġfilled": 5012,
      "ĠIT": 5013,
      "ĠRome": 5014,
      "ĠAnn": 5015,
      "Ġaccounts": 5016,
      "Ġfault": 5017,
      "Ġhistorical": 5018,
      "Ġcrucial": 5019,
      "500": 5020,
      "orne": 5021,
      "ĠMungo": 5022,
      "Ġexplan": 5023,
      "ĠSpan": 5024,
      "Ġfundamental": 5025,
      "ĠForeign": 5026,
      "pm": 5027,
      "Ġnamed": 5028,
      "ĠBell": 5029,
      "ensions": 5030,
      "Ġaffairs": 5031,
      "ĠBefore": 5032,
      "Ġliterature": 5033,
      "Ġwonderful": 5034,
      "Ġtheatre": 5035,
      "Ġdelic": 5036,
      "Ġsevere": 5037,
      "Ġreligion": 5038,
      "Ġenormous": 5039,
      "han": 5040,
      "Ġfixed": 5041,
      "Ġdoors": 5042,
      "Ġmargin": 5043,
      "Ġbadly": 5044,
      "Ġi": 5045,
      "urt": 5046,
      "ĠBush": 5047,
      "ĠBet": 5048,
      "ĠHill": 5049,
      "Ġshr": 5050,
      "ĠYorks": 5051,
      "Ġevolution": 5052,
      "Ġclosely": 5053,
      "Ġcarrying": 5054,
      "Ġtow": 5055,
      "ĠDel": 5056,
      "Ġsmell": 5057,
      "ĠArt": 5058,
      "Ġpassing": 5059,
      "ĠMcL": 5060,
      "Ġjourney": 5061,
      "Ġrein": 5062,
      "ĠThree": 5063,
      "ĠChamp": 5064,
      "Ġhappens": 5065,
      "Ġrecorded": 5066,
      "Ġpositive": 5067,
      "rical": 5068,
      "ĠFar": 5069,
      "Ġoutl": 5070,
      "Ġ45": 5071,
      "Ġstrate": 5072,
      "Ġbringing": 5073,
      "Ġdelay": 5074,
      "Ġspectac": 5075,
      "under": 5076,
      "ller": 5077,
      "Ġshoot": 5078,
      "Ġregime": 5079,
      "Ġguide": 5080,
      "Ġstrategy": 5081,
      "bel": 5082,
      "sea": 5083,
      "Ġfrag": 5084,
      "ula": 5085,
      "ĠNat": 5086,
      "Ġinstitution": 5087,
      "Ġproperly": 5088,
      "Ġsolution": 5089,
      "imately": 5090,
      "Ġconver": 5091,
      "ĠDire": 5092,
      "ĠJac": 5093,
      "Ġseeking": 5094,
      "ĠVal": 5095,
      "Ġmarketing": 5096,
      "Ġelder": 5097,
      "ĠWednesday": 5098,
      "Ġrat": 5099,
      "hers": 5100,
      "iform": 5101,
      "Ġexplo": 5102,
      "ĠTrans": 5103,
      "Ġfellow": 5104,
      "Ġstruggle": 5105,
      "Ġsubstantial": 5106,
      ".,": 5107,
      "iques": 5108,
      "Ġpup": 5109,
      "Ġconce": 5110,
      "Ġyounger": 5111,
      "ĠIndia": 5112,
      "bro": 5113,
      "cks": 5114,
      "lls": 5115,
      "ĠSqu": 5116,
      "Ġsomewhere": 5117,
      "rence": 5118,
      "Ġkeen": 5119,
      "Ġmaterials": 5120,
      "OM": 5121,
      "itors": 5122,
      "market": 5123,
      "Ġrepeated": 5124,
      "lem": 5125,
      "ĠCom": 5126,
      "Ġproced": 5127,
      "essions": 5128,
      "Ġshel": 5129,
      "ĠKn": 5130,
      "Ġterrit": 5131,
      "Ġdeveloping": 5132,
      "Ġcareful": 5133,
      "uce": 5134,
      "rie": 5135,
      "Ġvan": 5136,
      "Ġleaf": 5137,
      "Ġextended": 5138,
      "ĠMorgan": 5139,
      "ĠTod": 5140,
      "Ġvision": 5141,
      "anches": 5142,
      "Ġ300": 5143,
      "Ġentered": 5144,
      "ĠMPs": 5145,
      "Ġice": 5146,
      "alle": 5147,
      "ĠEach": 5148,
      "usive": 5149,
      "Ġserve": 5150,
      "ĠGlasgow": 5151,
      "idden": 5152,
      "Ġtheme": 5153,
      "Ġremaining": 5154,
      "Ġbuying": 5155,
      "Ġ1982": 5156,
      "Ġdistingu": 5157,
      "Ġcutting": 5158,
      "Ġmagazine": 5159,
      "oo": 5160,
      "ship": 5161,
      "eron": 5162,
      "Ġhaven": 5163,
      "Ġprev": 5164,
      "ĠInstead": 5165,
      "Ġvirtually": 5166,
      "arrass": 5167,
      "Ġgentle": 5168,
      "Ġintellectual": 5169,
      "fraid": 5170,
      "Ġlad": 5171,
      "ĠWashing": 5172,
      "Ġcompens": 5173,
      "ga": 5174,
      "Ġec": 5175,
      "Ġseed": 5176,
      "abeth": 5177,
      "Ġgoals": 5178,
      "Ġfears": 5179,
      "Ġimagine": 5180,
      "rough": 5181,
      "Ġwing": 5182,
      "Ġwhis": 5183,
      "ĠFur": 5184,
      "Ġconstruction": 5185,
      "Ġprinciples": 5186,
      "ĠJoseph": 5187,
      "Ġafraid": 5188,
      "ria": 5189,
      "Ġspons": 5190,
      "Ġrevealed": 5191,
      "lean": 5192,
      "Ġsuitable": 5193,
      "anda": 5194,
      "Ġdifferences": 5195,
      "ugby": 5196,
      "Ġsuffering": 5197,
      "Ġlearned": 5198,
      "Ġsilver": 5199,
      "Ġclubs": 5200,
      "ĠAgain": 5201,
      "Ġopportunities": 5202,
      "ĠWashington": 5203,
      "Ġprivat": 5204,
      "Ġ90": 5205,
      "Ġsounds": 5206,
      "Ġcinem": 5207,
      "asy": 5208,
      "umph": 5209,
      "Ġje": 5210,
      "Ġ1981": 5211,
      "Ġdealing": 5212,
      "Ġabsence": 5213,
      "Ġetc": 5214,
      "Ġbat": 5215,
      "Ġflower": 5216,
      "Ġrig": 5217,
      "Ġdear": 5218,
      "abb": 5219,
      "Ġguard": 5220,
      "Ġmembership": 5221,
      "Ġtrial": 5222,
      "Ġdivided": 5223,
      "Ġordered": 5224,
      "ma": 5225,
      "erry": 5226,
      "Ġcart": 5227,
      "Ġpushed": 5228,
      "ĠDown": 5229,
      "ishment": 5230,
      "Ġmyth": 5231,
      "Ġcontinuing": 5232,
      "ini": 5233,
      "Ġborder": 5234,
      "asion": 5235,
      "ĠBook": 5236,
      "Ġassist": 5237,
      "ĠYoung": 5238,
      "Ġcompleted": 5239,
      "Ġtrend": 5240,
      "Ġcontribution": 5241,
      "ĠFig": 5242,
      "Ġpoly": 5243,
      "Ġafford": 5244,
      "Ġfields": 5245,
      "Ġrailway": 5246,
      "Ġincident": 5247,
      "win": 5248,
      "Ġbread": 5249,
      "ĠIan": 5250,
      "Ġcoach": 5251,
      "Ġsubm": 5252,
      "Ġcourts": 5253,
      "Ġnecessarily": 5254,
      "Ġsurely": 5255,
      "Ġpollution": 5256,
      "Ġcomfortable": 5257,
      "Ġadministration": 5258,
      "Ġfuel": 5259,
      "Ġrecon": 5260,
      "Ġfactor": 5261,
      "Ġunemployment": 5262,
      "lers": 5263,
      "ware": 5264,
      "Ġlady": 5265,
      "Ġanaly": 5266,
      "Ġneck": 5267,
      "Ġunw": 5268,
      "Ġrefuge": 5269,
      "inese": 5270,
      "Ġfriendly": 5271,
      "Ġembarrass": 5272,
      "Ġconfirmed": 5273,
      "Ġmad": 5274,
      "Ġwheel": 5275,
      "ĠWho": 5276,
      "Ġpaying": 5277,
      "ĠWilliams": 5278,
      "ĠEndill": 5279,
      "Ġwound": 5280,
      "ĠGen": 5281,
      "ĠFour": 5282,
      "osexual": 5283,
      "Ġmostly": 5284,
      "Ġsecure": 5285,
      "Ġcreation": 5286,
      "Ġbegun": 5287,
      "Ġemphasis": 5288,
      "Ġtough": 5289,
      "Ġwet": 5290,
      "Ġmob": 5291,
      "ĠWhe": 5292,
      "Ġregional": 5293,
      "Ġdiscipl": 5294,
      "Ġcorrespond": 5295,
      "Ġrarely": 5296,
      "Ġargue": 5297,
      "making": 5298,
      "ĠWal": 5299,
      "Ġresident": 5300,
      "ĠAsh": 5301,
      "Ġexplos": 5302,
      "stone": 5303,
      "Ġupper": 5304,
      "Ġexpand": 5305,
      "wide": 5306,
      "Ġham": 5307,
      "Ġrent": 5308,
      "rier": 5309,
      "Ġcrack": 5310,
      "Ġinitial": 5311,
      "ya": 5312,
      "organ": 5313,
      "alls": 5314,
      "Ġrecru": 5315,
      "Ġmyster": 5316,
      "Ġemployment": 5317,
      "ĠYorkshire": 5318,
      "yer": 5319,
      "Ġcities": 5320,
      "ĠMen": 5321,
      "ĠMosc": 5322,
      "Ġabroad": 5323,
      "Ġsomewhat": 5324,
      "Ġrestaurant": 5325,
      "gie": 5326,
      "gel": 5327,
      "Ġoutput": 5328,
      "Ġanyway": 5329,
      "ĠCommons": 5330,
      "Ġbusy": 5331,
      "Ġwinner": 5332,
      "itual": 5333,
      "uts": 5334,
      "Ġlean": 5335,
      "Ġfaced": 5336,
      "rison": 5337,
      "Ġwestern": 5338,
      "asp": 5339,
      "Ġlying": 5340,
      "ĠMat": 5341,
      "ĠBob": 5342,
      "Ġrom": 5343,
      "Ġvent": 5344,
      "Ġloved": 5345,
      "Ġmeal": 5346,
      "iana": 5347,
      "Ġsky": 5348,
      "Ġreasonable": 5349,
      "untary": 5350,
      "Ġreputation": 5351,
      "ĠMoscow": 5352,
      "ram": 5353,
      "Ġdust": 5354,
      "Ġstim": 5355,
      "Ġspr": 5356,
      "ĠYour": 5357,
      "Ġentr": 5358,
      "ĠIndust": 5359,
      "Ġadditional": 5360,
      "upp": 5361,
      "Ġyes": 5362,
      "Ġbridge": 5363,
      "Ġbrilli": 5364,
      "Ġfinish": 5365,
      "Ġbreath": 5366,
      "oration": 5367,
      "Ġquant": 5368,
      "Ġentit": 5369,
      "Ġwarned": 5370,
      "ĠMcC": 5371,
      "Ġmentioned": 5372,
      "pet": 5373,
      "ĠWat": 5374,
      "ĠLou": 5375,
      "Ġundert": 5376,
      "Ġteams": 5377,
      "Ġmissed": 5378,
      "iciency": 5379,
      "erous": 5380,
      "lly": 5381,
      "imb": 5382,
      "Ġwelf": 5383,
      "Ġrival": 5384,
      "ĠWill": 5385,
      "Ġnoted": 5386,
      "ogether": 5387,
      "Ġimpression": 5388,
      "Ġsmiled": 5389,
      "Ġcauses": 5390,
      "Ġminority": 5391,
      "ĠIN": 5392,
      "Ġminimum": 5393,
      "Ġuncertain": 5394,
      "Ġintroduction": 5395,
      "ĠSometimes": 5396,
      "Ġvul": 5397,
      "ĠStep": 5398,
      "Ġcontrovers": 5399,
      "ĠZeal": 5400,
      "Ġsignificance": 5401,
      "ĠTreas": 5402,
      "Ġcloser": 5403,
      "mond": 5404,
      "Ġcere": 5405,
      "Ġmel": 5406,
      "Ġlosing": 5407,
      "ĠEv": 5408,
      "sels": 5409,
      "ailed": 5410,
      "prise": 5411,
      "Ġstands": 5412,
      "Ġequival": 5413,
      "Ġchampion": 5414,
      "quarters": 5415,
      "ĠToday": 5416,
      "Ġwelfare": 5417,
      "ki": 5418,
      "itz": 5419,
      "imp": 5420,
      "ĠWork": 5421,
      "Ġnoticed": 5422,
      "athan": 5423,
      "Ġphone": 5424,
      "Ġcurrently": 5425,
      "Ġsurvive": 5426,
      "Ġperfectly": 5427,
      "Ġschol": 5428,
      "Ġded": 5429,
      "Ġdig": 5430,
      "Ġride": 5431,
      "Ġunique": 5432,
      "ĠThurs": 5433,
      "Ġrelation": 5434,
      "Ġbusinesses": 5435,
      "Ġhoped": 5436,
      "Ġprojects": 5437,
      "Ġcurrency": 5438,
      "11": 5439,
      "70": 5440,
      "90": 5441,
      "nam": 5442,
      "Ġble": 5443,
      "istan": 5444,
      "ĠLib": 5445,
      "ĠGarden": 5446,
      "Ġuniform": 5447,
      "Ġwarning": 5448,
      "Ġmatches": 5449,
      "Ġ150": 5450,
      "Ġstrongly": 5451,
      "Ġconventional": 5452,
      "Ġunusual": 5453,
      "ĠRamsey": 5454,
      "ĠTues": 5455,
      "Ġgain": 5456,
      "ĠMa": 5457,
      "ĠPen": 5458,
      "venue": 5459,
      "Ġourselves": 5460,
      "Ġtechnique": 5461,
      "Ġsuffer": 5462,
      "Ġheavily": 5463,
      "Ġremarkable": 5464,
      "real": 5465,
      "Ġfill": 5466,
      "Ġmo": 5467,
      "Ġmixed": 5468,
      "Ġhill": 5469,
      "Ġworried": 5470,
      "minster": 5471,
      "Ġlights": 5472,
      "Ġplease": 5473,
      "80": 5474,
      "Ġsoul": 5475,
      "alu": 5476,
      "tering": 5477,
      "Ġclock": 5478,
      "pective": 5479,
      "Ġobjects": 5480,
      "Ġsilence": 5481,
      "iplom": 5482,
      "Ġextraord": 5483,
      "Ġnetwork": 5484,
      "era": 5485,
      "Ġsequ": 5486,
      "ĠEduc": 5487,
      "Ġshock": 5488,
      "icip": 5489,
      "ĠAc": 5490,
      "ulous": 5491,
      "ĠRad": 5492,
      "Ġdesp": 5493,
      "Ġretail": 5494,
      "Ġeffectively": 5495,
      "more": 5496,
      "tes": 5497,
      "ĠInt": 5498,
      "gels": 5499,
      "ĠLoc": 5500,
      "Ġcounty": 5501,
      "Ġsets": 5502,
      "Ġpromised": 5503,
      "burgh": 5504,
      "Ġnineteenth": 5505,
      "95": 5506,
      "Ġdrew": 5507,
      "ĠHug": 5508,
      "esty": 5509,
      "ĠChinese": 5510,
      "Ġreference": 5511,
      "Ġpatients": 5512,
      "Ġrepresented": 5513,
      "Ġemerged": 5514,
      "Ġweapons": 5515,
      "Ġid": 5516,
      "owed": 5517,
      "ureau": 5518,
      "ĠJones": 5519,
      "Ġcloud": 5520,
      "Ġliberal": 5521,
      "Ġresort": 5522,
      "Ġsocieties": 5523,
      "Ġinsist": 5524,
      "Ġopposed": 5525,
      "Ġcrew": 5526,
      "Ġwider": 5527,
      "uties": 5528,
      "Ġ75": 5529,
      "Ġtypical": 5530,
      "orous": 5531,
      "Ġnotes": 5532,
      "Ġsho": 5533,
      "Ġimproved": 5534,
      "Ġthreatened": 5535,
      "Ġdeeply": 5536,
      "Ġacademic": 5537,
      "eral": 5538,
      "Ġmix": 5539,
      "Ġplat": 5540,
      "Ġ1950": 5541,
      "ĠJud": 5542,
      "Ġmassive": 5543,
      "Ġgest": 5544,
      "Ġstake": 5545,
      "Ġunp": 5546,
      "Ġproud": 5547,
      "Ġidentity": 5548,
      "Ġsque": 5549,
      "Ġfright": 5550,
      "unction": 5551,
      "Ġmeat": 5552,
      "ĠJes": 5553,
      "ĠChild": 5554,
      "Ġcuts": 5555,
      "Ġsatisfact": 5556,
      "Ġrejected": 5557,
      "Ġbirds": 5558,
      "ĠZealand": 5559,
      "Ġsorry": 5560,
      "apse": 5561,
      "acket": 5562,
      "Ġ190": 5563,
      "Ġdiscussed": 5564,
      "Ġcopy": 5565,
      "Ġliterary": 5566,
      "Ġscientific": 5567,
      "ĠHotel": 5568,
      "Ġcenturies": 5569,
      "Ġshoulder": 5570,
      "Ġstruck": 5571,
      "Ġmeetings": 5572,
      "Ġsurprised": 5573,
      "ĠEnvironment": 5574,
      "Ġphilosophy": 5575,
      "AM": 5576,
      "ĠMum": 5577,
      "oking": 5578,
      "Ġmanage": 5579,
      "eping": 5580,
      "Ġapplication": 5581,
      "Ġfingers": 5582,
      "Ġsouthern": 5583,
      "Ġnoise": 5584,
      "Ġrecovery": 5585,
      "angers": 5586,
      "Ġefficient": 5587,
      "Ġproperties": 5588,
      "Ġmagn": 5589,
      "Ġtired": 5590,
      "Ġsan": 5591,
      "Ġstore": 5592,
      "ĠHaving": 5593,
      "ĠPart": 5594,
      "ĠNord": 5595,
      "Ġinstru": 5596,
      "Ġtransl": 5597,
      "Ġarranged": 5598,
      "Ġschemes": 5599,
      "Ġpreviously": 5600,
      "Ġhurt": 5601,
      "Ġrapidly": 5602,
      "Ġcro": 5603,
      "Ġpush": 5604,
      "Ġdivid": 5605,
      "Ġvac": 5606,
      "Ġlinks": 5607,
      "Ġdeliber": 5608,
      "Ġcontemporary": 5609,
      "ĠThursday": 5610,
      "Ġing": 5611,
      "ĠChe": 5612,
      "olt": 5613,
      "ĠGall": 5614,
      "Ġemotional": 5615,
      "ĠSpanish": 5616,
      "Not": 5617,
      "lines": 5618,
      "Ġdriver": 5619,
      "Ġpleased": 5620,
      "Ġpenalty": 5621,
      "Ġassemb": 5622,
      "Ġhole": 5623,
      "Ġhelping": 5624,
      "Ġpayments": 5625,
      "ĠLeonard": 5626,
      "Ġforgotten": 5627,
      "inced": 5628,
      "Ġaccused": 5629,
      "ĠDev": 5630,
      "Ġalleged": 5631,
      "eared": 5632,
      "life": 5633,
      "Ġrum": 5634,
      "Ġrot": 5635,
      "oving": 5636,
      "Ġvalu": 5637,
      "Ġurban": 5638,
      "Ġencouraged": 5639,
      "sl": 5640,
      "Ġgap": 5641,
      "ods": 5642,
      "ĠFord": 5643,
      "Ġagency": 5644,
      "Ġ33": 5645,
      "ĠMarg": 5646,
      "Ġbroadcast": 5647,
      "ĠRussia": 5648,
      "achev": 5649,
      "Ġconstitu": 5650,
      "Ġoverseas": 5651,
      "Ġtempt": 5652,
      "inate": 5653,
      "ĠTy": 5654,
      "Ġyards": 5655,
      "Ġritual": 5656,
      "ĠGorb": 5657,
      "Ġsmooth": 5658,
      "ĠAlso": 5659,
      "Ġfeelings": 5660,
      "Ġbreed": 5661,
      "Ġswing": 5662,
      "Ġstayed": 5663,
      "Ġpositions": 5664,
      "long": 5665,
      "rad": 5666,
      "Ġfly": 5667,
      "Ġnose": 5668,
      "ĠCast": 5669,
      "Ġreluct": 5670,
      "Ġinvited": 5671,
      "Ġvisited": 5672,
      "Ġelectron": 5673,
      "Ġtalked": 5674,
      "Ġexamples": 5675,
      "Ġsettled": 5676,
      "Ġdemocracy": 5677,
      "unnel": 5678,
      "Ġopponent": 5679,
      "Ġtor": 5680,
      "Ġplays": 5681,
      "Ġsigned": 5682,
      "Ġconstant": 5683,
      "Ġvisitors": 5684,
      "Ġoccurred": 5685,
      "Ġarrangements": 5686,
      "My": 5687,
      "Ġbeach": 5688,
      "estival": 5689,
      "Ġjoy": 5690,
      "Ġbranches": 5691,
      "Ġends": 5692,
      "mination": 5693,
      "Ġfacing": 5694,
      "Ġtechniques": 5695,
      "Ġsplit": 5696,
      "ĠCamp": 5697,
      "ĠRem": 5698,
      "Ġcentres": 5699,
      "Ġbigger": 5700,
      "Ġthousand": 5701,
      "ĠTuesday": 5702,
      "sts": 5703,
      "ĠFree": 5704,
      "Ġimper": 5705,
      "Ġcontinues": 5706,
      "Ġcalcul": 5707,
      "ENT": 5708,
      "isers": 5709,
      "Ġpin": 5710,
      "Ġgro": 5711,
      "ĠMad": 5712,
      "ĠDen": 5713,
      "Ġreserv": 5714,
      "Ġteeth": 5715,
      "Ġprompt": 5716,
      "Ġmoves": 5717,
      "Ġcritics": 5718,
      "Ġsuspic": 5719,
      "UC": 5720,
      "Ġfant": 5721,
      "Ġlb": 5722,
      "Ġexternal": 5723,
      "Ġintention": 5724,
      "Ġuses": 5725,
      "Ġwhereas": 5726,
      "pected": 5727,
      "ĠLeeds": 5728,
      "Ġexpert": 5729,
      "Ġswitch": 5730,
      "zech": 5731,
      "ĠAustralian": 5732,
      "Ġreferred": 5733,
      "Ġadopt": 5734,
      "ĠDefence": 5735,
      "ĠFurther": 5736,
      "ront": 5737,
      "inction": 5738,
      "ĠCross": 5739,
      "ĠBal": 5740,
      "agan": 5741,
      "Ġassociation": 5742,
      "Ġplane": 5743,
      "Ġcream": 5744,
      "etic": 5745,
      "ĠOut": 5746,
      "Ġspeaking": 5747,
      "Ġhousehold": 5748,
      "Ġorders": 5749,
      "ĠMean": 5750,
      "Ġadvertising": 5751,
      "kins": 5752,
      "Ġstable": 5753,
      "ĠBre": 5754,
      "ila": 5755,
      "Ġsees": 5756,
      "Ġkiss": 5757,
      "Ġliber": 5758,
      "ĠAndrew": 5759,
      "Ġglob": 5760,
      "Ġlisten": 5761,
      "ĠSteve": 5762,
      "ixture": 5763,
      "12": 5764,
      "HS": 5765,
      "borough": 5766,
      "Ġhearing": 5767,
      "Ġdeleg": 5768,
      "Ġplastic": 5769,
      "Ġmusical": 5770,
      "UR": 5771,
      "Ġinner": 5772,
      "icy": 5773,
      "olit": 5774,
      "ĠEri": 5775,
      "ĠRO": 5776,
      "oken": 5777,
      "Ġafterwards": 5778,
      "Ġrepro": 5779,
      "henomen": 5780,
      "Ġdetect": 5781,
      "Ġrequest": 5782,
      "ĠNevertheless": 5783,
      "oria": 5784,
      "Ġstations": 5785,
      "ibilities": 5786,
      "Ġcalling": 5787,
      "Ġlearning": 5788,
      "Ġcombination": 5789,
      "iest": 5790,
      "rick": 5791,
      "Ġpeak": 5792,
      "Ġwitness": 5793,
      "Ġequivalent": 5794,
      "15": 5795,
      "bo": 5796,
      "Ġpartner": 5797,
      "Ġoffence": 5798,
      "Ġstrateg": 5799,
      "Ġsimpl": 5800,
      "Ġmovements": 5801,
      "Ġdetailed": 5802,
      "ĠSwed": 5803,
      "Ġdolphins": 5804,
      "Ġdisease": 5805,
      "aily": 5806,
      "Ġfal": 5807,
      "Ġincor": 5808,
      "Ġpublish": 5809,
      "Ġactual": 5810,
      "Ġelected": 5811,
      "Ġrecognised": 5812,
      "Ġenemy": 5813,
      "ĠCzech": 5814,
      "Ġvig": 5815,
      "Ġblind": 5816,
      "Ġdrag": 5817,
      "Ġrequires": 5818,
      "ĠTrust": 5819,
      "Ġlinked": 5820,
      "onel": 5821,
      "ĠFort": 5822,
      "Ġven": 5823,
      "Ġclients": 5824,
      "weight": 5825,
      "Ġattitudes": 5826,
      "gypt": 5827,
      "Ġsubjects": 5828,
      "bre": 5829,
      "Ġtail": 5830,
      "inating": 5831,
      "Ġanthrop": 5832,
      "Ġbranch": 5833,
      "Ġpermanent": 5834,
      "ĠGorbachev": 5835,
      "Ġflex": 5836,
      "omer": 5837,
      "ums": 5838,
      "ansion": 5839,
      "Ġremove": 5840,
      "Ġrealised": 5841,
      "Ġdirectors": 5842,
      "Ġexception": 5843,
      "Ġcitizens": 5844,
      "ĠTreasury": 5845,
      "Ġdiplom": 5846,
      "ĠTim": 5847,
      "Ġshadow": 5848,
      "Ġnobody": 5849,
      "Ġentry": 5850,
      "Ġeditor": 5851,
      "Ġloose": 5852,
      "chers": 5853,
      "ĠCompany": 5854,
      "Ġtone": 5855,
      "Ġinquir": 5856,
      "ĠMic": 5857,
      "ĠPo": 5858,
      "ĠKent": 5859,
      "Ġrob": 5860,
      "ologists": 5861,
      "Ġthoughts": 5862,
      "Ġoperating": 5863,
      "AC": 5864,
      "Ġoffices": 5865,
      "athy": 5866,
      "Ġcapable": 5867,
      "enna": 5868,
      "Ġcope": 5869,
      "Ġprimary": 5870,
      "Ġwithdraw": 5871,
      "Wh": 5872,
      "Ġfishing": 5873,
      "Ġloud": 5874,
      "ĠSil": 5875,
      "ifest": 5876,
      "Ġtrick": 5877,
      "ighter": 5878,
      "issions": 5879,
      "Ġcolours": 5880,
      "Ġaccommodation": 5881,
      "ĠEgypt": 5882,
      "Ġalive": 5883,
      "agu": 5884,
      "Ġperce": 5885,
      "ĠChief": 5886,
      "ĠCommand": 5887,
      "ĠOffic": 5888,
      "Ġindependence": 5889,
      "Ġproducing": 5890,
      "Ġfocus": 5891,
      "ĠMuslim": 5892,
      "Ġcou": 5893,
      "ĠTimes": 5894,
      "Ġthanks": 5895,
      "fortunately": 5896,
      "vin": 5897,
      "Ġster": 5898,
      "Ġru": 5899,
      "Ġneare": 5900,
      "Ġpoem": 5901,
      "Ġmaybe": 5902,
      "Ġknowing": 5903,
      "Ġcheese": 5904,
      "Ġcontrolled": 5905,
      "Ġidentified": 5906,
      "Ġtact": 5907,
      "Ġcru": 5908,
      "Ġmole": 5909,
      "Ġreass": 5910,
      "ida": 5911,
      "ĠDis": 5912,
      "ĠDay": 5913,
      "elve": 5914,
      "ĠOly": 5915,
      "Ġoverl": 5916,
      "itely": 5917,
      "ickets": 5918,
      "Ġwriters": 5919,
      "Ġallowing": 5920,
      "Ġspecialist": 5921,
      "Ġconvinced": 5922,
      "Ġhundreds": 5923,
      "Ġfifth": 5924,
      "Ġrecommend": 5925,
      "inburgh": 5926,
      "Ġgate": 5927,
      "ĠBed": 5928,
      "ĠHead": 5929,
      "Ġscored": 5930,
      "Ġindex": 5931,
      "Ġdiscover": 5932,
      "Ġreduction": 5933,
      "Ġcandidate": 5934,
      "Ġvideo": 5935,
      "ĠNordern": 5936,
      "ED": 5937,
      "Ġfought": 5938,
      "Ġpages": 5939,
      "Ġagent": 5940,
      "Ġquot": 5941,
      "Ġprepar": 5942,
      "Ġmountain": 5943,
      "Ch": 5944,
      "bours": 5945,
      "vation": 5946,
      "Ġpink": 5947,
      "ĠMo": 5948,
      "Ġemp": 5949,
      "Ġwondered": 5950,
      "chest": 5951,
      "Ġiniti": 5952,
      "Ġconversation": 5953,
      "eath": 5954,
      "mouth": 5955,
      "Ġgained": 5956,
      "ĠBo": 5957,
      "ĠHol": 5958,
      "Ġflour": 5959,
      "Ġthinks": 5960,
      "Ġcombined": 5961,
      "Ġmistake": 5962,
      "Why": 5963,
      "Ġpig": 5964,
      "Ġphenomen": 5965,
      "Ġgardens": 5966,
      "ĠAre": 5967,
      "aming": 5968,
      "amber": 5969,
      "Ġrac": 5970,
      "Ġvir": 5971,
      "ĠOh": 5972,
      "Ġunex": 5973,
      "Ġresist": 5974,
      "Ġactions": 5975,
      "Ġ400": 5976,
      "Ġminds": 5977,
      "Ġshareholders": 5978,
      "ĠOlymp": 5979,
      "car": 5980,
      "uits": 5981,
      "Ġtill": 5982,
      "Ġabol": 5983,
      "earing": 5984,
      "Ġowned": 5985,
      "Ġcarbon": 5986,
      "Ġdepth": 5987,
      "azz": 5988,
      "ĠEdinburgh": 5989,
      "Ġemergency": 5990,
      "apped": 5991,
      "Ġhang": 5992,
      "Ġkid": 5993,
      "Ġcoins": 5994,
      "obb": 5995,
      "Ġacting": 5996,
      "Ġevident": 5997,
      "Ġwaters": 5998,
      "Ġpace": 5999,
      "Ġgather": 6000,
      "Ġjustice": 6001,
      "ĠTurn": 6002,
      "riend": 6003,
      "ĠLes": 6004,
      "Ġchurches": 6005,
      "ĠScots": 6006,
      "Ġcharacters": 6007,
      "Ġentitled": 6008,
      "ĠEducation": 6009,
      "iot": 6010,
      "Ġrear": 6011,
      "Ġsomehow": 6012,
      "Ġtriumph": 6013,
      "Ġdispute": 6014,
      "Ġbottle": 6015,
      "Ġimpressive": 6016,
      "ĠErika": 6017,
      "omy": 6018,
      "lyn": 6019,
      "ĠMet": 6020,
      "iven": 6021,
      "Ġsheep": 6022,
      "ĠUl": 6023,
      "ĠStan": 6024,
      "Ġinsisted": 6025,
      "Ġprocesses": 6026,
      "ĠPolice": 6027,
      "Ġ1930": 6028,
      "ĠAmong": 6029,
      "Ġearnings": 6030,
      "Ġtut": 6031,
      "Ġfool": 6032,
      "edy": 6033,
      "sex": 6034,
      "Ġliqu": 6035,
      "Ġfewer": 6036,
      "Ġcontrols": 6037,
      "Ġorganic": 6038,
      "Ġclassical": 6039,
      "Ġemployees": 6040,
      "Ġclimate": 6041,
      "Ġcinema": 6042,
      "ĠMeanwhile": 6043,
      "Ġwave": 6044,
      "erted": 6045,
      "ana": 6046,
      "Ġturns": 6047,
      "ĠPoland": 6048,
      "Ġvoluntary": 6049,
      "Ġanxious": 6050,
      "Ġsavings": 6051,
      "zz": 6052,
      "Ġsir": 6053,
      "chant": 6054,
      "unning": 6055,
      "asts": 6056,
      "icted": 6057,
      "oves": 6058,
      "Ġleads": 6059,
      "Ġcricket": 6060,
      "Ġassault": 6061,
      "Ġgranted": 6062,
      "Ġtemperature": 6063,
      "Ġextraordinary": 6064,
      "itched": 6065,
      "arity": 6066,
      "Ġinher": 6067,
      "Ġnotion": 6068,
      "ĠNich": 6069,
      "Ġdepends": 6070,
      "Ġmodest": 6071,
      "Ġcharged": 6072,
      "apping": 6073,
      "Ġroutine": 6074,
      "ederation": 6075,
      "Ġsacr": 6076,
      "free": 6077,
      "ilarly": 6078,
      "ĠGaz": 6079,
      "Ġbutter": 6080,
      "ĠInter": 6081,
      "Ġregularly": 6082,
      "Ġbeneath": 6083,
      "Ġfirmly": 6084,
      "Ġchampionship": 6085,
      "ĠProfessor": 6086,
      "ĠMargaret": 6087,
      "So": 6088,
      "Ġbars": 6089,
      "Ġech": 6090,
      "Ġreli": 6091,
      "Ġvary": 6092,
      "ĠRiver": 6093,
      "cons": 6094,
      "ifts": 6095,
      "Ġpassage": 6096,
      "Ġtells": 6097,
      "Ġsteel": 6098,
      "Ġsteep": 6099,
      "Ġmissing": 6100,
      "ĠInstitute": 6101,
      "Ġadopted": 6102,
      "Ġeggs": 6103,
      "75": 6104,
      "CI": 6105,
      "ST": 6106,
      "gn": 6107,
      "Ġmine": 6108,
      "Ġonto": 6109,
      "ĠRail": 6110,
      "ĠConst": 6111,
      "ĠCounty": 6112,
      "Ġpilot": 6113,
      "Ġdoctors": 6114,
      "ĠWas": 6115,
      "usal": 6116,
      "Ġvia": 6117,
      "Ġtrained": 6118,
      "ĠHarry": 6119,
      "Ġconsumer": 6120,
      "operation": 6121,
      "Ġpa": 6122,
      "amic": 6123,
      "ĠCle": 6124,
      "Ġtroub": 6125,
      "Ġincreases": 6126,
      "Ġlosses": 6127,
      "Ġreflected": 6128,
      "Ġtimber": 6129,
      "Ġdiesel": 6130,
      "uing": 6131,
      "eries": 6132,
      "Ġflying": 6133,
      "ĠDutch": 6134,
      "action": 6135,
      "Ġadequ": 6136,
      "ĠStud": 6137,
      "Ġcommunities": 6138,
      "water": 6139,
      "ĠAv": 6140,
      "Ġaside": 6141,
      "Ġforests": 6142,
      "Ġroyal": 6143,
      "Ġgiant": 6144,
      "Ġhed": 6145,
      "Ġcolon": 6146,
      "Ġseconds": 6147,
      "Ġfollows": 6148,
      "Ġfeels": 6149,
      "Ġlovely": 6150,
      "Ġexha": 6151,
      "Ġadjust": 6152,
      "Ġmortgage": 6153,
      "Ġdying": 6154,
      "lla": 6155,
      "Ġyield": 6156,
      "Ġbrand": 6157,
      "Ġattended": 6158,
      "ĠJustice": 6159,
      "Ġfoss": 6160,
      "orate": 6161,
      "Ġdanc": 6162,
      "omic": 6163,
      "Ġscen": 6164,
      "....": 6165,
      "Ġbrick": 6166,
      "Ġblank": 6167,
      "Ġ36": 6168,
      "atively": 6169,
      "Ġrecognition": 6170,
      "rete": 6171,
      "ilst": 6172,
      "ĠWalk": 6173,
      "ĠWEA": 6174,
      "Ġsugar": 6175,
      "Ġchain": 6176,
      "ords": 6177,
      "Ġimplement": 6178,
      "olly": 6179,
      "Ġpromise": 6180,
      "Ġperiods": 6181,
      "Ġbitter": 6182,
      "Ġdenied": 6183,
      "ĠCameron": 6184,
      "ophistic": 6185,
      "ĠMaggie": 6186,
      "spe": 6187,
      "wart": 6188,
      "ĠBon": 6189,
      "Ġconven": 6190,
      "ĠEr": 6191,
      "ĠThird": 6192,
      "eff": 6193,
      "rer": 6194,
      "Ġmile": 6195,
      "Ġhint": 6196,
      "Ġnodd": 6197,
      "Ġstorm": 6198,
      "ĠDub": 6199,
      "Ġfinds": 6200,
      "Ġpayment": 6201,
      "Ġdominated": 6202,
      "Ġcalm": 6203,
      "Ġinevitable": 6204,
      "ĠOpen": 6205,
      "bell": 6206,
      "makers": 6207,
      "attered": 6208,
      "ĠLat": 6209,
      "Ġshift": 6210,
      "ude": 6211,
      "Ġresc": 6212,
      "ĠArch": 6213,
      "ĠCorpor": 6214,
      "Ġbegins": 6215,
      "comm": 6216,
      "rem": 6217,
      "isms": 6218,
      "Ġnorthern": 6219,
      "ĠSing": 6220,
      "Ġalb": 6221,
      "Ġprize": 6222,
      "Ġannounce": 6223,
      "ĠProtestant": 6224,
      "law": 6225,
      "Ġcab": 6226,
      "Ġmission": 6227,
      "ourse": 6228,
      "Ġownership": 6229,
      "OT": 6230,
      "greg": 6231,
      "Ġshook": 6232,
      "osure": 6233,
      "outs": 6234,
      "Ġcompon": 6235,
      "ĠAnne": 6236,
      "Ġrealise": 6237,
      "Ġissued": 6238,
      "ĠConc": 6239,
      "Ġsalt": 6240,
      "Ġabsolutely": 6241,
      "Ġexplanation": 6242,
      "Ġforty": 6243,
      "ĠBrian": 6244,
      "usc": 6245,
      "Ġmanifest": 6246,
      "Ġcontest": 6247,
      "Ġcontained": 6248,
      "Ġcontains": 6249,
      "Ġhoriz": 6250,
      "Ġarguments": 6251,
      "Ġmaintained": 6252,
      "SE": 6253,
      "When": 6254,
      "iating": 6255,
      "Ġcig": 6256,
      "Ġpra": 6257,
      "style": 6258,
      "Ġincl": 6259,
      "Ġrepublic": 6260,
      "Ġhandle": 6261,
      "ĠWestminster": 6262,
      "Ġbeauty": 6263,
      "Ġproposal": 6264,
      "ĠJesus": 6265,
      "rees": 6266,
      "Ġnit": 6267,
      "ĠPR": 6268,
      "Ġfee": 6269,
      "ĠChapter": 6270,
      "Ġsched": 6271,
      "Ġcoin": 6272,
      "izz": 6273,
      "ĠLeices": 6274,
      "Ġretire": 6275,
      "akespe": 6276,
      "Ġaffair": 6277,
      "Ġpatient": 6278,
      "archy": 6279,
      "ĠMiddle": 6280,
      "Ġintroduce": 6281,
      "Ġabandoned": 6282,
      "bb": 6283,
      "Ġthro": 6284,
      "iments": 6285,
      "Ġvo": 6286,
      "Ġimages": 6287,
      "Ġdistrict": 6288,
      "Ġadmit": 6289,
      "ĠIran": 6290,
      "Ġcollapse": 6291,
      "Ġfifty": 6292,
      "Ġdistribution": 6293,
      "uilding": 6294,
      "ĠNichol": 6295,
      "master": 6296,
      "ye": 6297,
      "illa": 6298,
      "orted": 6299,
      "Ġju": 6300,
      "Ġoutcome": 6301,
      "Ġmedium": 6302,
      "Ġcells": 6303,
      "Ġorganisations": 6304,
      "ĠVictorian": 6305,
      "Ġelderly": 6306,
      "Ġglad": 6307,
      "enny": 6308,
      "ĠExp": 6309,
      "iverse": 6310,
      "Ġmachines": 6311,
      "Ġreforms": 6312,
      "Ġconnection": 6313,
      "Ġconsequences": 6314,
      "St": 6315,
      "pired": 6316,
      "swe": 6317,
      "vy": 6318,
      "itably": 6319,
      "Ġdict": 6320,
      "Ġrank": 6321,
      "ĠDet": 6322,
      "earch": 6323,
      "Ġunity": 6324,
      "Ġdefined": 6325,
      "Ġobserved": 6326,
      "Ġsongs": 6327,
      "OW": 6328,
      "Ġtennis": 6329,
      "ĠLady": 6330,
      "Ġenh": 6331,
      "Ġparalle": 6332,
      "ĠShakespe": 6333,
      "Ġamongst": 6334,
      "ĠNotting": 6335,
      "engers": 6336,
      "ĠJewish": 6337,
      "Ġconclusion": 6338,
      "Ġcorporate": 6339,
      "ĠAuthor": 6340,
      "ĠTro": 6341,
      "Ġchances": 6342,
      "Ġtrains": 6343,
      "Ġdisaster": 6344,
      "Ġroots": 6345,
      "Ġvotes": 6346,
      "Ġassets": 6347,
      "ION": 6348,
      "icate": 6349,
      "ĠAC": 6350,
      "uman": 6351,
      "acked": 6352,
      "Ġagents": 6353,
      "Ġenable": 6354,
      "icked": 6355,
      "Ġexpend": 6356,
      "Ġmoments": 6357,
      "Ġnegotiations": 6358,
      "oan": 6359,
      "Ġhook": 6360,
      "ĠCard": 6361,
      "ĠChris": 6362,
      "rows": 6363,
      "Ġfactory": 6364,
      "Ġpurposes": 6365,
      "Ġappointment": 6366,
      "Ġparliamentary": 6367,
      "Ġexhibition": 6368,
      "Ġaccompanied": 6369,
      "Ġswimming": 6370,
      "OL": 6371,
      "ĠLy": 6372,
      "wealth": 6373,
      "ĠVir": 6374,
      "Ġmonetary": 6375,
      "Ġattacks": 6376,
      "Ġdrove": 6377,
      "ĠSupp": 6378,
      "Ġpurchase": 6379,
      "ĠGraham": 6380,
      "Ġsophistic": 6381,
      "Ġfert": 6382,
      "stairs": 6383,
      "ifted": 6384,
      "Ġ32": 6385,
      "Ġterrible": 6386,
      "Ġboost": 6387,
      "Ġbreaking": 6388,
      "Ġbloody": 6389,
      "Ġrequirements": 6390,
      "Ġoriginally": 6391,
      "Ġestimated": 6392,
      "Ġoption": 6393,
      "Ġsin": 6394,
      "Ġhell": 6395,
      "ĠPak": 6396,
      "ĠLittle": 6397,
      "Ġreply": 6398,
      "Ġreader": 6399,
      "Ġnearby": 6400,
      "Ġpocket": 6401,
      "Ġfalse": 6402,
      "pie": 6403,
      "uting": 6404,
      "cel": 6405,
      "Ġanywhere": 6406,
      "Ġexpansion": 6407,
      "Ġtermin": 6408,
      "azing": 6409,
      "Ġorganised": 6410,
      "Ġsquad": 6411,
      "ĠLanc": 6412,
      "Ġfacts": 6413,
      "ĠMinistry": 6414,
      "Ġnaturally": 6415,
      "ran": 6416,
      "asks": 6417,
      "Ġthorough": 6418,
      "sters": 6419,
      "ampton": 6420,
      "Ġstars": 6421,
      "Ġsections": 6422,
      "unte": 6423,
      "Ġmetres": 6424,
      "Ġhappening": 6425,
      "Ġacquired": 6426,
      "Ġoptim": 6427,
      "Ġmulti": 6428,
      "Ġgradually": 6429,
      "Ġlucky": 6430,
      "Is": 6431,
      "ds": 6432,
      "ĠTay": 6433,
      "idays": 6434,
      "ĠBern": 6435,
      "una": 6436,
      "unc": 6437,
      "avy": 6438,
      "Ġhanded": 6439,
      "Ġsentence": 6440,
      "ikh": 6441,
      "Ġburst": 6442,
      "Ġscientists": 6443,
      "Ġphrase": 6444,
      "Ġbureau": 6445,
      "Ġsty": 6446,
      "Ġcomprom": 6447,
      "ĠViet": 6448,
      "Ġstrict": 6449,
      "Ġallows": 6450,
      "Ġroads": 6451,
      "IV": 6452,
      "aus": 6453,
      "oons": 6454,
      "Ġfo": 6455,
      "Ġrenew": 6456,
      "Ġseeds": 6457,
      "ĠEve": 6458,
      "Ġbrings": 6459,
      "Ġattached": 6460,
      "Ġavo": 6461,
      "Ġeducational": 6462,
      "Ġtowns": 6463,
      "Ġrecognise": 6464,
      "ĠNext": 6465,
      "Ġnewspapers": 6466,
      "ĠRAF": 6467,
      "nament": 6468,
      "Ġtaught": 6469,
      "Ġforth": 6470,
      "ĠSar": 6471,
      "ĠDur": 6472,
      "Ġupset": 6473,
      "Ġune": 6474,
      "Ġoverw": 6475,
      "Ġimposed": 6476,
      "Ġmodels": 6477,
      "Ġvolume": 6478,
      "Ġangry": 6479,
      "Ġhomosexual": 6480,
      "Ġobtained": 6481,
      "ez": 6482,
      "itals": 6483,
      "Ġmixture": 6484,
      "Ġlake": 6485,
      "ĠWright": 6486,
      "Ġflu": 6487,
      "Ġhandling": 6488,
      "Ġdeficit": 6489,
      "lessly": 6490,
      "Ġguests": 6491,
      "Ġarrival": 6492,
      "ĠBelg": 6493,
      "uzz": 6494,
      "Ġsymbol": 6495,
      "iel": 6496,
      "Ġdraft": 6497,
      "rog": 6498,
      "Ġrocks": 6499,
      "Ġshoulders": 6500,
      "Ġinspect": 6501,
      "Ġhealthy": 6502,
      "Ġsensitive": 6503,
      "ĠCanada": 6504,
      "ĠKu": 6505,
      "Ġ38": 6506,
      "ĠRober": 6507,
      "Ġstructures": 6508,
      "Ġengineering": 6509,
      "All": 6510,
      "Ġpale": 6511,
      "Ġstir": 6512,
      "ĠPC": 6513,
      "Ġremote": 6514,
      "Ġsupplies": 6515,
      "Ġacts": 6516,
      "Ġcolumn": 6517,
      "Ġsurvived": 6518,
      "Ġlifted": 6519,
      "ĠNottingham": 6520,
      "Ġstup": 6521,
      "ĠMot": 6522,
      "Ġrational": 6523,
      "Ġtruly": 6524,
      "ffield": 6525,
      "avoured": 6526,
      "Ġsuburb": 6527,
      "Ġlandsc": 6528,
      "Ġarrested": 6529,
      "Ġlaughed": 6530,
      "Ġcasual": 6531,
      "ĠPakistan": 6532,
      "Ġwed": 6533,
      "orious": 6534,
      "ĠGulf": 6535,
      "ĠHeath": 6536,
      "icken": 6537,
      "Ġsmoke": 6538,
      "apel": 6539,
      "Ġdescribe": 6540,
      "iary": 6541,
      "sky": 6542,
      "Ġlock": 6543,
      "Ġreward": 6544,
      "ĠBoy": 6545,
      "Ġpros": 6546,
      "inking": 6547,
      "Ġpolls": 6548,
      "Ġwished": 6549,
      "acle": 6550,
      "Ġship": 6551,
      "Ġtrail": 6552,
      "Ġcomprehens": 6553,
      "Ġresistance": 6554,
      "ĠYe": 6555,
      "ĠVol": 6556,
      "Ġpresum": 6557,
      "ĠAnth": 6558,
      "Ġrecording": 6559,
      "Ġbeaten": 6560,
      "ĠGreek": 6561,
      "ĠMcLe": 6562,
      "Ġincorpor": 6563,
      "ĠShakespeare": 6564,
      "Ġwire": 6565,
      "Ġfans": 6566,
      "geant": 6567,
      "ulpt": 6568,
      "ĠNon": 6569,
      "Ġcoat": 6570,
      "Ġextensive": 6571,
      "Ġdriven": 6572,
      "Ġstriking": 6573,
      "Ġacknowled": 6574,
      "ĠChampionship": 6575,
      "but": 6576,
      "Ġped": 6577,
      "Ġhide": 6578,
      "ĠFre": 6579,
      "Ġspite": 6580,
      "Ġgreatly": 6581,
      "Ġimprovement": 6582,
      "Ġpreferred": 6583,
      "Ġhonour": 6584,
      "Ġmillions": 6585,
      "ĠRadio": 6586,
      "Ġvaluable": 6587,
      "Ġtie": 6588,
      "Ġbot": 6589,
      "oli": 6590,
      "ĠEll": 6591,
      "ĠDar": 6592,
      "ocation": 6593,
      "Ġadvanced": 6594,
      "Ġmotion": 6595,
      "ĠKingdom": 6596,
      "Ġrelationships": 6597,
      "ĠFrancis": 6598,
      "Ġbatt": 6599,
      "ĠSa": 6600,
      "Ġshoes": 6601,
      "ĠGP": 6602,
      "Ġarmed": 6603,
      "Ġdecor": 6604,
      "Ġbehalf": 6605,
      "Ġdisappeared": 6606,
      "Ġoz": 6607,
      "ulating": 6608,
      "Ġovert": 6609,
      "Ġknock": 6610,
      "ĠSheffield": 6611,
      "Ġadvent": 6612,
      "Ġexperiment": 6613,
      "Ġconsidering": 6614,
      "Ġdrinking": 6615,
      "Ġcandidates": 6616,
      "Ġenthusiasm": 6617,
      "ĠMem": 6618,
      "ĠDad": 6619,
      "ĠNHS": 6620,
      "ĠJul": 6621,
      "ĠKh": 6622,
      "Ġblame": 6623,
      "Ġ34": 6624,
      "izes": 6625,
      "Ġstarts": 6626,
      "Ġdevelopments": 6627,
      "appy": 6628,
      "Ġpainting": 6629,
      "ĠEliz": 6630,
      "Ġconnect": 6631,
      "IR": 6632,
      "irts": 6633,
      "ĠMod": 6634,
      "ĠLong": 6635,
      "Ġintense": 6636,
      "place": 6637,
      "Ġflavour": 6638,
      "Ġvisible": 6639,
      "Ġloans": 6640,
      "Ġcollege": 6641,
      "ĠResearch": 6642,
      "inity": 6643,
      "ĠTra": 6644,
      "ĠMount": 6645,
      "ĠFund": 6646,
      "ocol": 6647,
      "Ġscream": 6648,
      "ovak": 6649,
      "Ġeverywhere": 6650,
      "Ġqualities": 6651,
      "Ġnervous": 6652,
      "bal": 6653,
      "incess": 6654,
      "icar": 6655,
      "ĠCur": 6656,
      "Ġprosec": 6657,
      "Ġcheer": 6658,
      "azed": 6659,
      "Ġclassic": 6660,
      "Ġwooden": 6661,
      "Ġdolphin": 6662,
      "Ġil": 6663,
      "Ġdressed": 6664,
      "ĠSun": 6665,
      "ĠMax": 6666,
      "Ġoffences": 6667,
      "Ġtwelve": 6668,
      "ĠChannel": 6669,
      "ĠYes": 6670,
      "Ġdepos": 6671,
      "Ġdistinction": 6672,
      "Ġbrilliant": 6673,
      "mind": 6674,
      "Ġsession": 6675,
      "isure": 6676,
      "Ġthrown": 6677,
      "ste": 6678,
      "ĠAT": 6679,
      "Ġstuck": 6680,
      "olid": 6681,
      "Ġjun": 6682,
      "anges": 6683,
      "Ġregist": 6684,
      "Ġprimitive": 6685,
      "Ġinvestigation": 6686,
      "Ġinvolvement": 6687,
      "Ġshopping": 6688,
      "coh": 6689,
      "nic": 6690,
      "Ġhanging": 6691,
      "Ġplot": 6692,
      "Ġunh": 6693,
      "Ġwaited": 6694,
      "Ġanticip": 6695,
      "Ġaims": 6696,
      "Ġmanufacturing": 6697,
      "oslav": 6698,
      "ĠSquare": 6699,
      "coming": 6700,
      "don": 6701,
      "las": 6702,
      "Ġfitted": 6703,
      "ĠLater": 6704,
      "agger": 6705,
      "Ġhoping": 6706,
      "ĠBrad": 6707,
      "Ġemployed": 6708,
      "Ġdemanded": 6709,
      "Ġcreating": 6710,
      "Ġinnoc": 6711,
      "Ġcriminal": 6712,
      "Ġpupils": 6713,
      "Ġcott": 6714,
      "Ġfier": 6715,
      "Ġhidden": 6716,
      "Ġfrust": 6717,
      "ishops": 6718,
      "Ġcondem": 6719,
      "Ġpounds": 6720,
      "Ġvictims": 6721,
      "ĠCommonwealth": 6722,
      "Ġpartnership": 6723,
      "born": 6724,
      "pread": 6725,
      "then": 6726,
      "Ġlaugh": 6727,
      "uled": 6728,
      "ĠFam": 6729,
      "ago": 6730,
      "Ġlibr": 6731,
      "teenth": 6732,
      "Ġeverybody": 6733,
      "Ġdescription": 6734,
      "Ġmanaging": 6735,
      "Ġvillages": 6736,
      "Ġhyp": 6737,
      "ĠJews": 6738,
      "Ġvehicle": 6739,
      "Ġexpenditure": 6740,
      "EP": 6741,
      "Ġwides": 6742,
      "uters": 6743,
      "ĠAge": 6744,
      "Ġstages": 6745,
      "ĠMuch": 6746,
      "ĠWhit": 6747,
      "lude": 6748,
      "ĠNews": 6749,
      "Ġtaxes": 6750,
      "Ġlimits": 6751,
      "Ġattempted": 6752,
      "ĠServices": 6753,
      "Ġestablishment": 6754,
      "Ġshouted": 6755,
      "Ġromantic": 6756,
      "Ġwake": 6757,
      "ona": 6758,
      "ĠCivil": 6759,
      "riet": 6760,
      "Ġspin": 6761,
      "Ġnewly": 6762,
      "Ġharder": 6763,
      "Ġcountryside": 6764,
      "Ġeleg": 6765,
      "Ġballet": 6766,
      "Ġau": 6767,
      "athered": 6768,
      "Ġho": 6769,
      "ilty": 6770,
      "Ġneat": 6771,
      "ounced": 6772,
      "Ġserving": 6773,
      "ambia": 6774,
      "Ġimagination": 6775,
      "box": 6776,
      "cing": 6777,
      "cles": 6778,
      "reens": 6779,
      "Ġpitch": 6780,
      "leep": 6781,
      "osh": 6782,
      "ivered": 6783,
      "Ġabst": 6784,
      "Ġabuse": 6785,
      "ĠOt": 6786,
      "Ġstudied": 6787,
      "Ġinvolving": 6788,
      "Ġmountains": 6789,
      "Ġconsciousness": 6790,
      "Ġvulner": 6791,
      "Ġglobal": 6792,
      "ĠUlster": 6793,
      "ĠTaylor": 6794,
      "45": 6795,
      "lantic": 6796,
      "rates": 6797,
      "iders": 6798,
      "Ġracing": 6799,
      "uns": 6800,
      "ĠRen": 6801,
      "ivals": 6802,
      "Ġadvoc": 6803,
      "Ġindustries": 6804,
      "umped": 6805,
      "Ġexcite": 6806,
      "Ġassumed": 6807,
      "ĠAnthony": 6808,
      "Ġax": 6809,
      "Ġflag": 6810,
      "Ġchest": 6811,
      "Ġpersonality": 6812,
      "ĠSea": 6813,
      "ĠCarl": 6814,
      "ĠCountry": 6815,
      "Ġrhythm": 6816,
      "Ġdu": 6817,
      "achel": 6818,
      "ĠBishop": 6819,
      "olve": 6820,
      "ĠHard": 6821,
      "iforn": 6822,
      "Ġfees": 6823,
      "ĠStock": 6824,
      "ĠMarsh": 6825,
      "Ġhumour": 6826,
      "Ġhotels": 6827,
      "Ġexciting": 6828,
      "Ġgrave": 6829,
      "ĠNorman": 6830,
      "Ġunexpected": 6831,
      "Ġnodded": 6832,
      "made": 6833,
      "yers": 6834,
      "Ġstamp": 6835,
      "osa": 6836,
      "Ġconstantly": 6837,
      "ĠTrade": 6838,
      "Ġtests": 6839,
      "Ġoccupied": 6840,
      "Ġwidespread": 6841,
      "Ġwore": 6842,
      "Ġfulf": 6843,
      "ĠMont": 6844,
      "abit": 6845,
      "ĠGar": 6846,
      "umin": 6847,
      "Ġplate": 6848,
      "Ġunre": 6849,
      "elled": 6850,
      "Ġheaded": 6851,
      "Ġadding": 6852,
      "aze": 6853,
      "Ġfunny": 6854,
      "Ġarrive": 6855,
      "Ġsilent": 6856,
      "Ġproducers": 6857,
      "Ġintelligence": 6858,
      "Ġcompensation": 6859,
      "Ġliquid": 6860,
      "IA": 6861,
      "met": 6862,
      "Ġbuff": 6863,
      "Ġconcer": 6864,
      "ĠGeoff": 6865,
      "Ġpackage": 6866,
      "Ġpolicemen": 6867,
      "Ġlecture": 6868,
      "ato": 6869,
      "Ġdancing": 6870,
      "Ġgreet": 6871,
      "Ġdistant": 6872,
      "Ġoperate": 6873,
      "Ġprivile": 6874,
      "Ġcausing": 6875,
      "Ġcircle": 6876,
      "Ġattacked": 6877,
      "ĠPalace": 6878,
      "ĠEssex": 6879,
      "Ġsubsequent": 6880,
      "tical": 6881,
      "Ġox": 6882,
      "eded": 6883,
      "icing": 6884,
      "ĠSen": 6885,
      "ĠBrist": 6886,
      "ĠEqu": 6887,
      "ĠDuke": 6888,
      "occ": 6889,
      "enders": 6890,
      "Ġsculpt": 6891,
      "ĠStand": 6892,
      "Ġblow": 6893,
      "Ġending": 6894,
      "ologist": 6895,
      "Ġdeputy": 6896,
      "Ġcompetitive": 6897,
      "Ġoccasions": 6898,
      "Ġcontracts": 6899,
      "ĠFinally": 6900,
      "18": 6901,
      "Ġbits": 6902,
      "Ġfolk": 6903,
      "ĠAri": 6904,
      "ĠMuseum": 6905,
      "Ġneut": 6906,
      "ubs": 6907,
      "Ġtwent": 6908,
      "angle": 6909,
      "Ġflood": 6910,
      "Ġcaf": 6911,
      "Ġloan": 6912,
      "Ġoccasionally": 6913,
      "Ġaltogether": 6914,
      "ĠElizabeth": 6915,
      "urse": 6916,
      "ĠWomen": 6917,
      "Ġadapt": 6918,
      "Ġ250": 6919,
      "Ġfarming": 6920,
      "Ġeastern": 6921,
      "Ġ1975": 6922,
      "Ġsites": 6923,
      "Ġintervention": 6924,
      "Ġexperiences": 6925,
      "Ġpatterns": 6926,
      "ĠHolly": 6927,
      "ĠCaliforn": 6928,
      "14": 6929,
      "II": 6930,
      "ij": 6931,
      "Ġcod": 6932,
      "Ġcatholic": 6933,
      "othe": 6934,
      "igration": 6935,
      "cely": 6936,
      "oln": 6937,
      "ĠJon": 6938,
      "Ġroll": 6939,
      "Ġreturning": 6940,
      "Ġtalent": 6941,
      "Ġirre": 6942,
      "rating": 6943,
      "Ġpill": 6944,
      "esh": 6945,
      "Ġmuseum": 6946,
      "struct": 6947,
      "ĠMur": 6948,
      "ĠFe": 6949,
      "ĠFra": 6950,
      "ĠDoug": 6951,
      "Ġchose": 6952,
      "Ġalleg": 6953,
      "Ġclient": 6954,
      "rav": 6955,
      "Ġgrain": 6956,
      "formation": 6957,
      "ĠBridge": 6958,
      "Ġinvolves": 6959,
      "Ġbureaucr": 6960,
      "Ġoverwhel": 6961,
      "Ġilleg": 6962,
      "sen": 6963,
      "uk": 6964,
      "Ġfederal": 6965,
      "lease": 6966,
      "opher": 6967,
      "umes": 6968,
      "plus": 6969,
      "ordon": 6970,
      "Ġbacked": 6971,
      "Ġdecades": 6972,
      "Ġputs": 6973,
      "Ġcorrid": 6974,
      "Ġvisits": 6975,
      "Ġvalley": 6976,
      "ĠAdd": 6977,
      "Ġrelevant": 6978,
      "Ġinjured": 6979,
      "Ġanxiety": 6980,
      "Ġstupid": 6981,
      "Ġwal": 6982,
      "ĠDid": 6983,
      "ĠRog": 6984,
      "Ġsaved": 6985,
      "Ġsole": 6986,
      "Ġapproval": 6987,
      "ĠWithout": 6988,
      "Ġdivor": 6989,
      "Ġdarkness": 6990,
      "Ġsettle": 6991,
      "Ġdefinition": 6992,
      "Ġbedrooms": 6993,
      "Ġprecisely": 6994,
      "GE": 6995,
      "ped": 6996,
      "van": 6997,
      "Ġlots": 6998,
      "ĠCro": 6999,
      "ĠBath": 7000,
      "ĠLife": 7001,
      "Ġmonitor": 7002,
      "Ġvisiting": 7003,
      "Ġlanding": 7004,
      "oubted": 7005,
      "Ġraising": 7006,
      "Ġ1922": 7007,
      "Ġspiritual": 7008,
      "Ġtravelling": 7009,
      "ĠGazzer": 7010,
      "iences": 7011,
      "Ġtension": 7012,
      "itter": 7013,
      "Ġtoler": 7014,
      "Ġinse": 7015,
      "ĠCrown": 7016,
      "agn": 7017,
      "Ġcompound": 7018,
      "Ġdesk": 7019,
      "Ġextension": 7020,
      "Ġcrossed": 7021,
      "ĠEngels": 7022,
      "ĠGuard": 7023,
      "ĠAnglo": 7024,
      "nel": 7025,
      "Ġduties": 7026,
      "ĠPublic": 7027,
      "Ġoutstanding": 7028,
      "inds": 7029,
      "Ġexport": 7030,
      "Ġdirected": 7031,
      "Ġemployers": 7032,
      "Ġentrance": 7033,
      "Ġplatform": 7034,
      "mpt": 7035,
      "rous": 7036,
      "any": 7037,
      "Ġlux": 7038,
      "ĠEconom": 7039,
      "ĠThrough": 7040,
      "phy": 7041,
      "Ġextract": 7042,
      "Ġdisturb": 7043,
      "Ġforecast": 7044,
      "Ġjudges": 7045,
      "Ġmotiv": 7046,
      "Ġindicated": 7047,
      "Ġdeliver": 7048,
      "aisley": 7049,
      "ois": 7050,
      "tax": 7051,
      "Ġcock": 7052,
      "Ġpunch": 7053,
      "Ġprote": 7054,
      "ĠFather": 7055,
      "umber": 7056,
      "Ġclin": 7057,
      "Ġrecover": 7058,
      "Ġguilty": 7059,
      "ependent": 7060,
      "Ġsensible": 7061,
      "Ġ1945": 7062,
      "Ġdestroyed": 7063,
      "Ġspectacular": 7064,
      "ĠRoberts": 7065,
      "gers": 7066,
      "yr": 7067,
      "Ġfold": 7068,
      "Ġfaster": 7069,
      "icide": 7070,
      "ĠCertain": 7071,
      "Ġaren": 7072,
      "ela": 7073,
      "aval": 7074,
      "Ġcourage": 7075,
      "Ġperspective": 7076,
      "Ġboots": 7077,
      "ĠLiber": 7078,
      "Ġalongside": 7079,
      "Ġcharacteristic": 7080,
      "ĠLawson": 7081,
      "ĠEarth": 7082,
      "Ġbathroom": 7083,
      "ĠDublin": 7084,
      "ĠBristol": 7085,
      "Ġvice": 7086,
      "ĠUs": 7087,
      "Ġteen": 7088,
      "Ġphase": 7089,
      "Ġglider": 7090,
      "ĠOrgan": 7091,
      "forced": 7092,
      "ĠChristianity": 7093,
      "Ġsettlement": 7094,
      "Ġabandon": 7095,
      "ĠHungary": 7096,
      "ĠChelsea": 7097,
      "IG": 7098,
      "hour": 7099,
      "Ġnom": 7100,
      "ĠSud": 7101,
      "ĠAD": 7102,
      "ĠNick": 7103,
      "ĠNaz": 7104,
      "Ġkilling": 7105,
      "ĠBrig": 7106,
      "Ġweakness": 7107,
      "Ġmicro": 7108,
      "Ġterritory": 7109,
      "Ġpit": 7110,
      "ĠCorn": 7111,
      "ĠBroad": 7112,
      "Ġanger": 7113,
      "Ġexists": 7114,
      "Ġcoinc": 7115,
      "Ġpractices": 7116,
      "Ġstead": 7117,
      "Ġfalls": 7118,
      "ĠZambia": 7119,
      "ĠGloria": 7120,
      "Ġagricultural": 7121,
      "ĠClarke": 7122,
      "Do": 7123,
      "five": 7124,
      "Ġtur": 7125,
      "Ġow": 7126,
      "Ġmurd": 7127,
      "Ġdread": 7128,
      "icism": 7129,
      "Ġnut": 7130,
      "Ġease": 7131,
      "ĠMel": 7132,
      "Ġdeals": 7133,
      "Ġchore": 7134,
      "Ġattrib": 7135,
      "Ġ37": 7136,
      "Ġperformed": 7137,
      "ĠNeil": 7138,
      "Ġholes": 7139,
      "Ġruling": 7140,
      "Ġoccasional": 7141,
      "Ġconcentration": 7142,
      "Ġinterpretation": 7143,
      "ĠTown": 7144,
      "Ġcomments": 7145,
      "Ġcha": 7146,
      "Ġefficiency": 7147,
      "Ġassistance": 7148,
      "herent": 7149,
      "inny": 7150,
      "Ġsurvival": 7151,
      "ĠMoreover": 7152,
      "Ġpersuade": 7153,
      "Ġcomparison": 7154,
      "Ġdominant": 7155,
      "Ġvehicles": 7156,
      "chestra": 7157,
      "iat": 7158,
      "no": 7159,
      "you": 7160,
      "Ġcraft": 7161,
      "Ġhal": 7162,
      "ulance": 7163,
      "ĠPaisley": 7164,
      "Ġincomp": 7165,
      "Ġstring": 7166,
      "Ġexperts": 7167,
      "ĠChristopher": 7168,
      "Ġ1977": 7169,
      "Ġstronger": 7170,
      "Ġprincipal": 7171,
      "Ġselected": 7172,
      "Ġguarantee": 7173,
      "Ġcode": 7174,
      "Ġfab": 7175,
      "Ġmild": 7176,
      "Ġlamb": 7177,
      "Ġreverse": 7178,
      "igan": 7179,
      "ĠBraz": 7180,
      "Ġchart": 7181,
      "Ġworker": 7182,
      "Ġpreced": 7183,
      "Ġregulations": 7184,
      "Ġvisual": 7185,
      "Ġrepresentation": 7186,
      "mpire": 7187,
      "Ġpercent": 7188,
      "Ġheadquarters": 7189,
      "Ġexplains": 7190,
      "Ġconcerns": 7191,
      "ĠNothing": 7192,
      "Ġlistening": 7193,
      "Ġreveal": 7194,
      "Ġtendency": 7195,
      "ĠDonald": 7196,
      "Ġsurprisingly": 7197,
      "Ġpromotion": 7198,
      "fin": 7199,
      "Ġcoc": 7200,
      "ĠFR": 7201,
      "elf": 7202,
      "asty": 7203,
      "ĠJoe": 7204,
      "Ġobsc": 7205,
      "Ġmarks": 7206,
      "Ġdescribes": 7207,
      "ĠCastle": 7208,
      "book": 7209,
      "Ġwage": 7210,
      "Ġfate": 7211,
      "irable": 7212,
      "Ġwhilst": 7213,
      "ĠTheatre": 7214,
      "ĠBond": 7215,
      "abil": 7216,
      "Ġintent": 7217,
      "Ġsovere": 7218,
      "Ġcontaining": 7219,
      "ĠUp": 7220,
      "Ġroot": 7221,
      "ĠWexford": 7222,
      "Ġhelps": 7223,
      "Ġpassengers": 7224,
      "Ġtransm": 7225,
      "aimed": 7226,
      "ucking": 7227,
      "Ġuncom": 7228,
      "Ġcatal": 7229,
      "Ġneighbours": 7230,
      "Ġrestaurants": 7231,
      "ville": 7232,
      "Ġscept": 7233,
      "err": 7234,
      "Ġcrown": 7235,
      "Ġhaz": 7236,
      "Ġchap": 7237,
      "Ġintens": 7238,
      "Ġpride": 7239,
      "ĠUnt": 7240,
      "Ġrecip": 7241,
      "ĠYear": 7242,
      "Ġrelatives": 7243,
      "Ġpublication": 7244,
      "Ġears": 7245,
      "Ġcurtain": 7246,
      "Ġpropag": 7247,
      "Ġ1974": 7248,
      "Ġstream": 7249,
      "Ġpainted": 7250,
      "Ġexisted": 7251,
      "Ġlisted": 7252,
      "Ġresear": 7253,
      "Ġcollected": 7254,
      "Ġconsequence": 7255,
      "lit": 7256,
      "Ġtears": 7257,
      "onic": 7258,
      "isive": 7259,
      "Ġhier": 7260,
      "odge": 7261,
      "ĠStaff": 7262,
      "Ġinstinct": 7263,
      "Ġmilit": 7264,
      "Ġcomplicated": 7265,
      "Ġaimed": 7266,
      "Ġfleet": 7267,
      "Ġmanufacturers": 7268,
      "pay": 7269,
      "Ġtasks": 7270,
      "heart": 7271,
      "Ġgear": 7272,
      "irs": 7273,
      "ĠBas": 7274,
      "Ġexceed": 7275,
      "resents": 7276,
      "pered": 7277,
      "Ġalcoh": 7278,
      "Ġsheet": 7279,
      "Ġencl": 7280,
      "Ġservants": 7281,
      "ĠWithin": 7282,
      "Ġvolunte": 7283,
      "Ġcontrad": 7284,
      "Ġdemocratic": 7285,
      "Ġfurniture": 7286,
      "ipping": 7287,
      "Ġtort": 7288,
      "Ġgathered": 7289,
      "Ġheaven": 7290,
      "ĠSk": 7291,
      "ĠWild": 7292,
      "ĠJer": 7293,
      "Ġque": 7294,
      "orship": 7295,
      "tenham": 7296,
      "Ġconcrete": 7297,
      "Ġorganization": 7298,
      "Ġvarieties": 7299,
      "Ġapproached": 7300,
      "ĠHarris": 7301,
      "Ġenterprise": 7302,
      "Ġrestricted": 7303,
      "Ġsucceeded": 7304,
      "Ġaer": 7305,
      "ĠSpr": 7306,
      "ĠHad": 7307,
      "atering": 7308,
      "ieth": 7309,
      "Ġrepresentatives": 7310,
      "Ġexamination": 7311,
      "oslovak": 7312,
      "bn": 7313,
      "uv": 7314,
      "Ġbon": 7315,
      "Ġren": 7316,
      "ĠTor": 7317,
      "see": 7318,
      "ĠRay": 7319,
      "ĠRel": 7320,
      "Ġunknown": 7321,
      "Ġlikes": 7322,
      "Ġdiscl": 7323,
      "Ġguid": 7324,
      "ĠBright": 7325,
      "Ġsinging": 7326,
      "gressive": 7327,
      "Ġimplications": 7328,
      "Ġutter": 7329,
      "Ġsequence": 7330,
      "Ġsterling": 7331,
      "Ġcigaret": 7332,
      "aver": 7333,
      "ĠBud": 7334,
      "Ġvoc": 7335,
      "ĠRight": 7336,
      "ĠYug": 7337,
      "othy": 7338,
      "Ġactor": 7339,
      "Ġspecim": 7340,
      "Ġobjective": 7341,
      "Ġarrangement": 7342,
      "colm": 7343,
      "Ġresidential": 7344,
      "Ġinquiry": 7345,
      "bu": 7346,
      "kers": 7347,
      "eria": 7348,
      "Ġdish": 7349,
      "Ġrevers": 7350,
      "pel": 7351,
      "Ġarts": 7352,
      "Ġpercept": 7353,
      "Ġspark": 7354,
      "Ġrepresents": 7355,
      "ammuz": 7356,
      "ĠMalcolm": 7357,
      "Ġinevitably": 7358,
      "Ġburning": 7359,
      "Ġdismissed": 7360,
      "Ġtank": 7361,
      "Ġsample": 7362,
      "Ġcards": 7363,
      "Ġinject": 7364,
      "Ġnations": 7365,
      "Ġgently": 7366,
      "Ġrugby": 7367,
      "ĠHaw": 7368,
      "thur": 7369,
      "usions": 7370,
      "ĠFil": 7371,
      "ĠFred": 7372,
      "Ġ43": 7373,
      "Ġfarms": 7374,
      "Ġformation": 7375,
      "Ġ189": 7376,
      "Ġsteady": 7377,
      "ĠMcLeish": 7378,
      "UP": 7379,
      "low": 7380,
      "Ġmerc": 7381,
      "Ġdyn": 7382,
      "Ġgross": 7383,
      "Ġstiff": 7384,
      "ĠMike": 7385,
      "ĠHist": 7386,
      "agne": 7387,
      "Ġdozen": 7388,
      "Ġagencies": 7389,
      "Ġprofound": 7390,
      "ĠZu": 7391,
      "Ġamounts": 7392,
      "Ġconcentrate": 7393,
      "Ġfinger": 7394,
      "Ġmirror": 7395,
      "Ġelectricity": 7396,
      "bar": 7397,
      "rors": 7398,
      "Ġain": 7399,
      "Ġboss": 7400,
      "Ġbell": 7401,
      "acious": 7402,
      "imental": 7403,
      "Ġitems": 7404,
      "Ġstated": 7405,
      "ĠHv": 7406,
      "ieval": 7407,
      "enda": 7408,
      "pled": 7409,
      "Ġperception": 7410,
      "Ġteach": 7411,
      "adequ": 7412,
      "ĠStill": 7413,
      "Ġconsc": 7414,
      "conform": 7415,
      "anny": 7416,
      "Ġera": 7417,
      "ĠCzechoslovak": 7418,
      "cked": 7419,
      "Ġinex": 7420,
      "Ġlocked": 7421,
      "ĠMand": 7422,
      "ĠCat": 7423,
      "ĠDick": 7424,
      "ĠOl": 7425,
      "Ġthank": 7426,
      "owned": 7427,
      "Ġpointing": 7428,
      "velopment": 7429,
      "Ġvaried": 7430,
      "Ġidentify": 7431,
      "Ġruled": 7432,
      "Ġprimarily": 7433,
      "Ġhyd": 7434,
      "ĠPatten": 7435,
      "Ġpleasant": 7436,
      "Ġgradu": 7437,
      "Ġrelaxed": 7438,
      "Ġbonds": 7439,
      "Ġexcitement": 7440,
      "nie": 7441,
      "Ġtub": 7442,
      "ione": 7443,
      "Ġreaching": 7444,
      "Ġgift": 7445,
      "ĠSan": 7446,
      "ĠBig": 7447,
      "char": 7448,
      "ilton": 7449,
      "riers": 7450,
      "unting": 7451,
      "Ġalien": 7452,
      "Ġmeals": 7453,
      "ĠVi": 7454,
      "Ġsuccessfully": 7455,
      "Ġshortly": 7456,
      "Ġconsideration": 7457,
      "ĠCharlie": 7458,
      "Ġcircuit": 7459,
      "ĠMoran": 7460,
      "Ġrecommended": 7461,
      "Ġneglect": 7462,
      "Now": 7463,
      "crib": 7464,
      "Ġtape": 7465,
      "Ġcul": 7466,
      "ĠBax": 7467,
      "ĠField": 7468,
      "ĠRod": 7469,
      "ĠNob": 7470,
      "Ġjacket": 7471,
      "Ġpubs": 7472,
      "Ġretired": 7473,
      "ĠHoward": 7474,
      "ĠJohnson": 7475,
      "Ġpromote": 7476,
      "ĠConference": 7477,
      "Ġencouraging": 7478,
      "Ġdimin": 7479,
      "called": 7480,
      "Ġoce": 7481,
      "Ġpipe": 7482,
      "alin": 7483,
      "Ġlabor": 7484,
      "agers": 7485,
      "ruption": 7486,
      "Ġtakeover": 7487,
      "Ġexposed": 7488,
      "Ġsuggestion": 7489,
      "ĠAbout": 7490,
      "Ġawareness": 7491,
      "Ġhonest": 7492,
      "Ġdeparture": 7493,
      "Ġdoctr": 7494,
      "Ġcoalition": 7495,
      "Ġfan": 7496,
      "Ġgolf": 7497,
      "unes": 7498,
      "Ġscrew": 7499,
      "Ġthrust": 7500,
      "Ġpolicing": 7501,
      "ĠChristians": 7502,
      "Ġattracted": 7503,
      "Ġbrothers": 7504,
      "Ġprisoners": 7505,
      "Ġparticipation": 7506,
      "Ġadequate": 7507,
      "ĠLeicester": 7508,
      "Ġsophisticated": 7509,
      "ĠBrazil": 7510,
      "ĠZuway": 7511,
      "ĠHvK": 7512,
      "fall": 7513,
      "ias": 7514,
      "ras": 7515,
      "Ġfence": 7516,
      "Ġfix": 7517,
      "inge": 7518,
      "Ġstairs": 7519,
      "ĠCall": 7520,
      "ĠHay": 7521,
      "rive": 7522,
      "Ġbarr": 7523,
      "Ġinformed": 7524,
      "Ġsounded": 7525,
      "ĠMaybe": 7526,
      "Ġobser": 7527,
      "Ġdemanding": 7528,
      "Ġsplend": 7529,
      "Ġconfirm": 7530,
      "Ġjumped": 7531,
      "Ġprosper": 7532,
      "oom": 7533,
      "power": 7534,
      "icity": 7535,
      "acc": 7536,
      "ĠFarm": 7537,
      "Ġalter": 7538,
      "Ġpref": 7539,
      "Ġregions": 7540,
      "Ġ1978": 7541,
      "Ġdesigns": 7542,
      "Ġdevoted": 7543,
      "ĠPatrick": 7544,
      "ĠKeith": 7545,
      "Ġinnov": 7546,
      "ĠWhether": 7547,
      "ĠChildren": 7548,
      "sm": 7549,
      "ora": 7550,
      "Ġlav": 7551,
      "ĠTammuz": 7552,
      "ĠCare": 7553,
      "ĠRon": 7554,
      "oky": 7555,
      "Ġovercome": 7556,
      "ĠUnfortunately": 7557,
      "Ġdiscount": 7558,
      "Ġsecondary": 7559,
      "Ġmoder": 7560,
      "Ġskill": 7561,
      "ĠPrincess": 7562,
      "ĠLords": 7563,
      "ĠPolit": 7564,
      "Ġtournament": 7565,
      "ĠBelfast": 7566,
      "Ġsharply": 7567,
      "Ġconservation": 7568,
      "Ġpriority": 7569,
      "Ġbarely": 7570,
      "LE": 7571,
      "SC": 7572,
      "bits": 7573,
      "Ġaston": 7574,
      "Ġom": 7575,
      "Ġcore": 7576,
      "ĠApart": 7577,
      "ĠDec": 7578,
      "Ġcompos": 7579,
      "Ġquoted": 7580,
      "Ġpubl": 7581,
      "Ġ48": 7582,
      "tenance": 7583,
      "Ġguess": 7584,
      "Ġacceptable": 7585,
      "Ġtonight": 7586,
      "ĠCorporation": 7587,
      "ĠYugoslav": 7588,
      "gment": 7589,
      "Ġcow": 7590,
      "ĠHy": 7591,
      "ĠPost": 7592,
      "Ġproof": 7593,
      "ĠLove": 7594,
      "aux": 7595,
      "Ġpersons": 7596,
      "ĠDavies": 7597,
      "Ġdelivered": 7598,
      "Ġsuperior": 7599,
      "Ġ1920": 7600,
      "Ġconcentrated": 7601,
      "Ġconsumption": 7602,
      "Ġquietly": 7603,
      "Ġconversion": 7604,
      "Ġceiling": 7605,
      "Ġment": 7606,
      "ĠTake": 7607,
      "ĠAS": 7608,
      "usiness": 7609,
      "Ġpregn": 7610,
      "Ġundoubted": 7611,
      "Ġfrequent": 7612,
      "Ġgolden": 7613,
      "Ġcategory": 7614,
      "Ġvulnerable": 7615,
      "lical": 7616,
      "Ġcable": 7617,
      "adian": 7618,
      "ĠST": 7619,
      "Ġclergy": 7620,
      "aren": 7621,
      "Ġwanting": 7622,
      "Ġconcert": 7623,
      "Ġfunding": 7624,
      "Ġpacked": 7625,
      "Ġassume": 7626,
      "ĠLatin": 7627,
      "ĠHollywood": 7628,
      "ĠUntil": 7629,
      "Ġbull": 7630,
      "Ġhills": 7631,
      "ctors": 7632,
      "ĠHamp": 7633,
      "oster": 7634,
      "ĠVan": 7635,
      "elling": 7636,
      "Ġextend": 7637,
      "Ġchildhood": 7638,
      "Ġnumerous": 7639,
      "Ġdivine": 7640,
      "Ġhospitals": 7641,
      "Ġignored": 7642,
      "Ġassessment": 7643,
      "ĠBaxter": 7644,
      "away": 7645,
      "burn": 7646,
      "run": 7647,
      "west": 7648,
      "Ġhes": 7649,
      "abs": 7650,
      "ĠEst": 7651,
      "aping": 7652,
      "Ġinterpre": 7653,
      "exic": 7654,
      "Ġpreparing": 7655,
      "Ġframework": 7656,
      "hill": 7657,
      "ĠTri": 7658,
      "oty": 7659,
      "acter": 7660,
      "ĠHat": 7661,
      "ĠFA": 7662,
      "oyle": 7663,
      "Ġmemories": 7664,
      "Ġsteam": 7665,
      "umbled": 7666,
      "Ġcrops": 7667,
      "aser": 7668,
      "vell": 7669,
      "idd": 7670,
      "Ġimprison": 7671,
      "Ġdrift": 7672,
      "cester": 7673,
      "Ġcurious": 7674,
      "Ġholidays": 7675,
      "Ġcontributions": 7676,
      "ĠDemocratic": 7677,
      "Ġparallel": 7678,
      "rants": 7679,
      "erable": 7680,
      "itated": 7681,
      "Ġtools": 7682,
      "Ġreducing": 7683,
      "ĠMass": 7684,
      "ĠMother": 7685,
      "oping": 7686,
      "ĠElect": 7687,
      "Ġleather": 7688,
      "Ġshell": 7689,
      "Ġgrace": 7690,
      "Ġdecent": 7691,
      "Ġ55": 7692,
      "Ġmemor": 7693,
      "Ġ600": 7694,
      "Ġadds": 7695,
      "Ġfunctions": 7696,
      "Ġsuperb": 7697,
      "Ġdetermination": 7698,
      "Ġstrengthen": 7699,
      "Ġessentially": 7700,
      "Ġachievement": 7701,
      "Ġjudgement": 7702,
      "Ġgesture": 7703,
      "ca": 7704,
      "lock": 7705,
      "Ġfisher": 7706,
      "orse": 7707,
      "ĠCook": 7708,
      "Ġkids": 7709,
      "Ġlips": 7710,
      "Ġsomebody": 7711,
      "Ġelim": 7712,
      "ĠIsl": 7713,
      "Ġrisks": 7714,
      "Ġsituations": 7715,
      "Ġoptions": 7716,
      "Ġpermission": 7717,
      "Ġconducted": 7718,
      "Ġaccurate": 7719,
      "bec": 7720,
      "itarian": 7721,
      "Ġfed": 7722,
      "ĠChem": 7723,
      "ifting": 7724,
      "unate": 7725,
      "aks": 7726,
      "Ġcrash": 7727,
      "Ġfuneral": 7728,
      "Ġdispos": 7729,
      "Ġacquis": 7730,
      "ĠPalest": 7731,
      "ĠJacob": 7732,
      "ĠLouis": 7733,
      "case": 7734,
      "Ġsons": 7735,
      "Ġcooking": 7736,
      "Ġmap": 7737,
      "ĠMexic": 7738,
      "Ġyard": 7739,
      "illan": 7740,
      "Ġconvey": 7741,
      "ĠPress": 7742,
      "hedral": 7743,
      "Ġembr": 7744,
      "Ġ1976": 7745,
      "Ġillness": 7746,
      "Ġcovering": 7747,
      "ĠMidlands": 7748,
      "Ġpetrol": 7749,
      "Ġsurrounding": 7750,
      "Ġconstitutional": 7751,
      "Ġpreparation": 7752,
      "Ġalbum": 7753,
      "Ġvoices": 7754,
      "boy": 7755,
      "hib": 7756,
      "ĠColl": 7757,
      "third": 7758,
      "encing": 7759,
      "Ġinspir": 7760,
      "Ġinspired": 7761,
      "Ġparad": 7762,
      "Ġapproaches": 7763,
      "Ġholds": 7764,
      "ĠCaptain": 7765,
      "Ġslipped": 7766,
      "ĠAuthority": 7767,
      "Ġmould": 7768,
      "ĠRoss": 7769,
      "necess": 7770,
      "Ġ42": 7771,
      "Ġoccurs": 7772,
      "Ġairport": 7773,
      "Ġmedieval": 7774,
      "Ġperformances": 7775,
      "ĠIII": 7776,
      "Ġbands": 7777,
      "Ġbored": 7778,
      "Ġpond": 7779,
      "Ġpushing": 7780,
      "Ġchocol": 7781,
      "Ġinvasion": 7782,
      "Ġregret": 7783,
      "Ġexpense": 7784,
      "Ġstudio": 7785,
      "Ġelectoral": 7786,
      "Ġdeclined": 7787,
      "ikov": 7788,
      "Ġcomplained": 7789,
      "Ġfifteen": 7790,
      "Ġbulk": 7791,
      "swered": 7792,
      "ĠCalifornia": 7793,
      "Ġsed": 7794,
      "Ġreception": 7795,
      "ĠTH": 7796,
      "Ġanswered": 7797,
      "ateur": 7798,
      "ĠFoot": 7799,
      "Ġsake": 7800,
      "Ġdisag": 7801,
      "erences": 7802,
      "assy": 7803,
      "igned": 7804,
      "ĠStar": 7805,
      "Ġsmart": 7806,
      "Ġfounded": 7807,
      "Ġprominent": 7808,
      "Ġtesting": 7809,
      "Ġprepare": 7810,
      "ĠStewart": 7811,
      "ĠSmall": 7812,
      "Ġtemporary": 7813,
      "Ġviolent": 7814,
      "ĠJackson": 7815,
      "Ġnegative": 7816,
      "Ġadults": 7817,
      "Ġlaughing": 7818,
      "Ġconverted": 7819,
      "Ġinstrument": 7820,
      "Ġempire": 7821,
      "Ġcomprehensive": 7822,
      "final": 7823,
      "inth": 7824,
      "athetic": 7825,
      "anz": 7826,
      "Ġdamp": 7827,
      "ĠBaker": 7828,
      "Ġasleep": 7829,
      "quest": 7830,
      "Ġtrous": 7831,
      "Ġimpressed": 7832,
      "Ġfarmer": 7833,
      "Ġpreserved": 7834,
      "Ġlocation": 7835,
      "Ġmaintenance": 7836,
      "onym": 7837,
      "Ġrepresentative": 7838,
      "Ġcreative": 7839,
      "Ġsoftware": 7840,
      "Ġdepartments": 7841,
      "ĠTransport": 7842,
      "Ġlibrary": 7843,
      "71": 7844,
      "Ġtended": 7845,
      "Ġpor": 7846,
      "ĠBow": 7847,
      "ĠFair": 7848,
      "Ġgenerous": 7849,
      "Ġexpectations": 7850,
      "ĠCarol": 7851,
      "Ġclimb": 7852,
      "ĠMarket": 7853,
      "Ġargues": 7854,
      "Ġfeeding": 7855,
      "Ġdesperate": 7856,
      "ĠAlexander": 7857,
      "Ġrefugees": 7858,
      "Ġdiscipline": 7859,
      "ĠStephen": 7860,
      "gal": 7861,
      "ador": 7862,
      "advant": 7863,
      "irk": 7864,
      "keeper": 7865,
      "ĠPA": 7866,
      "Ġministry": 7867,
      "Ġevalu": 7868,
      "Ġcharity": 7869,
      "Ġpressures": 7870,
      "Ġdemonstrated": 7871,
      "Ġtackle": 7872,
      "Ġprocedures": 7873,
      "Ġpublishing": 7874,
      "minded": 7875,
      "Ġabstract": 7876,
      "bishop": 7877,
      "east": 7878,
      "wo": 7879,
      "Ġbishops": 7880,
      "atri": 7881,
      "Ġforwards": 7882,
      "celer": 7883,
      "ĠMu": 7884,
      "ĠHans": 7885,
      "ĠWay": 7886,
      "odox": 7887,
      "ĠGordon": 7888,
      "asted": 7889,
      "ensus": 7890,
      "ĠAsian": 7891,
      "ĠWhatever": 7892,
      "Ġ44": 7893,
      "Ġrestr": 7894,
      "Ġstepped": 7895,
      "Ġvoted": 7896,
      "ĠSecurity": 7897,
      "Ġremarked": 7898,
      "ĠJean": 7899,
      "Ġscholars": 7900,
      "Where": 7901,
      "Ġtries": 7902,
      "Ġaest": 7903,
      "Ġtheore": 7904,
      "Ġcabinet": 7905,
      "Ġfer": 7906,
      "ĠCas": 7907,
      "ĠHes": 7908,
      "ĠElean": 7909,
      "play": 7910,
      "Ġ39": 7911,
      "Ġminim": 7912,
      "ĠArthur": 7913,
      "Ġreturns": 7914,
      "Ġapproved": 7915,
      "Ġabsor": 7916,
      "Ġcomplaints": 7917,
      "Ġcoverage": 7918,
      "Ġcollabor": 7919,
      "Ġsleeping": 7920,
      "87": 7921,
      "aire": 7922,
      "do": 7923,
      "nut": 7924,
      "inger": 7925,
      "rogen": 7926,
      "ĠPage": 7927,
      "ĠLook": 7928,
      "ĠLane": 7929,
      "ĠRom": 7930,
      "ĠRef": 7931,
      "assion": 7932,
      "Ġconsent": 7933,
      "Ġrelie": 7934,
      "Ġconfusion": 7935,
      "ĠIndies": 7936,
      "Ġobjectives": 7937,
      "Ġproduces": 7938,
      "ĠOthers": 7939,
      "ĠEmily": 7940,
      "Ġstretch": 7941,
      "ĠNicholas": 7942,
      "cott": 7943,
      "vention": 7944,
      "Ġtong": 7945,
      "Ġbrave": 7946,
      "Ġmal": 7947,
      "otton": 7948,
      "ĠGal": 7949,
      "Ġleisure": 7950,
      "ĠVer": 7951,
      "Ġevil": 7952,
      "Ġsupporting": 7953,
      "Ġorganiz": 7954,
      "Ġpressed": 7955,
      "Ġkeeps": 7956,
      "ĠDavis": 7957,
      "Ġconviction": 7958,
      "ĠGlou": 7959,
      "Ġcollaps": 7960,
      "Ġemotion": 7961,
      "ĠVictoria": 7962,
      "Ġsurrounded": 7963,
      "Ġdisappointed": 7964,
      "Ġawarded": 7965,
      "ĠEleanor": 7966,
      "rell": 7967,
      "Ġwand": 7968,
      "Ġinadequ": 7969,
      "Ġlob": 7970,
      "Ġhence": 7971,
      "ĠHa": 7972,
      "ulph": 7973,
      "ĠPear": 7974,
      "ĠEmpire": 7975,
      "Ġweren": 7976,
      "acking": 7977,
      "Ġmini": 7978,
      "Ġconcluded": 7979,
      "Ġinfant": 7980,
      "iversary": 7981,
      "Ġ1940": 7982,
      "Ġpersuaded": 7983,
      "Ġsummit": 7984,
      "piece": 7985,
      "ĠDouglas": 7986,
      "As": 7987,
      "SP": 7988,
      "rum": 7989,
      "Ġtap": 7990,
      "Ġsending": 7991,
      "Ġwives": 7992,
      "Ġfib": 7993,
      "ĠHosp": 7994,
      "Ġshed": 7995,
      "ĠThames": 7996,
      "ĠKenn": 7997,
      "Ġpoison": 7998,
      "Ġcharacteristics": 7999,
      "addy": 8000,
      "Ġfemin": 8001,
      "Ġconstituency": 8002,
      "Ġpublisher": 8003,
      "iper": 8004,
      "lb": 8005,
      "enger": 8006,
      "Ġmoon": 8007,
      "ĠBay": 8008,
      "ola": 8009,
      "Ġraces": 8010,
      "ĠFestival": 8011,
      "Ġintr": 8012,
      "Ġroles": 8013,
      "ressing": 8014,
      "Ġanybody": 8015,
      "oebe": 8016,
      "Ġsuspended": 8017,
      "Ġarchitecture": 8018,
      "Ġconservative": 8019,
      "Ġagriculture": 8020,
      "foot": 8021,
      "po": 8022,
      "iner": 8023,
      "Ġdign": 8024,
      "level": 8025,
      "ĠCirc": 8026,
      "anted": 8027,
      "rapped": 8028,
      "ĠWhich": 8029,
      "Ġnevertheless": 8030,
      "Ġsuccessive": 8031,
      "ĠBlue": 8032,
      "Ġurged": 8033,
      "Ġroutes": 8034,
      "Ġhistoric": 8035,
      "ĠOfficer": 8036,
      "ĠZuwaya": 8037,
      "half": 8038,
      "pes": 8039,
      "inery": 8040,
      "Ġsixt": 8041,
      "llers": 8042,
      "ĠTable": 8043,
      "ĠOper": 8044,
      "inder": 8045,
      "erent": 8046,
      "ucks": 8047,
      "Ġgraph": 8048,
      "Ġknee": 8049,
      "Ġrecall": 8050,
      "ailing": 8051,
      "Ġaccord": 8052,
      "Ġdiscovery": 8053,
      "Ġcoloured": 8054,
      "Ġcompete": 8055,
      "ĠPlan": 8056,
      "Ġconnected": 8057,
      "ĠBrowning": 8058,
      "ĠHolland": 8059,
      "Ġretained": 8060,
      "Ġreminded": 8061,
      "Ġphotographs": 8062,
      "ĠCertainly": 8063,
      "13": 8064,
      "16": 8065,
      "lar": 8066,
      "mar": 8067,
      "Ġlone": 8068,
      "acon": 8069,
      "ĠSher": 8070,
      "changed": 8071,
      "Ġnotably": 8072,
      "Ġgrate": 8073,
      "Ġflesh": 8074,
      "Ġacceler": 8075,
      "Ġrealized": 8076,
      "Ġpossession": 8077,
      "Ġwinners": 8078,
      "ĠPhoebe": 8079,
      "Ġradi": 8080,
      "Ġjoining": 8081,
      "Ġawful": 8082,
      "Ġessence": 8083,
      "castle": 8084,
      "Ġchemistry": 8085,
      "Ġingred": 8086,
      "Ġcompromise": 8087,
      "Ġtin": 8088,
      "Ġsorts": 8089,
      "ĠSever": 8090,
      "ammed": 8091,
      "Ġstability": 8092,
      "ifer": 8093,
      "ĠEM": 8094,
      "Ġvague": 8095,
      "Ġwholly": 8096,
      "ouses": 8097,
      "Ġcler": 8098,
      "Ġdisadvant": 8099,
      "Ġvalid": 8100,
      "Ġvoting": 8101,
      "Ġdoubts": 8102,
      "ĠColonel": 8103,
      "ERS": 8104,
      "Ġtouched": 8105,
      "Ġdestruction": 8106,
      "Ġjunior": 8107,
      "host": 8108,
      "Ġtent": 8109,
      "Ġfavoured": 8110,
      "igs": 8111,
      "Ġstones": 8112,
      "ĠBack": 8113,
      "ĠBru": 8114,
      "Ġhabits": 8115,
      "ĠGiven": 8116,
      "ĠDaily": 8117,
      "Ġsauce": 8118,
      "Ġarbit": 8119,
      "Ġagenda": 8120,
      "ĠInvest": 8121,
      "irect": 8122,
      "Ġknife": 8123,
      "Ġpoems": 8124,
      "airman": 8125,
      "Ġsupplement": 8126,
      "Ġelabor": 8127,
      "Ġdivisions": 8128,
      "Ġimproving": 8129,
      "Ġsympathy": 8130,
      "ĠHelen": 8131,
      "Ġpaintings": 8132,
      "Ġsubsequently": 8133,
      "ĠDevon": 8134,
      "Ġinitiative": 8135,
      "cut": 8136,
      "overs": 8137,
      "Ġtied": 8138,
      "Ġpul": 8139,
      "Ġdull": 8140,
      "rose": 8141,
      "ĠSut": 8142,
      "ĠAld": 8143,
      "ĠHal": 8144,
      "orders": 8145,
      "Ġpriest": 8146,
      "Ġnights": 8147,
      "Ġexplicit": 8148,
      "Ġtested": 8149,
      "Ġrisen": 8150,
      "Ġdrinks": 8151,
      "going": 8152,
      "Ġtonnes": 8153,
      "ĠHold": 8154,
      "ifully": 8155,
      "ĠEight": 8156,
      "Ġshapes": 8157,
      "Ġleague": 8158,
      "ummer": 8159,
      "Ġkil": 8160,
      "Ġspare": 8161,
      "Ġconfined": 8162,
      "Ġconfront": 8163,
      "clock": 8164,
      "Ġsixth": 8165,
      "Ġlearnt": 8166,
      "Ġfriendship": 8167,
      "Ġburden": 8168,
      "Ġdeny": 8169,
      "Ġportra": 8170,
      "ĠJeff": 8171,
      "Ġretirement": 8172,
      "jud": 8173,
      "atoes": 8174,
      "Ġcattle": 8175,
      "itzer": 8176,
      "Ġchron": 8177,
      "arded": 8178,
      "ucked": 8179,
      "ĠChic": 8180,
      "Ġgrin": 8181,
      "Ġdiscrim": 8182,
      "Ġweekly": 8183,
      "ĠAtt": 8184,
      "ĠAtlantic": 8185,
      "Ġproport": 8186,
      "Ġpromises": 8187,
      "Ġcultiv": 8188,
      "Ġmagic": 8189,
      "Ġdocuments": 8190,
      "Ġdeliberately": 8191
    },
    "merges": [
      [
        "Ġ",
        "t"
      ],
      [
        "h",
        "e"
      ],
      [
        "Ġ",
        "a"
      ],
      [
        "i",
        "n"
      ],
      [
        "Ġt",
        "he"
      ],
      [
        "r",
        "e"
      ],
      [
        "Ġ",
        "o"
      ],
      [
        "Ġ",
        "s"
      ],
      [
        "Ġ",
        "w"
      ],
      [
        "e",
        "r"
      ],
      [
        "o",
        "n"
      ],
      [
        "e",
        "n"
      ],
      [
        "Ġ",
        "b"
      ],
      [
        "a",
        "t"
      ],
      [
        "Ġ",
        "c"
      ],
      [
        "i",
        "s"
      ],
      [
        "i",
        "t"
      ],
      [
        "n",
        "d"
      ],
      [
        "Ġ",
        "f"
      ],
      [
        "e",
        "d"
      ],
      [
        "Ġ",
        "p"
      ],
      [
        "Ġo",
        "f"
      ],
      [
        "o",
        "r"
      ],
      [
        "e",
        "s"
      ],
      [
        "o",
        "u"
      ],
      [
        "in",
        "g"
      ],
      [
        "a",
        "n"
      ],
      [
        "Ġt",
        "o"
      ],
      [
        "a",
        "r"
      ],
      [
        "Ġ",
        "m"
      ],
      [
        "Ġ",
        "h"
      ],
      [
        "Ġ",
        "in"
      ],
      [
        "a",
        "l"
      ],
      [
        "Ġa",
        "nd"
      ],
      [
        "a",
        "s"
      ],
      [
        "Ġ",
        "d"
      ],
      [
        "i",
        "c"
      ],
      [
        "l",
        "e"
      ],
      [
        "Ġt",
        "h"
      ],
      [
        "o",
        "m"
      ],
      [
        "i",
        "on"
      ],
      [
        "Ġ",
        "n"
      ],
      [
        "Ġ",
        "l"
      ],
      [
        "l",
        "l"
      ],
      [
        "Ġb",
        "e"
      ],
      [
        "en",
        "t"
      ],
      [
        "l",
        "y"
      ],
      [
        "Ġ",
        "e"
      ],
      [
        "s",
        "t"
      ],
      [
        "Ġ",
        "re"
      ],
      [
        "Ġ",
        "T"
      ],
      [
        "v",
        "e"
      ],
      [
        "r",
        "o"
      ],
      [
        "Ġ",
        "g"
      ],
      [
        "u",
        "t"
      ],
      [
        "a",
        "d"
      ],
      [
        "o",
        "t"
      ],
      [
        "i",
        "d"
      ],
      [
        "Ġ",
        "I"
      ],
      [
        "Ġo",
        "n"
      ],
      [
        "a",
        "c"
      ],
      [
        "Ġ",
        "he"
      ],
      [
        "l",
        "d"
      ],
      [
        "s",
        "e"
      ],
      [
        "i",
        "m"
      ],
      [
        "Ġ",
        "is"
      ],
      [
        "Ġf",
        "or"
      ],
      [
        "e",
        "t"
      ],
      [
        "o",
        "w"
      ],
      [
        "a",
        "y"
      ],
      [
        "Ġ",
        "S"
      ],
      [
        "i",
        "r"
      ],
      [
        "Ġw",
        "h"
      ],
      [
        "Ġth",
        "at"
      ],
      [
        "v",
        "er"
      ],
      [
        "i",
        "g"
      ],
      [
        "Ġ",
        "'"
      ],
      [
        "Ġ",
        "A"
      ],
      [
        "Ġ",
        "u"
      ],
      [
        "Ġw",
        "as"
      ],
      [
        "Ġ",
        "it"
      ],
      [
        "u",
        "r"
      ],
      [
        "a",
        "m"
      ],
      [
        "Ġs",
        "t"
      ],
      [
        "c",
        "t"
      ],
      [
        "ĠT",
        "he"
      ],
      [
        "c",
        "e"
      ],
      [
        "it",
        "h"
      ],
      [
        "Ġ",
        "M"
      ],
      [
        "Ġ",
        "C"
      ],
      [
        "Ġ",
        "B"
      ],
      [
        "Ġa",
        "s"
      ],
      [
        "Ġ",
        "y"
      ],
      [
        "Ġw",
        "ith"
      ],
      [
        "t",
        "er"
      ],
      [
        "'",
        "s"
      ],
      [
        "Ġw",
        "e"
      ],
      [
        "at",
        "ion"
      ],
      [
        "c",
        "h"
      ],
      [
        "i",
        "l"
      ],
      [
        "o",
        "l"
      ],
      [
        "Ġa",
        "n"
      ],
      [
        "Ġ",
        "r"
      ],
      [
        "he",
        "r"
      ],
      [
        "Ġ",
        "H"
      ],
      [
        "i",
        "ll"
      ],
      [
        "Ġh",
        "a"
      ],
      [
        "Ġa",
        "t"
      ],
      [
        "Ġc",
        "on"
      ],
      [
        "a",
        "in"
      ],
      [
        "i",
        "f"
      ],
      [
        "Ġ",
        "1"
      ],
      [
        "Ġf",
        "r"
      ],
      [
        "g",
        "e"
      ],
      [
        "Ġd",
        "e"
      ],
      [
        "Ġs",
        "e"
      ],
      [
        "er",
        "s"
      ],
      [
        "h",
        "t"
      ],
      [
        "u",
        "l"
      ],
      [
        "Ġ",
        "W"
      ],
      [
        "k",
        "e"
      ],
      [
        "ou",
        "r"
      ],
      [
        "ou",
        "ld"
      ],
      [
        "Ġ",
        "P"
      ],
      [
        "Ġs",
        "u"
      ],
      [
        "Ġb",
        "y"
      ],
      [
        "Ġp",
        "ro"
      ],
      [
        "Ġn",
        "ot"
      ],
      [
        "is",
        "t"
      ],
      [
        "o",
        "re"
      ],
      [
        "Ġa",
        "re"
      ],
      [
        "p",
        "p"
      ],
      [
        "a",
        "b"
      ],
      [
        "m",
        "ent"
      ],
      [
        "o",
        "d"
      ],
      [
        "es",
        "s"
      ],
      [
        "t",
        "h"
      ],
      [
        "r",
        "i"
      ],
      [
        "Ġe",
        "x"
      ],
      [
        "Ġc",
        "om"
      ],
      [
        "es",
        "t"
      ],
      [
        "a",
        "nd"
      ],
      [
        "Ġo",
        "r"
      ],
      [
        "Ġ",
        "L"
      ],
      [
        "Ġh",
        "is"
      ],
      [
        "Ġn",
        "e"
      ],
      [
        "Ġfr",
        "om"
      ],
      [
        "o",
        "p"
      ],
      [
        "Ġ",
        "E"
      ],
      [
        "Ġh",
        "ad"
      ],
      [
        "Ġha",
        "ve"
      ],
      [
        "ic",
        "h"
      ],
      [
        "Ġs",
        "h"
      ],
      [
        "u",
        "s"
      ],
      [
        "at",
        "e"
      ],
      [
        "an",
        "t"
      ],
      [
        "re",
        "s"
      ],
      [
        "Ġ",
        "-"
      ],
      [
        "ig",
        "ht"
      ],
      [
        "Ġ",
        "G"
      ],
      [
        "Ġ",
        "F"
      ],
      [
        "q",
        "u"
      ],
      [
        "e",
        "m"
      ],
      [
        "o",
        "s"
      ],
      [
        "Ġ",
        "D"
      ],
      [
        "i",
        "ve"
      ],
      [
        "Ġc",
        "h"
      ],
      [
        "ar",
        "t"
      ],
      [
        "p",
        "e"
      ],
      [
        "u",
        "n"
      ],
      [
        "i",
        "es"
      ],
      [
        "Ġ",
        "v"
      ],
      [
        "re",
        "d"
      ],
      [
        "Ġa",
        "l"
      ],
      [
        "ar",
        "d"
      ],
      [
        "Ġwh",
        "ich"
      ],
      [
        "Ġ",
        "R"
      ],
      [
        "o",
        "c"
      ],
      [
        "or",
        "t"
      ],
      [
        "Ġ",
        "le"
      ],
      [
        "Ġy",
        "ou"
      ],
      [
        "ou",
        "g"
      ],
      [
        "it",
        "y"
      ],
      [
        "e",
        "l"
      ],
      [
        "as",
        "t"
      ],
      [
        "Ġ",
        "N"
      ],
      [
        "n",
        "t"
      ],
      [
        "i",
        "e"
      ],
      [
        "u",
        "st"
      ],
      [
        "en",
        "d"
      ],
      [
        "i",
        "v"
      ],
      [
        "om",
        "e"
      ],
      [
        "al",
        "l"
      ],
      [
        "Ġb",
        "ut"
      ],
      [
        "u",
        "m"
      ],
      [
        "a",
        "p"
      ],
      [
        "Ġwe",
        "re"
      ],
      [
        "Ġa",
        "b"
      ],
      [
        "Ġt",
        "r"
      ],
      [
        "ou",
        "t"
      ],
      [
        "Ġw",
        "he"
      ],
      [
        "Ġw",
        "or"
      ],
      [
        "Ġh",
        "as"
      ],
      [
        "Ġg",
        "o"
      ],
      [
        "Ġthe",
        "y"
      ],
      [
        "Ġin",
        "t"
      ],
      [
        "Ġth",
        "is"
      ],
      [
        "o",
        "st"
      ],
      [
        "e",
        "ar"
      ],
      [
        "a",
        "g"
      ],
      [
        "Ġa",
        "ll"
      ],
      [
        "Ġwh",
        "o"
      ],
      [
        "Ġs",
        "a"
      ],
      [
        "ou",
        "s"
      ],
      [
        "Ġp",
        "l"
      ],
      [
        "Ġthe",
        "ir"
      ],
      [
        "i",
        "al"
      ],
      [
        "ac",
        "k"
      ],
      [
        "Ġ",
        "O"
      ],
      [
        "a",
        "k"
      ],
      [
        "o",
        "k"
      ],
      [
        "Ġd",
        "o"
      ],
      [
        "Ġhe",
        "r"
      ],
      [
        "Ġw",
        "ill"
      ],
      [
        ".",
        "'"
      ],
      [
        "Ġm",
        "e"
      ],
      [
        "Ġ1",
        "9"
      ],
      [
        "Ġ",
        "j"
      ],
      [
        "u",
        "re"
      ],
      [
        "on",
        "g"
      ],
      [
        "Ġ",
        "k"
      ],
      [
        "Ġo",
        "ut"
      ],
      [
        "Ġs",
        "o"
      ],
      [
        "t",
        "her"
      ],
      [
        "Ġbe",
        "en"
      ],
      [
        "oug",
        "h"
      ],
      [
        "ou",
        "nd"
      ],
      [
        "id",
        "e"
      ],
      [
        "Ġ",
        "J"
      ],
      [
        "is",
        "h"
      ],
      [
        "Ġon",
        "e"
      ],
      [
        "Ġw",
        "ould"
      ],
      [
        "f",
        "f"
      ],
      [
        "Ġu",
        "p"
      ],
      [
        "Ġu",
        "n"
      ],
      [
        "u",
        "d"
      ],
      [
        "Ġc",
        "an"
      ],
      [
        "al",
        "ly"
      ],
      [
        "Ġa",
        "r"
      ],
      [
        "Ġm",
        "an"
      ],
      [
        "p",
        "t"
      ],
      [
        "ĠI",
        "t"
      ],
      [
        "on",
        "e"
      ],
      [
        "ic",
        "e"
      ],
      [
        "Ġm",
        "ore"
      ],
      [
        "Ġs",
        "he"
      ],
      [
        "ĠH",
        "e"
      ],
      [
        "r",
        "it"
      ],
      [
        "p",
        "l"
      ],
      [
        "Ġc",
        "l"
      ],
      [
        "ac",
        "t"
      ],
      [
        "in",
        "d"
      ],
      [
        "ĠT",
        "h"
      ],
      [
        "a",
        "ge"
      ],
      [
        "Ġa",
        "g"
      ],
      [
        "e",
        "ct"
      ],
      [
        "r",
        "y"
      ],
      [
        "Ġthe",
        "re"
      ],
      [
        "ab",
        "le"
      ],
      [
        "ion",
        "s"
      ],
      [
        "im",
        "e"
      ],
      [
        "a",
        "re"
      ],
      [
        "Ġsa",
        "id"
      ],
      [
        "ĠI",
        "n"
      ],
      [
        "Ġ",
        "im"
      ],
      [
        "Ġl",
        "i"
      ],
      [
        "in",
        "e"
      ],
      [
        "an",
        "ce"
      ],
      [
        "am",
        "e"
      ],
      [
        "Ġp",
        "er"
      ],
      [
        "r",
        "a"
      ],
      [
        "Ġ",
        "en"
      ],
      [
        "Ġcom",
        "p"
      ],
      [
        "ver",
        "y"
      ],
      [
        "o",
        "ok"
      ],
      [
        "ar",
        "y"
      ],
      [
        "Ġcon",
        "t"
      ],
      [
        "Ġp",
        "art"
      ],
      [
        "Ġthe",
        "m"
      ],
      [
        "c",
        "c"
      ],
      [
        "on",
        "d"
      ],
      [
        "0",
        "0"
      ],
      [
        "b",
        "er"
      ],
      [
        "Ġit",
        "s"
      ],
      [
        "en",
        "ce"
      ],
      [
        "o",
        "se"
      ],
      [
        "Ġy",
        "ear"
      ],
      [
        "Ġa",
        "d"
      ],
      [
        "Ġh",
        "im"
      ],
      [
        "'",
        "t"
      ],
      [
        "p",
        "er"
      ],
      [
        "a",
        "ke"
      ],
      [
        "v",
        "en"
      ],
      [
        "at",
        "ed"
      ],
      [
        "Ġab",
        "out"
      ],
      [
        "an",
        "s"
      ],
      [
        "Ġof",
        "f"
      ],
      [
        "ic",
        "al"
      ],
      [
        "Ġn",
        "o"
      ],
      [
        "Ġo",
        "ver"
      ],
      [
        "a",
        "u"
      ],
      [
        "Ġd",
        "is"
      ],
      [
        "e",
        "re"
      ],
      [
        "ac",
        "e"
      ],
      [
        "b",
        "le"
      ],
      [
        "as",
        "s"
      ],
      [
        "Ġth",
        "an"
      ],
      [
        "Ġs",
        "p"
      ],
      [
        "Ġp",
        "r"
      ],
      [
        "Ġf",
        "e"
      ],
      [
        "Ġwhe",
        "n"
      ],
      [
        "w",
        "n"
      ],
      [
        "i",
        "p"
      ],
      [
        "ay",
        "s"
      ],
      [
        "Ġs",
        "ome"
      ],
      [
        "Ġint",
        "o"
      ],
      [
        "or",
        "d"
      ],
      [
        "Ġo",
        "ther"
      ],
      [
        "ow",
        "n"
      ],
      [
        "Ġ",
        "2"
      ],
      [
        "a",
        "v"
      ],
      [
        "Ġbe",
        "c"
      ],
      [
        "Ġ",
        "K"
      ],
      [
        "ĠM",
        "r"
      ],
      [
        "i",
        "re"
      ],
      [
        "u",
        "b"
      ],
      [
        "Ġ",
        "U"
      ],
      [
        "re",
        "e"
      ],
      [
        "Ġt",
        "w"
      ],
      [
        "Ġ",
        "qu"
      ],
      [
        "Ġ",
        "ro"
      ],
      [
        "u",
        "e"
      ],
      [
        "Ġre",
        "s"
      ],
      [
        "Ġp",
        "e"
      ],
      [
        "Ġa",
        "pp"
      ],
      [
        "Ġt",
        "e"
      ],
      [
        "Ġli",
        "ke"
      ],
      [
        "he",
        "d"
      ],
      [
        "Ġu",
        "s"
      ],
      [
        "ar",
        "k"
      ],
      [
        "u",
        "c"
      ],
      [
        "ĠC",
        "h"
      ],
      [
        "e",
        "p"
      ],
      [
        "Ġc",
        "ould"
      ],
      [
        "res",
        "s"
      ],
      [
        "o",
        "g"
      ],
      [
        "Ġg",
        "r"
      ],
      [
        "Ġk",
        "n"
      ],
      [
        "ad",
        "e"
      ],
      [
        "ou",
        "nt"
      ],
      [
        "ul",
        "t"
      ],
      [
        "ig",
        "n"
      ],
      [
        "Ġwor",
        "k"
      ],
      [
        "w",
        "e"
      ],
      [
        "Ġin",
        "c"
      ],
      [
        "Ġon",
        "ly"
      ],
      [
        "Ġt",
        "ime"
      ],
      [
        "Ġf",
        "ir"
      ],
      [
        "t",
        "e"
      ],
      [
        "m",
        "er"
      ],
      [
        "f",
        "ter"
      ],
      [
        "ing",
        "s"
      ],
      [
        "Ġ",
        "if"
      ],
      [
        "Ġan",
        "y"
      ],
      [
        "Ġre",
        "c"
      ],
      [
        "re",
        "at"
      ],
      [
        "it",
        "e"
      ],
      [
        "se",
        "l"
      ],
      [
        "Ġm",
        "y"
      ],
      [
        "ac",
        "h"
      ],
      [
        "ic",
        "k"
      ],
      [
        "Ġne",
        "w"
      ],
      [
        "i",
        "ous"
      ],
      [
        "er",
        "v"
      ],
      [
        "ct",
        "ion"
      ],
      [
        ",",
        "'"
      ],
      [
        "or",
        "m"
      ],
      [
        "n",
        "g"
      ],
      [
        "ĠB",
        "ut"
      ],
      [
        "Ġp",
        "o"
      ],
      [
        "Ġp",
        "ol"
      ],
      [
        "ation",
        "s"
      ],
      [
        "Ġs",
        "c"
      ],
      [
        "a",
        "il"
      ],
      [
        "Ġp",
        "re"
      ],
      [
        "o",
        "y"
      ],
      [
        "Ġwh",
        "at"
      ],
      [
        "s",
        "o"
      ],
      [
        "it",
        "ion"
      ],
      [
        "op",
        "le"
      ],
      [
        "Ġc",
        "o"
      ],
      [
        "o",
        "od"
      ],
      [
        "Ġtw",
        "o"
      ],
      [
        ".",
        "."
      ],
      [
        "nd",
        "er"
      ],
      [
        "i",
        "ld"
      ],
      [
        "en",
        "s"
      ],
      [
        "Ġbe",
        "t"
      ],
      [
        "on",
        "s"
      ],
      [
        "Ġim",
        "p"
      ],
      [
        "Ġc",
        "ent"
      ],
      [
        "m",
        "an"
      ],
      [
        "ĠS",
        "t"
      ],
      [
        "an",
        "g"
      ],
      [
        "r",
        "u"
      ],
      [
        "i",
        "an"
      ],
      [
        "in",
        "t"
      ],
      [
        "in",
        "k"
      ],
      [
        "Ġfir",
        "st"
      ],
      [
        "o",
        "ve"
      ],
      [
        "Ġin",
        "d"
      ],
      [
        "ur",
        "n"
      ],
      [
        "is",
        "e"
      ],
      [
        "l",
        "i"
      ],
      [
        "Ġal",
        "so"
      ],
      [
        "Ġpe",
        "ople"
      ],
      [
        "ve",
        "l"
      ],
      [
        "an",
        "c"
      ],
      [
        "i",
        "le"
      ],
      [
        "Ġa",
        "fter"
      ],
      [
        "at",
        "er"
      ],
      [
        "it",
        "t"
      ],
      [
        "Ġf",
        "l"
      ],
      [
        "or",
        "s"
      ],
      [
        "if",
        "f"
      ],
      [
        "ic",
        "t"
      ],
      [
        "Ġag",
        "ain"
      ],
      [
        "i",
        "a"
      ],
      [
        "or",
        "y"
      ],
      [
        "l",
        "and"
      ],
      [
        "Ġb",
        "ack"
      ],
      [
        "Ġm",
        "ost"
      ],
      [
        "au",
        "se"
      ],
      [
        "Ġ",
        "Y"
      ],
      [
        "n",
        "e"
      ],
      [
        "Ġb",
        "r"
      ],
      [
        "ĠB",
        "rit"
      ],
      [
        "Ġs",
        "pe"
      ],
      [
        "Ġn",
        "ow"
      ],
      [
        "u",
        "ch"
      ],
      [
        "Ġb",
        "l"
      ],
      [
        "Ġu",
        "nder"
      ],
      [
        "Ġat",
        "t"
      ],
      [
        "as",
        "e"
      ],
      [
        "oc",
        "k"
      ],
      [
        "f",
        "ore"
      ],
      [
        "u",
        "ll"
      ],
      [
        "h",
        "ing"
      ],
      [
        "Ġa",
        "m"
      ],
      [
        "Ġd",
        "es"
      ],
      [
        "Ġd",
        "id"
      ],
      [
        "o",
        "v"
      ],
      [
        "u",
        "al"
      ],
      [
        "Ġy",
        "our"
      ],
      [
        "m",
        "s"
      ],
      [
        "Ġre",
        "m"
      ],
      [
        "am",
        "p"
      ],
      [
        "Ġj",
        "ust"
      ],
      [
        "Ġcom",
        "m"
      ],
      [
        "Ġl",
        "ook"
      ],
      [
        "Ġe",
        "ven"
      ],
      [
        "Ġsh",
        "ould"
      ],
      [
        "sel",
        "f"
      ],
      [
        "f",
        "t"
      ],
      [
        "Ġde",
        "c"
      ],
      [
        "Ġh",
        "ow"
      ],
      [
        "Ġth",
        "r"
      ],
      [
        "d",
        "ay"
      ],
      [
        "Ġyear",
        "s"
      ],
      [
        "Ġ",
        "3"
      ],
      [
        "ĠTh",
        "is"
      ],
      [
        "Ġcon",
        "s"
      ],
      [
        "Ġ",
        "very"
      ],
      [
        "oug",
        "ht"
      ],
      [
        "Ġthe",
        "n"
      ],
      [
        "Ġsu",
        "ch"
      ],
      [
        "ation",
        "al"
      ],
      [
        "os",
        "s"
      ],
      [
        "Ġm",
        "ay"
      ],
      [
        "Ġo",
        "wn"
      ],
      [
        "ot",
        "her"
      ],
      [
        "ver",
        "n"
      ],
      [
        "Ġw",
        "ay"
      ],
      [
        "Ġm",
        "ade"
      ],
      [
        "i",
        "ly"
      ],
      [
        "ar",
        "ly"
      ],
      [
        "Ġwhe",
[...]
