{
  "version": "1.0",
  "truncation": null,
  "padding": null,
  "added_tokens": [
    {
      "id": 0,
      "content": "<PAD>",
      "single_word": false,
      "lstrip": false,
      "rstrip": false,
      "normalized": false,
      "special": true
    },
    {
      "id": 1,
      "content": "<UNK>",
      "single_word": false,
      "lstrip": false,
      "rstrip": false,
      "normalized": false,
      "special": true
    },
    {
      "id": 2,
      "content": "<s>",
      "single_word": false,
      "lstrip": false,
      "rstrip": false,
      "normalized": false,
      "special": true
    },
    {
      "id": 3,
      "content": "</s>",
      "single_word": false,
      "lstrip": false,
      "rstrip": false,
      "normalized": false,
      "special": true
    }
  ],
  "normalizer": {
    "type": "NFKC"
  },
  "pre_tokenizer": {
    "type": "ByteLevel",
    "add_prefix_space": true,
    "trim_offsets": true,
    "use_regex": true
  },
  "post_processor": {
    "type": "ByteLevel",
    "add_prefix_space": true,
    "trim_offsets": true,
    "use_regex": true
  },
  "decoder": {
    "type": "ByteLevel",
    "add_prefix_space": true,
    "trim_offsets": true,
    "use_regex": true
  },
  "model": {
    "type": "BPE",
    "dropout": null,
    "unk_token": "[UNK]",
    "continuing_subword_prefix": null,
    "end_of_word_suffix": null,
    "fuse_unk": false,
    "byte_fallback": false,
    "ignore_merges": false,
    "vocab": {
      "<PAD>": 0,
      "<UNK>": 1,
      "<s>": 2,
      "</s>": 3,
      "!": 4,
      "\"": 5,
      "'": 6,
      ",": 7,
      "-": 8,
      ".": 9,
      "0": 10,
      "1": 11,
      "2": 12,
      "3": 13,
      "4": 14,
      "5": 15,
      "6": 16,
      "7": 17,
      "8": 18,
      "9": 19,
      "?": 20,
      "A": 21,
      "B": 22,
      "C": 23,
      "D": 24,
      "E": 25,
      "F": 26,
      "G": 27,
      "H": 28,
      "I": 29,
      "J": 30,
      "K": 31,
      "L": 32,
      "M": 33,
      "N": 34,
      "O": 35,
      "P": 36,
      "Q": 37,
      "R": 38,
      "S": 39,
      "T": 40,
      "U": 41,
      "V": 42,
      "W": 43,
      "X": 44,
      "Y": 45,
      "Z": 46,
      "a": 47,
      "b": 48,
      "c": 49,
      "d": 50,
      "e": 51,
      "f": 52,
      "g": 53,
      "h": 54,
      "i": 55,
      "j": 56,
      "k": 57,
      "l": 58,
      "m": 59,
      "n": 60,
      "o": 61,
      "p": 62,
      "q": 63,
      "r": 64,
      "s": 65,
      "t": 66,
      "u": 67,
      "v": 68,
      "w": 69,
      "x": 70,
      "y": 71,
      "z": 72,
      "Ċ": 73,
      "č": 74,
      "Ġ": 75,
      "Ġt": 76,
      "he": 77,
      "Ġa": 78,
      "in": 79,
      "Ġthe": 80,
      "čĊ": 81,
      "re": 82,
      "Ġo": 83,
      "Ġs": 84,
      "Ġw": 85,
      "er": 86,
      "on": 87,
      "en": 88,
      "Ġb": 89,
      "at": 90,
      "Ġc": 91,
      "is": 92,
      "it": 93,
      "nd": 94,
      "Ġf": 95,
      "ed": 96,
      "Ġp": 97,
      "Ġof": 98,
      "or": 99,
      "es": 100,
      "ou": 101,
      "ing": 102,
      "an": 103,
      "Ġto": 104,
      "ar": 105,
      "Ġm": 106,
      "Ġh": 107,
      "Ġin": 108,
      "al": 109,
      "Ġand": 110,
      "as": 111,
      "Ġd": 112,
      "ic": 113,
      "le": 114,
      "Ġth": 115,
      "om": 116,
      "ion": 117,
      "ĠčĊ": 118,
      "Ġn": 119,
      "Ġl": 120,
      "ll": 121,
      "Ġbe": 122,
      "ent": 123,
      "ly": 124,
      "Ġe": 125,
      "st": 126,
      "Ġre": 127,
      "ĠT": 128,
      "ve": 129,
      "ro": 130,
      "Ġg": 131,
      "ut": 132,
      "ad": 133,
      "ot": 134,
      "id": 135,
      "ĠI": 136,
      "Ġon": 137,
      "ac": 138,
      "Ġhe": 139,
      "ld": 140,
      "se": 141,
      "im": 142,
      "Ġis": 143,
      "Ġfor": 144,
      "et": 145,
      "ow": 146,
      "ay": 147,
      "ĠS": 148,
      "ir": 149,
      "Ġwh": 150,
      "Ġthat": 151,
      "ver": 152,
      "ig": 153,
      "Ġ'": 154,
      "ĠA": 155,
      "Ġu": 156,
      "Ġwas": 157,
      "Ġit": 158,
      "ur": 159,
      "am": 160,
      "Ġst": 161,
      "ct": 162,
      "ĠThe": 163,
      "ce": 164,
      "ith": 165,
      "ĠM": 166,
      "ĠC": 167,
      "ĠB": 168,
      "Ġas": 169,
      "Ġy": 170,
      "Ġwith": 171,
      "ter": 172,
      "'s": 173,
      "Ġwe": 174,
      "ation": 175,
      "ch": 176,
      "il": 177,
      "ol": 178,
      "Ġan": 179,
      "Ġr": 180,
      "her": 181,
      "ĠH": 182,
      "ill": 183,
      "Ġha": 184,
      "Ġat": 185,
      "Ġcon": 186,
      "ain": 187,
      "if": 188,
      "Ġ1": 189,
      "Ġfr": 190,
      "ge": 191,
      "Ġde": 192,
      "Ġse": 193,
      "ers": 194,
      "ht": 195,
      "ul": 196,
      "ĠW": 197,
      "ke": 198,
      "our": 199,
      "ould": 200,
      "ĠP": 201,
      "Ġsu": 202,
      "Ġby": 203,
      "Ġpro": 204,
      "Ġnot": 205,
      "ist": 206,
      "ore": 207,
      "Ġare": 208,
      "pp": 209,
      "ab": 210,
      "ment": 211,
      "od": 212,
      "ess": 213,
      "th": 214,
      "ri": 215,
      "Ġex": 216,
      "Ġcom": 217,
      "est": 218,
      "and": 219,
      "Ġor": 220,
      "ĠL": 221,
      "Ġhis": 222,
      "Ġne": 223,
      "Ġfrom": 224,
      "op": 225,
      "ĠE": 226,
      "Ġhad": 227,
      "Ġhave": 228,
      "ich": 229,
      "Ġsh": 230,
      "us": 231,
      "ate": 232,
      "ant": 233,
      "res": 234,
      "Ġ-": 235,
      "ight": 236,
      "ĠG": 237,
      "ĠF": 238,
      "qu": 239,
      "em": 240,
      "os": 241,
      "ĠD": 242,
      "ive": 243,
      "Ġch": 244,
      "art": 245,
      "pe": 246,
      "un": 247,
      "ies": 248,
      "Ġv": 249,
      "red": 250,
      "Ġal": 251,
      "ard": 252,
      "Ġwhich": 253,
      "ĠR": 254,
      "oc": 255,
      "ort": 256,
      "Ġle": 257,
      "Ġyou": 258,
      "oug": 259,
      "ity": 260,
      "el": 261,
      "ast": 262,
      "ĠN": 263,
      "nt": 264,
      "ie": 265,
      "ust": 266,
      "end": 267,
      "iv": 268,
      "ome": 269,
      "all": 270,
      "Ġbut": 271,
      "um": 272,
      "ap": 273,
      "Ġwere": 274,
      "Ġab": 275,
      "Ġtr": 276,
      "out": 277,
      "Ġwhe": 278,
      "Ġwor": 279,
      "Ġhas": 280,
      "Ġgo": 281,
      "Ġthey": 282,
      "Ġint": 283,
      "Ġthis": 284,
      "ost": 285,
      "ear": 286,
      "ag": 287,
      "Ġall": 288,
      "Ġwho": 289,
      "Ġsa": 290,
      "ous": 291,
      "Ġpl": 292,
      "Ġtheir": 293,
      "ial": 294,
      "ack": 295,
      "ĠO": 296,
      "ak": 297,
      "ok": 298,
      "Ġdo": 299,
      "Ġher": 300,
      "Ġwill": 301,
      ".'": 302,
      "Ġme": 303,
      "Ġ19": 304,
      "Ġj": 305,
      "ure": 306,
      "ong": 307,
      "Ġk": 308,
      "Ġout": 309,
      "Ġso": 310,
      "ther": 311,
      "Ġbeen": 312,
      "ough": 313,
      "ound": 314,
      "ide": 315,
      "ĠJ": 316,
      "ish": 317,
      "Ġone": 318,
      "Ġwould": 319,
      "ff": 320,
      "Ġup": 321,
      "Ġun": 322,
      "ud": 323,
      "Ġcan": 324,
      "ally": 325,
      "Ġar": 326,
      "Ġman": 327,
      "pt": 328,
      "ĠIt": 329,
      "one": 330,
      "ice": 331,
      "Ġmore": 332,
      "Ġshe": 333,
      "ĠHe": 334,
      "rit": 335,
      "pl": 336,
      "Ġcl": 337,
      "act": 338,
      "ind": 339,
      "ĠTh": 340,
      "age": 341,
      "Ġag": 342,
      "ect": 343,
      "ry": 344,
      "Ġthere": 345,
      "able": 346,
      "ions": 347,
      "ime": 348,
      "are": 349,
      "Ġsaid": 350,
      "ĠIn": 351,
      "Ġim": 352,
      "Ġli": 353,
      "ine": 354,
      "ance": 355,
      "ame": 356,
      "Ġper": 357,
      "ra": 358,
      "Ġen": 359,
      "Ġcomp": 360,
      "very": 361,
      "ook": 362,
      "ary": 363,
      "Ġcont": 364,
      "Ġpart": 365,
      "Ġthem": 366,
      "cc": 367,
      "ond": 368,
      "00": 369,
      "ber": 370,
      "Ġits": 371,
      "ence": 372,
      "ose": 373,
      "Ġyear": 374,
      "Ġad": 375,
      "Ġhim": 376,
      "'t": 377,
      "per": 378,
      "ake": 379,
      "ven": 380,
      "ated": 381,
      "Ġabout": 382,
      "ans": 383,
      "Ġoff": 384,
      "ical": 385,
      "Ġno": 386,
      "Ġover": 387,
      "au": 388,
      "Ġdis": 389,
      "ere": 390,
      "ace": 391,
      "ble": 392,
      "ass": 393,
      "Ġthan": 394,
      "Ġsp": 395,
      "Ġpr": 396,
      "Ġfe": 397,
      "Ġwhen": 398,
      "wn": 399,
      "ip": 400,
      "ays": 401,
      "Ġsome": 402,
      "Ġinto": 403,
      "ord": 404,
      "Ġother": 405,
      "own": 406,
      "Ġ2": 407,
      "av": 408,
      "Ġbec": 409,
      "ĠK": 410,
      "ĠMr": 411,
      "ire": 412,
      "ub": 413,
      "ĠU": 414,
      "ree": 415,
      "Ġtw": 416,
      "Ġqu": 417,
      "Ġro": 418,
      "ue": 419,
      "Ġres": 420,
      "Ġpe": 421,
      "Ġapp": 422,
      "Ġte": 423,
      "Ġlike": 424,
      "hed": 425,
      "Ġus": 426,
      "ark": 427,
      "uc": 428,
      "ĠCh": 429,
      "ep": 430,
      "Ġcould": 431,
      "ress": 432,
      "og": 433,
      "Ġgr": 434,
      "Ġkn": 435,
      "ade": 436,
      "ount": 437,
      "ult": 438,
      "ign": 439,
      "Ġwork": 440,
      "we": 441,
      "Ġinc": 442,
      "Ġonly": 443,
      "Ġtime": 444,
      "Ġfir": 445,
      "te": 446,
      "mer": 447,
      "fter": 448,
      "ings": 449,
      "Ġif": 450,
      "Ġany": 451,
      "Ġrec": 452,
      "reat": 453,
      "ite": 454,
      "sel": 455,
      "Ġmy": 456,
      "ach": 457,
      "ick": 458,
      "Ġnew": 459,
      "ious": 460,
      "erv": 461,
      "ction": 462,
      ",'": 463,
      "orm": 464,
      "ng": 465,
      "ĠBut": 466,
      "Ġpo": 467,
      "Ġpol": 468,
      "ations": 469,
      "Ġsc": 470,
      "ail": 471,
      "Ġpre": 472,
      "oy": 473,
      "Ġwhat": 474,
      "so": 475,
      "ition": 476,
      "ople": 477,
      "Ġco": 478,
      "ood": 479,
      "Ġtwo": 480,
      "..": 481,
      "nder": 482,
      "ild": 483,
      "ens": 484,
      "Ġbet": 485,
      "ons": 486,
      "Ġimp": 487,
      "Ġcent": 488,
      "man": 489,
      "ĠSt": 490,
      "ang": 491,
      "ru": 492,
      "ian": 493,
      "int": 494,
      "ink": 495,
      "Ġfirst": 496,
      "ove": 497,
      "Ġind": 498,
      "urn": 499,
      "ise": 500,
      "li": 501,
      "Ġalso": 502,
      "Ġpeople": 503,
      "vel": 504,
      "anc": 505,
      "ile": 506,
      "Ġafter": 507,
      "ater": 508,
      "itt": 509,
      "Ġfl": 510,
      "ors": 511,
      "iff": 512,
      "ict": 513,
      "Ġagain": 514,
      "ia": 515,
      "ory": 516,
      "land": 517,
      "Ġback": 518,
      "Ġmost": 519,
      "ause": 520,
      "ĠY": 521,
      "ne": 522,
      "Ġbr": 523,
      "ĠBrit": 524,
      "Ġspe": 525,
      "Ġnow": 526,
      "uch": 527,
      "Ġbl": 528,
      "Ġunder": 529,
      "Ġatt": 530,
      "ase": 531,
      "ock": 532,
      "fore": 533,
      "ull": 534,
      "hing": 535,
      "Ġam": 536,
      "Ġdes": 537,
      "Ġdid": 538,
      "ov": 539,
      "ual": 540,
      "Ġyour": 541,
      "ms": 542,
      "Ġrem": 543,
      "amp": 544,
      "Ġjust": 545,
      "Ġcomm": 546,
      "Ġlook": 547,
      "Ġeven": 548,
      "Ġshould": 549,
      "self": 550,
      "ft": 551,
      "Ġdec": 552,
      "Ġhow": 553,
      "Ġthr": 554,
      "day": 555,
      "Ġyears": 556,
      "Ġ3": 557,
      "ĠThis": 558,
      "Ġcons": 559,
      "Ġvery": 560,
      "ought": 561,
      "Ġthen": 562,
      "Ġsuch": 563,
      "ational": 564,
      "oss": 565,
      "Ġmay": 566,
      "Ġown": 567,
      "other": 568,
      "vern": 569,
      "Ġway": 570,
      "Ġmade": 571,
      "ily": 572,
      "arly": 573,
      "Ġwhere": 574,
      "Ġlast": 575,
      "ward": 576,
      "Ġdiff": 577,
      "Ġacc": 578,
      "Ġsee": 579,
      "Ġdown": 580,
      "Ġmuch": 581,
      "pect": 582,
      "ĠV": 583,
      "ath": 584,
      "Ġsm": 585,
      "les": 586,
      "Ġget": 587,
      "Ġac": 588,
      "Ġrep": 589,
      "ather": 590,
      "tain": 591,
      "ife": 592,
      "iz": 593,
      "ĠShe": 594,
      "row": 595,
      "Ġrel": 596,
      "air": 597,
      "Ġthrough": 598,
      "tern": 599,
      "igh": 600,
      "Ġlong": 601,
      "iss": 602,
      "form": 603,
      "ning": 604,
      "ew": 605,
      "du": 606,
      "ks": 607,
      "Ġsec": 608,
      "ween": 609,
      "Ġinv": 610,
      "iet": 611,
      "'.": 612,
      "oth": 613,
      "ied": 614,
      "lic": 615,
      "Ġbeing": 616,
      "old": 617,
      "ange": 618,
      "ful": 619,
      "Ġour": 620,
      "Ġcar": 621,
      "Ġwell": 622,
      "way": 623,
      "ĠWe": 624,
      "Ġbetween": 625,
      "Ġbecause": 626,
      "Ġknow": 627,
      "Ġneed": 628,
      "Ġmany": 629,
      "ments": 630,
      "led": 631,
      "ĠAs": 632,
      "Ġsupp": 633,
      "xt": 634,
      "ren": 635,
      "ates": 636,
      "Ġbefore": 637,
      "vers": 638,
      "Ġbu": 639,
      "hes": 640,
      "enc": 641,
      "Ġ198": 642,
      "Ġthese": 643,
      "lect": 644,
      "ob": 645,
      "Ġgood": 646,
      "Ġem": 647,
      "ved": 648,
      "ib": 649,
      "als": 650,
      "Ġend": 651,
      "ible": 652,
      "oll": 653,
      "?'": 654,
      "ents": 655,
      "ting": 656,
      "ities": 657,
      "ower": 658,
      "ener": 659,
      "ĠThere": 660,
      "hen": 661,
      "Ġfin": 662,
      "oup": 663,
      "vernment": 664,
      "ec": 665,
      "Ġmake": 666,
      "Ġob": 667,
      "Ġwant": 668,
      "Ġthose": 669,
      "Ġhand": 670,
      "ĠWh": 671,
      "Ġpub": 672,
      "ative": 673,
      "Ġcount": 674,
      "Ġtoo": 675,
      "Ġmin": 676,
      "ĠThey": 677,
      "ism": 678,
      "Ġsub": 679,
      "omm": 680,
      "ty": 681,
      "ters": 682,
      "Ġstill": 683,
      "aw": 684,
      "gan": 685,
      "ject": 686,
      "Ġact": 687,
      "Ġ4": 688,
      "ouse": 689,
      "Ġbel": 690,
      "ave": 691,
      "ĠAnd": 692,
      "ts": 693,
      "aking": 694,
      "ell": 695,
      "Ġstr": 696,
      "cept": 697,
      "Ġsur": 698,
      "Ġright": 699,
      "Ġevery": 700,
      "ating": 701,
      "ever": 702,
      "ised": 703,
      "Ġsy": 704,
      "ten": 705,
      "Ġfar": 706,
      "Ġmon": 707,
      "Ġev": 708,
      "ident": 709,
      "omet": 710,
      "Ġpres": 711,
      "ph": 712,
      "ank": 713,
      "Ġsl": 714,
      "Ġplay": 715,
      "Ġgreat": 716,
      "oun": 717,
      "Ġthree": 718,
      "ered": 719,
      "Ġ5": 720,
      "Ġset": 721,
      "Ġreg": 722,
      "ince": 723,
      "Ġthink": 724,
      "Ġcour": 725,
      "con": 726,
      "uro": 727,
      "ists": 728,
      "Ġlead": 729,
      "up": 730,
      "Ġseem": 731,
      "ool": 732,
      "Ġke": 733,
      "ern": 734,
      "its": 735,
      "Ġtake": 736,
      "Ġworld": 737,
      "Ġmust": 738,
      "Ġprov": 739,
      "Ġsay": 740,
      "ited": 741,
      "hip": 742,
      "gr": 743,
      "get": 744,
      "Ġent": 745,
      "Ġconf": 746,
      "ax": 747,
      "ittle": 748,
      "ision": 749,
      "ular": 750,
      "Ġpers": 751,
      "ared": 752,
      "lud": 753,
      "Ġagainst": 754,
      "Ġeff": 755,
      "Ġmark": 756,
      "alk": 757,
      "Ġref": 758,
      "gg": 759,
      "Ġconc": 760,
      "cial": 761,
      "Ġwee": 762,
      "Ġday": 763,
      "rib": 764,
      "Ġdef": 765,
      "ness": 766,
      "und": 767,
      "Ġext": 768,
      "ĠUn": 769,
      "ĠEng": 770,
      "Ġsoc": 771,
      "Ġlife": 772,
      "ures": 773,
      "ĠEuro": 774,
      "ific": 775,
      "Ġop": 776,
      "Ġcr": 777,
      "read": 778,
      "Ġserv": 779,
      "000": 780,
      "Ġdisc": 781,
      "Ġexp": 782,
      "Ġcol": 783,
      "cess": 784,
      "Ġold": 785,
      "ĠBritish": 786,
      "Ġfam": 787,
      "meric": 788,
      "Ġcle": 789,
      "Ġass": 790,
      "',": 791,
      "Ġmight": 792,
      "Ġcall": 793,
      "Ġlittle": 794,
      "uring": 795,
      "Ġturn": 796,
      "Ġpolit": 797,
      "ix": 798,
      "Ġput": 799,
      "ives": 800,
      "iew": 801,
      "ĠFr": 802,
      "ually": 803,
      "ices": 804,
      "Ġwar": 805,
      "Ġcompan": 806,
      "ĠEurope": 807,
      "Ġshow": 808,
      "ĠIf": 809,
      "Ġboth": 810,
      "ted": 811,
      "ution": 812,
      "arge": 813,
      "Ġter": 814,
      "ĠLe": 815,
      "Ġsame": 816,
      "ros": 817,
      "ins": 818,
      "ĠAn": 819,
      "ĠAmeric": 820,
      "Ġpoint": 821,
      "ving": 822,
      "Ġform": 823,
      "ves": 824,
      "Ġsomet": 825,
      "ale": 826,
      "Ġnever": 827,
      "Ġsim": 828,
      "Ġdiffere": 829,
      "erest": 830,
      "Ġinst": 831,
      "Ġins": 832,
      "Ġdr": 833,
      "ling": 834,
      "Ġhel": 835,
      "Ġwom": 836,
      "Ġhigh": 837,
      "Ġchild": 838,
      "Ġreal": 839,
      "ways": 840,
      "Ġret": 841,
      "Ġhead": 842,
      "ret": 843,
      "ably": 844,
      "Ġmem": 845,
      "ics": 846,
      "ĠAl": 847,
      "ility": 848,
      "olog": 849,
      "ants": 850,
      "duc": 851,
      "ner": 852,
      "here": 853,
      "Ġgener": 854,
      "ury": 855,
      "velop": 856,
      "Ġ6": 857,
      "Ġfound": 858,
      "imes": 859,
      "Ġmat": 860,
      "Ġanother": 861,
      "Ġph": 862,
      "Ġfact": 863,
      "Ġgl": 864,
      "Ġuse": 865,
      "ished": 866,
      "Ġgovernment": 867,
      "ĠGer": 868,
      "Ġche": 869,
      "Ġdep": 870,
      "...": 871,
      "ĠMar": 872,
      "Ġthought": 873,
      "Ġpartic": 874,
      "ĠFor": 875,
      "Ġloc": 876,
      "Ġbo": 877,
      "ces": 878,
      "Ġhelp": 879,
      "ĠComm": 880,
      "Ġinterest": 881,
      "ug": 882,
      "Ġgroup": 883,
      "ased": 884,
      "Ġcome": 885,
      "aj": 886,
      "Ġbus": 887,
      "Ġdem": 888,
      "ton": 889,
      "Ġinclud": 890,
      "ley": 891,
      "Ġdist": 892,
      "me": 893,
      "less": 894,
      "iness": 895,
      "Ġadd": 896,
      "Ġfew": 897,
      "ying": 898,
      "Ġwrit": 899,
      "Ġsmall": 900,
      "ient": 901,
      "Ġposs": 902,
      "Ġdire": 903,
      "ont": 904,
      "Ġmain": 905,
      "ollow": 906,
      "Ġdoes": 907,
      "Ġinter": 908,
      "Ġfind": 909,
      "Ġless": 910,
      "Ġread": 911,
      "Ġproble": 912,
      "ef": 913,
      "Ġpublic": 914,
      "Ġused": 915,
      "pr": 916,
      "Ġstart": 917,
      "ked": 918,
      "Ġaut": 919,
      "ĠAr": 920,
      "ross": 921,
      "Ġhome": 922,
      "ys": 923,
      "Ġrest": 924,
      "pped": 925,
      "Ġide": 926,
      "Ġdon": 927,
      "Ġdevelop": 928,
      "ason": 929,
      "Ġbelie": 930,
      "ertain": 931,
      "outh": 932,
      "Ġwhile": 933,
      "wards": 934,
      "Ġrun": 935,
      "ondon": 936,
      "Ġleft": 937,
      "ined": 938,
      "Ġpri": 939,
      "nce": 940,
      "Ġplace": 941,
      "oh": 942,
      "Ġdet": 943,
      "Ġsecond": 944,
      "ĠLondon": 945,
      "stem": 946,
      "Ġaway": 947,
      "ried": 948,
      "Ġadv": 949,
      "Ġopen": 950,
      "ĠThat": 951,
      "Ġcame": 952,
      "Ġmarket": 953,
      "Ġbro": 954,
      "Ġeach": 955,
      "alf": 956,
      "Ġnum": 957,
      "Ġgu": 958,
      "Ġfour": 959,
      "Ġweek": 960,
      "der": 961,
      "ric": 962,
      "ĠAt": 963,
      "ody": 964,
      "Ġnext": 965,
      "Ġhard": 966,
      "akes": 967,
      "Ġopp": 968,
      "Ġinf": 969,
      "ided": 970,
      "Ġprodu": 971,
      "ield": 972,
      "Ġgoing": 973,
      "Ġthough": 974,
      "Ġsince": 975,
      "ues": 976,
      "Ġalways": 977,
      "Ġimport": 978,
      "ĠBritain": 979,
      "lish": 980,
      "Ġmonth": 981,
      "Ġstand": 982,
      "aps": 983,
      "Ġfollow": 984,
      "bers": 985,
      "Ġgiv": 986,
      "chool": 987,
      "Ġperson": 988,
      "ĠSc": 989,
      "Ġfeel": 990,
      "ester": 991,
      "Ġmod": 992,
      "conom": 993,
      "Ġwithout": 994,
      "ute": 995,
      "Ġsystem": 996,
      "ural": 997,
      "Ġear": 998,
      "Ġcontin": 999,
      "Ġart": 1000,
      "Ġstud": 1001,
      "ience": 1002,
      "ral": 1003,
      "Ġincre": 1004,
      "Ġchar": 1005,
      "Ġcor": 1006,
      "Ġ7": 1007,
      "Ġed": 1008,
      "ising": 1009,
      "Ġpass": 1010,
      "abour": 1011,
      "Ġbook": 1012,
      "Ġexper": 1013,
      "Ġmet": 1014,
      "Ġunt": 1015,
      "Ġsign": 1016,
      "Ġhere": 1017,
      "ract": 1018,
      "Ġpower": 1019,
      "ines": 1020,
      "ced": 1021,
      "sh": 1022,
      "illion": 1023,
      "Ġcare": 1024,
      "Ġcap": 1025,
      "ention": 1026,
      "Ġfull": 1027,
      "Ġgot": 1028,
      "osed": 1029,
      "Ġnight": 1030,
      "rist": 1031,
      "ajor": 1032,
      "Ġmar": 1033,
      "Ġcur": 1034,
      "Ġexpl": 1035,
      "ained": 1036,
      "ider": 1037,
      "Ġaround": 1038,
      "Ġser": 1039,
      "ĠGerman": 1040,
      "Ġbeh": 1041,
      "Ġfore": 1042,
      "orth": 1043,
      "Ġpolic": 1044,
      "ĠRe": 1045,
      "ĠCl": 1046,
      "Ġhapp": 1047,
      "Ġlarge": 1048,
      "Ġlet": 1049,
      "Ġprof": 1050,
      "Ġrather": 1051,
      "Ġbre": 1052,
      "med": 1053,
      "esterday": 1054,
      "oney": 1055,
      "Ġcountry": 1056,
      "Ġeconom": 1057,
      "Ġbest": 1058,
      "Ġwent": 1059,
      "Ġmen": 1060,
      "ĠHow": 1061,
      "thing": 1062,
      "Ġhouse": 1063,
      "Ġdirect": 1064,
      "ister": 1065,
      "ash": 1066,
      "Ġav": 1067,
      "uss": 1068,
      "aken": 1069,
      "Ġdifferent": 1070,
      "Ġlocal": 1071,
      "az": 1072,
      "ird": 1073,
      "ott": 1074,
      "Ġeffect": 1075,
      "Ġtrans": 1076,
      "aug": 1077,
      "though": 1078,
      "ages": 1079,
      "ged": 1080,
      "ĠYou": 1081,
      "son": 1082,
      "Ġparty": 1083,
      "Ġsomething": 1084,
      "Ġyoung": 1085,
      "ries": 1086,
      "ham": 1087,
      "Ġtook": 1088,
      "rop": 1089,
      "ense": 1090,
      "ccess": 1091,
      "The": 1092,
      "Ġ10": 1093,
      "most": 1094,
      "ically": 1095,
      "Ġocc": 1096,
      "urch": 1097,
      "ature": 1098,
      "Ġyesterday": 1099,
      "Ġwin": 1100,
      "br": 1101,
      "min": 1102,
      "ĠNew": 1103,
      "ently": 1104,
      "Ġsupport": 1105,
      "Ġuntil": 1106,
      "ĠOn": 1107,
      "Ġleg": 1108,
      "Ġstate": 1109,
      "hor": 1110,
      "ired": 1111,
      "Ġvis": 1112,
      "Ġthings": 1113,
      "alth": 1114,
      "ier": 1115,
      "Ġschool": 1116,
      "ains": 1117,
      "Ġcontro": 1118,
      "Ġoften": 1119,
      "osition": 1120,
      "Ġpay": 1121,
      "Ġgive": 1122,
      "Ġcomple": 1123,
      "Ġbig": 1124,
      "Ġresp": 1125,
      "ital": 1126,
      "ork": 1127,
      "ours": 1128,
      "Ġpar": 1129,
      "Ġwater": 1130,
      "ĠWhen": 1131,
      "Ġele": 1132,
      "Ġbusiness": 1133,
      "ĠLabour": 1134,
      "'d": 1135,
      "Ġbuild": 1136,
      "ched": 1137,
      "Ġcourse": 1138,
      "Ġsays": 1139,
      "Ġmeet": 1140,
      "Ġsuccess": 1141,
      "Ġ8": 1142,
      "Ġsw": 1143,
      "Ġair": 1144,
      "Ġcost": 1145,
      "Ġconst": 1146,
      "Ġest": 1147,
      "Ġpop": 1148,
      "Ġel": 1149,
      "Ġview": 1150,
      "Ġhalf": 1151,
      "Ġplan": 1152,
      "Ġsocial": 1153,
      "Ġpolitical": 1154,
      "ĠAll": 1155,
      "iety": 1156,
      "Ġresult": 1157,
      "Ġprop": 1158,
      "Ġmove": 1159,
      "the": 1160,
      "ohn": 1161,
      "icult": 1162,
      "ends": 1163,
      "Ġcre": 1164,
      "Ġpast": 1165,
      "Ġduring": 1166,
      "ately": 1167,
      "aim": 1168,
      "Ġsk": 1169,
      "Ġorgan": 1170,
      "Ġequ": 1171,
      "Ġhimself": 1172,
      "Ġbetter": 1173,
      "ruct": 1174,
      "ither": 1175,
      "uck": 1176,
      "ger": 1177,
      "Ġtold": 1178,
      "Ġlater": 1179,
      "Ġmoney": 1180,
      "Ġeas": 1181,
      "Ġfri": 1182,
      "Ġbecome": 1183,
      "Ġexpect": 1184,
      "side": 1185,
      "atch": 1186,
      "Ġindust": 1187,
      "Ġmus": 1188,
      "ĠJohn": 1189,
      "Ġearly": 1190,
      "ĠChrist": 1191,
      "Ġ18": 1192,
      "Ġcompany": 1193,
      "ars": 1194,
      "ament": 1195,
      "reen": 1196,
      "ards": 1197,
      "aining": 1198,
      "ĠPr": 1199,
      "ready": 1200,
      "ats": 1201,
      "Ġlight": 1202,
      "Ġalmost": 1203,
      "ĠSh": 1204,
      "ived": 1205,
      "Ġenough": 1206,
      "Ġquest": 1207,
      "oot": 1208,
      "ering": 1209,
      "Ġfil": 1210,
      "ians": 1211,
      "Ġseen": 1212,
      "cl": 1213,
      "Ġwithin": 1214,
      "aff": 1215,
      "Ġaff": 1216,
      "Ġdays": 1217,
      "Ġcertain": 1218,
      "Ġland": 1219,
      "Ġ197": 1220,
      "den": 1221,
      "Ġpress": 1222,
      "empt": 1223,
      "by": 1224,
      "Ġfur": 1225,
      "Ġey": 1226,
      "Ġvar": 1227,
      "Ġnumber": 1228,
      "orts": 1229,
      "Ġside": 1230,
      "oint": 1231,
      "ĠWest": 1232,
      "unity": 1233,
      "Ġhop": 1234,
      "Ġroom": 1235,
      "Ġrequ": 1236,
      "ional": 1237,
      "app": 1238,
      "Ġ199": 1239,
      "Ġonce": 1240,
      "ck": 1241,
      "ames": 1242,
      "Ġfamily": 1243,
      "Ġpresent": 1244,
      "Ġkeep": 1245,
      "Ġval": 1246,
      "Ġprom": 1247,
      "Ġstre": 1248,
      "ster": 1249,
      "Ġgiven": 1250,
      "ales": 1251,
      "Ġallow": 1252,
      "Ġalready": 1253,
      "Ġtaken": 1254,
      "Ġleast": 1255,
      "ploy": 1256,
      "Ġreturn": 1257,
      "ĠInd": 1258,
      "Ġround": 1259,
      "Ġmil": 1260,
      "Ġoffic": 1261,
      "Ġimportant": 1262,
      "io": 1263,
      "rap": 1264,
      "Ġword": 1265,
      "Ġcase": 1266,
      "Ġmajor": 1267,
      "Ġrecord": 1268,
      "Ġtop": 1269,
      "elt": 1270,
      "Ġwomen": 1271,
      "Ġinvest": 1272,
      "ned": 1273,
      "ĠEngland": 1274,
      "ets": 1275,
      "'m": 1276,
      "ĠSo": 1277,
      "Ġchildren": 1278,
      "ĠHis": 1279,
      "ĠMrs": 1280,
      "ĠBr": 1281,
      "Ġgrow": 1282,
      "ĠDe": 1283,
      "'ve": 1284,
      "vious": 1285,
      "Ġcalled": 1286,
      "Ġdifficult": 1287,
      "atic": 1288,
      "haps": 1289,
      "gin": 1290,
      "Ġtrad": 1291,
      "ĠOne": 1292,
      "'re": 1293,
      "ĠSe": 1294,
      "Ġ15": 1295,
      "Ġhist": 1296,
      "used": 1297,
      "Ġreally": 1298,
      "Ġcut": 1299,
      "iron": 1300,
      "Ġes": 1301,
      "Ġfive": 1302,
      "ivers": 1303,
      "'ll": 1304,
      "Ġpat": 1305,
      "Ġelect": 1306,
      "Ġmind": 1307,
      "ung": 1308,
      "inc": 1309,
      "ances": 1310,
      "ample": 1311,
      "ened": 1312,
      "lf": 1313,
      "orn": 1314,
      "Ġhum": 1315,
      "Ġshort": 1316,
      "ivid": 1317,
      "selves": 1318,
      "Ġclass": 1319,
      "Ġchang": 1320,
      "Ġoper": 1321,
      "ĠRo": 1322,
      "oub": 1323,
      "arch": 1324,
      "Ġprot": 1325,
      "Ġann": 1326,
      "aid": 1327,
      "arent": 1328,
      "ended": 1329,
      "Ġmov": 1330,
      "Ġkind": 1331,
      "Ġpriv": 1332,
      "Ġappro": 1333,
      "Ġlevel": 1334,
      "hat": 1335,
      "gy": 1336,
      "Ġface": 1337,
      "Ġtre": 1338,
      "Ġdeal": 1339,
      "Ġhowever": 1340,
      "Ġever": 1341,
      "duced": 1342,
      "stand": 1343,
      "Ġtell": 1344,
      "ĠEuropean": 1345,
      "Ġdesc": 1346,
      "Ġty": 1347,
      "ĠPro": 1348,
      "ggest": 1349,
      "rown": 1350,
      "rent": 1351,
      "ency": 1352,
      "ĠAmerican": 1353,
      "ots": 1354,
      "ential": 1355,
      "ĠGod": 1356,
      "Ġsuggest": 1357,
      "ĠGr": 1358,
      "Ġpossible": 1359,
      "ides": 1360,
      "chn": 1361,
      "be": 1362,
      "ls": 1363,
      "Ġinvol": 1364,
      "Ġauthor": 1365,
      "ality": 1366,
      "Ġwind": 1367,
      "Ġiss": 1368,
      "Ġasked": 1369,
      "Ġsimp": 1370,
      "not": 1371,
      "Ġspec": 1372,
      "Ġmanag": 1373,
      "raw": 1374,
      "Ġnothing": 1375,
      "ission": 1376,
      "gu": 1377,
      "Ġlooked": 1378,
      "ford": 1379,
      "aring": 1380,
      "Ġclaim": 1381,
      "Ġwhole": 1382,
      "ĠGo": 1383,
      "itions": 1384,
      "Ġhaving": 1385,
      "Ġproper": 1386,
      "Ġclose": 1387,
      "sp": 1388,
      "ases": 1389,
      "Ġfree": 1390,
      "Ġsix": 1391,
      "Ġpract": 1392,
      "!'": 1393,
      "Ġsing": 1394,
      "Ġchange": 1395,
      "Ġbar": 1396,
      "Ġcrit": 1397,
      "Ġfail": 1398,
      "ĠMan": 1399,
      "Ġmembers": 1400,
      "Ġinfl": 1401,
      "ĠWhat": 1402,
      "urs": 1403,
      "irc": 1404,
      "Ġquite": 1405,
      "Ġfurther": 1406,
      "Ġ9": 1407,
      "que": 1408,
      "Ġamong": 1409,
      "over": 1410,
      "Ġlaw": 1411,
      "Ġsum": 1412,
      "Ġste": 1413,
      "ember": 1414,
      "Ġinform": 1415,
      "ane": 1416,
      "Ġca": 1417,
      "omp": 1418,
      "Ġexample": 1419,
      "Ġspecial": 1420,
      "Ġdri": 1421,
      "iving": 1422,
      "Ġmid": 1423,
      "Ġtoget": 1424,
      "Ġtogether": 1425,
      "Ġfall": 1426,
      "ĠNo": 1427,
      "ories": 1428,
      "idence": 1429,
      "ĠPh": 1430,
      "ounc": 1431,
      "Ġ12": 1432,
      "Ġtele": 1433,
      "Ġsit": 1434,
      "Ġmor": 1435,
      "oice": 1436,
      "Ġyet": 1437,
      "Ġtalk": 1438,
      "rew": 1439,
      "Ġdesign": 1440,
      "Ġable": 1441,
      "ĠBe": 1442,
      "Ġmean": 1443,
      "ming": 1444,
      "ured": 1445,
      "ĠEnglish": 1446,
      "Ġdone": 1447,
      "Ġclear": 1448,
      "ĠQ": 1449,
      "ape": 1450,
      "Ġstrong": 1451,
      "iation": 1452,
      "enn": 1453,
      "Ġrev": 1454,
      "Ġbecame": 1455,
      "It": 1456,
      "Ġfac": 1457,
      "Ġwhether": 1458,
      "Ġsol": 1459,
      "Ġmaking": 1460,
      "Ġtax": 1461,
      "gram": 1462,
      "Ġorder": 1463,
      "Ġmed": 1464,
      "Ġdidn": 1465,
      "att": 1466,
      "ert": 1467,
      "Ġcamp": 1468,
      "ĠLi": 1469,
      "ium": 1470,
      "Ġtowards": 1471,
      "Ġnational": 1472,
      "Ġappear": 1473,
      "ges": 1474,
      "Ġlo": 1475,
      "ĠTo": 1476,
      "hy": 1477,
      "ler": 1478,
      "ending": 1479,
      "ĠTr": 1480,
      "ĠIs": 1481,
      "ex": 1482,
      "Ġteam": 1483,
      "ularly": 1484,
      "Ġalong": 1485,
      "Ġ20": 1486,
      "iod": 1487,
      "ully": 1488,
      "ony": 1489,
      "Ġitself": 1490,
      "Ġhold": 1491,
      "ĠWith": 1492,
      "Ġthing": 1493,
      "ĠUS": 1494,
      "ĠDav": 1495,
      "ison": 1496,
      "Ġthemselves": 1497,
      "Ġwon": 1498,
      "Ġrece": 1499,
      "aper": 1500,
      "ĠSp": 1501,
      "ump": 1502,
      "Ġben": 1503,
      "ailable": 1504,
      "Ġconsider": 1505,
      "Ġmonths": 1506,
      "Ġtimes": 1507,
      "cher": 1508,
      "Ġfelt": 1509,
      "ĠChar": 1510,
      "ternational": 1511,
      "Ġproblem": 1512,
      "Ġground": 1513,
      "Ġaccept": 1514,
      "Ġblack": 1515,
      "iting": 1516,
      "Ġreport": 1517,
      "ĠMin": 1518,
      "ief": 1519,
      "Ġpolice": 1520,
      "Ġwhy": 1521,
      "Ġbed": 1522,
      "vent": 1523,
      "Ġbas": 1524,
      "Ġpost": 1525,
      "ery": 1526,
      "aster": 1527,
      "els": 1528,
      "Ġperiod": 1529,
      "Ġwhose": 1530,
      "Ġalthough": 1531,
      "let": 1532,
      "Ġreason": 1533,
      "Ġcond": 1534,
      "ĠCons": 1535,
      "ĠEast": 1536,
      "erence": 1537,
      "ified": 1538,
      "ĠZ": 1539,
      "reed": 1540,
      "Ġfig": 1541,
      "Ġprogram": 1542,
      "Ġgeneral": 1543,
      "Ġpain": 1544,
      "arty": 1545,
      "Ġaccount": 1546,
      "Ġbody": 1547,
      "por": 1548,
      "ift": 1549,
      "Ġothers": 1550,
      "Ġknown": 1551,
      "Ġjob": 1552,
      "Ġtechn": 1553,
      "Ġappe": 1554,
      "Ġlim": 1555,
      "Ġprob": 1556,
      "Ġperform": 1557,
      "Ġwa": 1558,
      "Ġhor": 1559,
      "osp": 1560,
      "Ġsuff": 1561,
      "Ġwalk": 1562,
      "Ġcompet": 1563,
      "Ġworking": 1564,
      "Ġmom": 1565,
      "Ġbit": 1566,
      "Ġsaw": 1567,
      "ĠHowever": 1568,
      "Ġpolicy": 1569,
      "Ġdeath": 1570,
      "Ġlikely": 1571,
      "Ġvot": 1572,
      "Ġlow": 1573,
      "Ġservice": 1574,
      "Ġsense": 1575,
      "lling": 1576,
      "Ġprocess": 1577,
      "Ġlove": 1578,
      "Ġline": 1579,
      "Ġseemed": 1580,
      "ĠSome": 1581,
      "Ġavailable": 1582,
      "Ġconcern": 1583,
      "Ġcannot": 1584,
      "Ġhot": 1585,
      "Ġarea": 1586,
      "Ġple": 1587,
      "avour": 1588,
      "Ġproblems": 1589,
      "ouncil": 1590,
      "Ġdeb": 1591,
      "ively": 1592,
      "ops": 1593,
      "Ġtri": 1594,
      "ĠNot": 1595,
      "ĠSec": 1596,
      "ograp": 1597,
      "ches": 1598,
      "Ġattempt": 1599,
      "ior": 1600,
      "Ġmillion": 1601,
      "Ġcirc": 1602,
      "eed": 1603,
      "Ġfront": 1604,
      "ĠCon": 1605,
      "ĠOr": 1606,
      "Ġbehind": 1607,
      "arden": 1608,
      "Ġexist": 1609,
      "ocr": 1610,
      "Ġquestion": 1611,
      "You": 1612,
      "Ġname": 1613,
      "ulation": 1614,
      "Ġheld": 1615,
      "ology": 1616,
      "HE": 1617,
      "ued": 1618,
      "Ġlist": 1619,
      "ividual": 1620,
      "ressed": 1621,
      "idge": 1622,
      "Ġbegan": 1623,
      "Ġgir": 1624,
      "Ġincluding": 1625,
      "Ġidea": 1626,
      "ĠBy": 1627,
      "Ġcontrol": 1628,
      "rench": 1629,
      "king": 1630,
      "Ġsent": 1631,
      "ize": 1632,
      "Ġmusic": 1633,
      "Ġturned": 1634,
      "ron": 1635,
      "Ġfut": 1636,
      "istic": 1637,
      "ands": 1638,
      "Ġago": 1639,
      "Ġenc": 1640,
      "Ġmeans": 1641,
      "Ġknew": 1642,
      "Ġself": 1643,
      "ee": 1644,
      "Ġdoor": 1645,
      "inal": 1646,
      "mb": 1647,
      "ises": 1648,
      "ĠPar": 1649,
      "my": 1650,
      "Ġra": 1651,
      "utes": 1652,
      "Ġanything": 1653,
      "ĠHer": 1654,
      "resent": 1655,
      "par": 1656,
      "Ġfun": 1657,
      "Ġrepl": 1658,
      "Ġelse": 1659,
      "We": 1660,
      "ĠSouth": 1661,
      "Ġsat": 1662,
      "Ġacross": 1663,
      "Ġseems": 1664,
      "ush": 1665,
      "ĠNational": 1666,
      "Ġeng": 1667,
      "ences": 1668,
      "ĠAfter": 1669,
      "Ġsever": 1670,
      "ination": 1671,
      "Ġdiv": 1672,
      "Ġeither": 1673,
      "Ġgave": 1674,
      "Ġrese": 1675,
      "Ġwanted": 1676,
      "Ġchair": 1677,
      "Ġrad": 1678,
      "itted": 1679,
      "ized": 1680,
      "eter": 1681,
      "chie": 1682,
      "Ġnecess": 1683,
      "sc": 1684,
      "Ġdoub": 1685,
      "Ġindividual": 1686,
      "Ġsound": 1687,
      "ĠThese": 1688,
      "aced": 1689,
      "Ġeduc": 1690,
      "pecial": 1691,
      "Ġunderstand": 1692,
      "of": 1693,
      "Ġlost": 1694,
      "ilt": 1695,
      "Ġsure": 1696,
      "Ġjo": 1697,
      "viron": 1698,
      "Ġwoman": 1699,
      "Ġbad": 1700,
      "Ġroad": 1701,
      "ration": 1702,
      "Ġfood": 1703,
      "Ġperhaps": 1704,
      "dle": 1705,
      "ring": 1706,
      "ached": 1707,
      "oor": 1708,
      "Ġadm": 1709,
      "Ġtoday": 1710,
      "lished": 1711,
      "ctor": 1712,
      "oon": 1713,
      "Ġfund": 1714,
      "Ġseveral": 1715,
      "Ġaw": 1716,
      "ession": 1717,
      "Ġban": 1718,
      "Ġmother": 1719,
      "ina": 1720,
      "amb": 1721,
      "arm": 1722,
      "Ġparticular": 1723,
      "itive": 1724,
      "Ġcharac": 1725,
      "Ġeconomic": 1726,
      "ĠBl": 1727,
      "asing": 1728,
      "Ġpot": 1729,
      "ogn": 1730,
      "ĠWor": 1731,
      "ĠNorth": 1732,
      "Ġhig": 1733,
      "Ġsubject": 1734,
      "Ġlate": 1735,
      "Ġcult": 1736,
      "Ġnear": 1737,
      "Ġant": 1738,
      "rote": 1739,
      "Ġill": 1740,
      "Ġtot": 1741,
      "Ġfuture": 1742,
      "vironment": 1743,
      "Ġlot": 1744,
      "room": 1745,
      "Ġwhite": 1746,
      "aign": 1747,
      "eng": 1748,
      "Ġeyes": 1749,
      "Ġabove": 1750,
      "oyal": 1751,
      "Ġshare": 1752,
      "ĠGovernment": 1753,
      "Ġcommon": 1754,
      "uff": 1755,
      "ĠHar": 1756,
      "use": 1757,
      "isation": 1758,
      "aces": 1759,
      "Ġposition": 1760,
      "fort": 1761,
      "acy": 1762,
      "Ġemploy": 1763,
      "Ġbrought": 1764,
      "Ġconv": 1765,
      "to": 1766,
      "agement": 1767,
      "Ġupon": 1768,
      "Ġwrote": 1769,
      "Ġprobably": 1770,
      "Ġachie": 1771,
      "Ġlooking": 1772,
      "port": 1773,
      "Ġformer": 1774,
      "Ġsex": 1775,
      "Ġparticularly": 1776,
      "vision": 1777,
      "fully": 1778,
      "Ġcentury": 1779,
      "Ġbelieve": 1780,
      "ĠBar": 1781,
      "ĠPer": 1782,
      "Ġexc": 1783,
      "ival": 1784,
      "Ġtradition": 1785,
      "ev": 1786,
      "Ġsoon": 1787,
      "Ġmoment": 1788,
      "ibility": 1789,
      "Ġve": 1790,
      "Ġdescrib": 1791,
      "Ġhealth": 1792,
      "itte": 1793,
      "illed": 1794,
      "Ġabs": 1795,
      "Ġsn": 1796,
      "Ġrelations": 1797,
      "Ġthird": 1798,
      "aged": 1799,
      "ĠGermany": 1800,
      "Ġstri": 1801,
      "Ġbal": 1802,
      "Ġbreak": 1803,
      "ze": 1804,
      "head": 1805,
      "Ġbegin": 1806,
      "ĠMc": 1807,
      "Ġimpro": 1808,
      "Ġexperience": 1809,
      "Ġfinal": 1810,
      "yle": 1811,
      "lled": 1812,
      "50": 1813,
      "ĠConserv": 1814,
      "aut": 1815,
      "ĠEx": 1816,
      "Ġ196": 1817,
      "Ġcompanies": 1818,
      "ĠEd": 1819,
      "Ġargu": 1820,
      "Ġindustry": 1821,
      "ows": 1822,
      "Ġorig": 1823,
      "Ġinformation": 1824,
      "Ġdoing": 1825,
      "Ġdecl": 1826,
      "Ġhands": 1827,
      "ĠThen": 1828,
      "Ġ16": 1829,
      "ilar": 1830,
      "ĠGl": 1831,
      "iver": 1832,
      "like": 1833,
      "Ġrespons": 1834,
      "ĠLord": 1835,
      "Ġoutside": 1836,
      "ĠFrench": 1837,
      "aving": 1838,
      "ann": 1839,
      "ĠParty": 1840,
      "ead": 1841,
      "ah": 1842,
      "ĠAmerica": 1843,
      "Ġmag": 1844,
      "ĠSir": 1845,
      "Ġestab": 1846,
      "Ġfather": 1847,
      "hern": 1848,
      "Ġ11": 1849,
      "Ġwr": 1850,
      "ection": 1851,
      "ĠCol": 1852,
      "men": 1853,
      "Ġrepresent": 1854,
      "omes": 1855,
      "Ġserious": 1856,
      "Ġareas": 1857,
      "Ġ17": 1858,
      "Ġfield": 1859,
      "ĠAd": 1860,
      "Ġterms": 1861,
      "Ġactiv": 1862,
      "ĠDavid": 1863,
      "ored": 1864,
      "Ġprivate": 1865,
      "Ġproduct": 1866,
      "Ġeight": 1867,
      "Ġlear": 1868,
      "Ġquick": 1869,
      "ole": 1870,
      "Ġdom": 1871,
      "Ġdevelopment": 1872,
      "iter": 1873,
      "Ġhuman": 1874,
      "Ġevent": 1875,
      "where": 1876,
      "fact": 1877,
      "Ġhours": 1878,
      "ills": 1879,
      "fer": 1880,
      "Ġnat": 1881,
      "Ġsort": 1882,
      "ares": 1883,
      "Ġtaking": 1884,
      "Ġboy": 1885,
      "Ġlive": 1886,
      "Ġbring": 1887,
      "ouble": 1888,
      "Ġhistory": 1889,
      "Ġbank": 1890,
      "sw": 1891,
      "Ġcampaign": 1892,
      "une": 1893,
      "Ġdev": 1894,
      "Ġobject": 1895,
      "Ġ30": 1896,
      "Ġtest": 1897,
      "ĠUnited": 1898,
      "ording": 1899,
      "Ġdel": 1900,
      "Ġsuper": 1901,
      "pecially": 1902,
      "ĠTHE": 1903,
      "Ġfell": 1904,
      "Ġdiscuss": 1905,
      "iding": 1906,
      "Ġcountries": 1907,
      "augh": 1908,
      "work": 1909,
      "Ġarri": 1910,
      "Ġtry": 1911,
      "pping": 1912,
      "Ġbuilding": 1913,
      "ese": 1914,
      "Ġfilm": 1915,
      "ption": 1916,
      "rict": 1917,
      "Ġsold": 1918,
      "Ġservices": 1919,
      "Ġred": 1920,
      "eth": 1921,
      "ox": 1922,
      "ĠDr": 1923,
      "unch": 1924,
      "itting": 1925,
      "Ġvict": 1926,
      "Ġattack": 1927,
      "epend": 1928,
      "Ġlonger": 1929,
      "inn": 1930,
      "Ġwall": 1931,
      "Ġwond": 1932,
      "Ġintro": 1933,
      "Ġcomplete": 1934,
      "Ġaction": 1935,
      "ele": 1936,
      "Ġpur": 1937,
      "ression": 1938,
      "Ġofficial": 1939,
      "illi": 1940,
      "Ġleaders": 1941,
      "Ġage": 1942,
      "Ġmakes": 1943,
      "ĠCar": 1944,
      "Ġespecially": 1945,
      "Ġcentre": 1946,
      "Ġsingle": 1947,
      "retary": 1948,
      "ening": 1949,
      "Ġfoot": 1950,
      "Ġfavour": 1951,
      "Ġprovide": 1952,
      "Ġtown": 1953,
      "aterial": 1954,
      "Ġwords": 1955,
      "Ġoffer": 1956,
      "Ġ0": 1957,
      "uge": 1958,
      "Ġbenef": 1959,
      "ague": 1960,
      "Ġjud": 1961,
      "ik": 1962,
      "apan": 1963,
      "ĠWorld": 1964,
      "Ġliving": 1965,
      "Ġten": 1966,
      "ream": 1967,
      "Ġmot": 1968,
      "ĠPol": 1969,
      "lier": 1970,
      "Ġsil": 1971,
      "Ġfear": 1972,
      "ĠPl": 1973,
      "oke": 1974,
      "Ġap": 1975,
      "ney": 1976,
      "ipl": 1977,
      "ĠMay": 1978,
      "Ġrate": 1979,
      "Ġ14": 1980,
      "Ġsal": 1981,
      "Ġstay": 1982,
      "joy": 1983,
      "pite": 1984,
      "ones": 1985,
      "Ġdetail": 1986,
      "ER": 1987,
      "Ġled": 1988,
      "Ġmodern": 1989,
      "Ġvisit": 1990,
      "Ġrecogn": 1991,
      "ĠJapan": 1992,
      "Ġinflu": 1993,
      "ator": 1994,
      "ĠGe": 1995,
      "Ġfollowing": 1996,
      "reet": 1997,
      "medi": 1998,
      "Ġfriend": 1999,
      "Ġtour": 2000,
      "ĠAf": 2001,
      "erc": 2002,
      "Ġmatter": 2003,
      "aly": 2004,
      "enty": 2005,
      "Ġsaf": 2006,
      "Ġrange": 2007,
      "Ġtrying": 2008,
      "Ġfinanc": 2009,
      "Ġdark": 2010,
      "Ġrole": 2011,
      "Ġfarm": 2012,
      "Ġdraw": 2013,
      "Ġcharacter": 2014,
      "got": 2015,
      "Ġpict": 2016,
      "Ġnon": 2017,
      "mp": 2018,
      "iday": 2019,
      "olution": 2020,
      "Ġdeter": 2021,
      "Ġcolle": 2022,
      "ene": 2023,
      "ĠPres": 2024,
      "ĠEven": 2025,
      "ĠNow": 2026,
      "str": 2027,
      "Ġheart": 2028,
      "Ġagree": 2029,
      "Ġprep": 2030,
      "Ġpie": 2031,
      "ĠNe": 2032,
      "umb": 2033,
      "Ġgame": 2034,
      "Ġris": 2035,
      "Ġextra": 2036,
      "ĠPhil": 2037,
      "Ġord": 2038,
      "Ġsimilar": 2039,
      "Ġelection": 2040,
      "Ġstruct": 2041,
      "Ġsurpr": 2042,
      "Ġident": 2043,
      "Ġmaterial": 2044,
      "Ġenjoy": 2045,
      "Ġwood": 2046,
      "Ġgone": 2047,
      "mber": 2048,
      "Ġrele": 2049,
      "Ġfriends": 2050,
      "atives": 2051,
      "Ġunc": 2052,
      "Ġprice": 2053,
      "Ġgarden": 2054,
      "Ġmeeting": 2055,
      "Ġsimply": 2056,
      "lin": 2057,
      "Ġleave": 2058,
      "anger": 2059,
      "Ġvill": 2060,
      "Ġsitu": 2061,
      "Ġmorning": 2062,
      "Ġdog": 2063,
      "Ġdisp": 2064,
      "Ġheav": 2065,
      "Ġanim": 2066,
      "for": 2067,
      "year": 2068,
      "yl": 2069,
      "Ġthreat": 2070,
      "ension": 2071,
      "liament": 2072,
      "Ġexpected": 2073,
      "Ġla": 2074,
      "Ġcompl": 2075,
      "Ġ13": 2076,
      "Ġdeep": 2077,
      "hold": 2078,
      "Ġsens": 2079,
      "ĠPe": 2080,
      "Ġstarted": 2081,
      "vert": 2082,
      "Ġsun": 2083,
      "ability": 2084,
      "Ġclub": 2085,
      "irt": 2086,
      "Ġneeds": 2087,
      "Ġsociety": 2088,
      "Ġproject": 2089,
      "itary": 2090,
      "ĠSw": 2091,
      "Ġenvironment": 2092,
      "inet": 2093,
      "ĠAust": 2094,
      "Ġsqu": 2095,
      "Ġusually": 2096,
      "Ġdecision": 2097,
      "Ġneeded": 2098,
      "Ġhous": 2099,
      "Ġ194": 2100,
      "Ġpersonal": 2101,
      "ittee": 2102,
      "Ġtrade": 2103,
      "Ġwide": 2104,
      "Ġtraining": 2105,
      "Ġhol": 2106,
      "Ġrul": 2107,
      "Ġvol": 2108,
      "Ġdecided": 2109,
      "Ġlat": 2110,
      "Ġpoll": 2111,
      "Ġess": 2112,
      "gest": 2113,
      "ĠHouse": 2114,
      "unt": 2115,
      "ledge": 2116,
      "che": 2117,
      "Ġinternational": 2118,
      "Ġexcept": 2119,
      "ivil": 2120,
      "oviet": 2121,
      "Ġbuy": 2122,
      "Ġdam": 2123,
      "Ġtelevision": 2124,
      "airs": 2125,
      "Ġchurch": 2126,
      "Ġcentral": 2127,
      "Ġattract": 2128,
      "af": 2129,
      "Ġcross": 2130,
      "Ġwrong": 2131,
      "Ġobs": 2132,
      "ners": 2133,
      "oman": 2134,
      "Ġseason": 2135,
      "ĠKing": 2136,
      "bed": 2137,
      "Ġstory": 2138,
      "set": 2139,
      "Ġstage": 2140,
      "ĠFore": 2141,
      "Ġtrue": 2142,
      "ald": 2143,
      "ps": 2144,
      "Ġheard": 2145,
      "oid": 2146,
      "yn": 2147,
      "urity": 2148,
      "owers": 2149,
      "ĠSoviet": 2150,
      "Ġmanagement": 2151,
      "Ġcurrent": 2152,
      "ceed": 2153,
      "Ġdemand": 2154,
      "hel": 2155,
      "Ġswe": 2156,
      "Ġgetting": 2157,
      "ĠMinister": 2158,
      "ĠOff": 2159,
      "itud": 2160,
      "ĠSte": 2161,
      "ĠSm": 2162,
      "Ġminutes": 2163,
      "Ġdead": 2164,
      "ological": 2165,
      "Ġsignific": 2166,
      "Ġsle": 2167,
      "Ġsomeone": 2168,
      "Ġsour": 2169,
      "Ġtyp": 2170,
      "Ġinvolved": 2171,
      "Ġworth": 2172,
      "Ġgroups": 2173,
      "ĠSoc": 2174,
      "Ġpopular": 2175,
      "Ġstat": 2176,
      "Ġ50": 2177,
      "Ġcapital": 2178,
      "Ġ193": 2179,
      "Ġusing": 2180,
      "Ġrecent": 2181,
      "iversity": 2182,
      "Ġmiss": 2183,
      "oud": 2184,
      "Ġcommun": 2185,
      "Ġparent": 2186,
      "Ġhigher": 2187,
      "Ġadded": 2188,
      "Ġcontr": 2189,
      "ĠMor": 2190,
      "spect": 2191,
      "artment": 2192,
      "oe": 2193,
      "Ġtreat": 2194,
      "Ġcover": 2195,
      "Ġevidence": 2196,
      "Ġhope": 2197,
      "Ġmeas": 2198,
      "Ġforce": 2199,
      "Ġprinc": 2200,
      "inary": 2201,
      "Ġnorm": 2202,
      "Ġlay": 2203,
      "Ġ192": 2204,
      "ĠAfric": 2205,
      "Ġsometimes": 2206,
      "Ġnature": 2207,
      "sequ": 2208,
      "Ġrelig": 2209,
      "Ġproduction": 2210,
      "raft": 2211,
      "Ġemer": 2212,
      "ĠRich": 2213,
      "Ġrespect": 2214,
      "Ġeducation": 2215,
      "Ġdram": 2216,
      "Ġresearch": 2217,
      "Ġfa": 2218,
      "ĠIr": 2219,
      "ĠWar": 2220,
      "Ġstep": 2221,
      "Ġarr": 2222,
      "Ġcommunity": 2223,
      "Ġstock": 2224,
      "Ġslow": 2225,
      "Ġeasy": 2226,
      "ected": 2227,
      "osing": 2228,
      "Ġwife": 2229,
      "ĠCan": 2230,
      "Ġfamil": 2231,
      "val": 2232,
      "Ġprogramme": 2233,
      "Ġcoming": 2234,
      "ĠEn": 2235,
      "Ġtherefore": 2236,
      "Ġcal": 2237,
      "ror": 2238,
      "ishing": 2239,
      "Ġimmedi": 2240,
      "acher": 2241,
      "Ġfight": 2242,
      "Ġcomes": 2243,
      "ĠUK": 2244,
      "gress": 2245,
      "off": 2246,
      "ensive": 2247,
      "Ġincrease": 2248,
      "Ġtem": 2249,
      "Ġcomb": 2250,
      "ĠPeter": 2251,
      "Ġcity": 2252,
      "ĠUnion": 2253,
      "Ġpred": 2254,
      "Ġloss": 2255,
      "Ġnecessary": 2256,
      "Ġlar": 2257,
      "Ġfirm": 2258,
      "Ġpick": 2259,
      "Ġcritic": 2260,
      "Ġsummer": 2261,
      "ociation": 2262,
      "Ġlack": 2263,
      "ging": 2264,
      "Ġbased": 2265,
      "Ġur": 2266,
      "Ġapproach": 2267,
      "body": 2268,
      "Ġgen": 2269,
      "Ġweeks": 2270,
      "ĠThatcher": 2271,
      "Ġoccas": 2272,
      "Ġansw": 2273,
      "uly": 2274,
      "bert": 2275,
      "ĠFrance": 2276,
      "uit": 2277,
      "eb": 2278,
      "Ġexam": 2279,
      "Ġeverything": 2280,
      "Ġfinancial": 2281,
      "Ġsche": 2282,
      "ĠAb": 2283,
      "Ġearlier": 2284,
      "Ġprevious": 2285,
      "Ġlink": 2286,
      "Ġbur": 2287,
      "ĠGu": 2288,
      "Ġimag": 2289,
      "Ġplants": 2290,
      "Ġpaper": 2291,
      "ĠAlthough": 2292,
      "IN": 2293,
      "ergy": 2294,
      "Ġdoubt": 2295,
      "rey": 2296,
      "Ġsaying": 2297,
      "omb": 2298,
      "Ġsurv": 2299,
      "Ġencour": 2300,
      "ĠMy": 2301,
      "ky": 2302,
      "Ġforeign": 2303,
      "Ġfre": 2304,
      "Ġtried": 2305,
      "Ġbeaut": 2306,
      "oming": 2307,
      "Ġplant": 2308,
      "Ġquality": 2309,
      "ĠAm": 2310,
      "ators": 2311,
      "Ġblood": 2312,
      "Ġredu": 2313,
      "Ġoffice": 2314,
      "iol": 2315,
      "orrow": 2316,
      "Ġissue": 2317,
      "Ġmis": 2318,
      "Ġindepend": 2319,
      "Ġherself": 2320,
      "What": 2321,
      "Ġden": 2322,
      "ĠTw": 2323,
      "Ġtou": 2324,
      "ady": 2325,
      "Ġwhom": 2326,
      "Ġnatural": 2327,
      "ĠRoyal": 2328,
      "Ġchance": 2329,
      "Ġclim": 2330,
      "Ġdisapp": 2331,
      "Ġobvious": 2332,
      "Ġannoun": 2333,
      "cent": 2334,
      "Ġstaff": 2335,
      "Ġremember": 2336,
      "Ġtotal": 2337,
      "ilities": 2338,
      "come": 2339,
      "Ġwatch": 2340,
      "Ġcop": 2341,
      "ĠNor": 2342,
      "Ġens": 2343,
      "ĠCharles": 2344,
      "ĠBer": 2345,
      "aul": 2346,
      "aves": 2347,
      "ĠScot": 2348,
      "olic": 2349,
      "Ġkept": 2350,
      "icient": 2351,
      "Ġball": 2352,
      "ĠChurch": 2353,
      "Ġways": 2354,
      "Ġbott": 2355,
      "Ġdest": 2356,
      "antly": 2357,
      "ĠAss": 2358,
      "ĠCo": 2359,
      "Ġprovided": 2360,
      "Ġaud": 2361,
      "ously": 2362,
      "Ġpack": 2363,
      "rial": 2364,
      "Ġtra": 2365,
      "Ġmass": 2366,
      "Ġpoints": 2367,
      "Ġopport": 2368,
      "Ġfeet": 2369,
      "Ġamount": 2370,
      "ining": 2371,
      "ON": 2372,
      "Ġsubst": 2373,
      "hod": 2374,
      "enth": 2375,
      "estern": 2376,
      "Ġfollowed": 2377,
      "Ġfair": 2378,
      "Ġincreasing": 2379,
      "Ġpaid": 2380,
      "Ġvoice": 2381,
      "Ġcontrib": 2382,
      "Ġchanges": 2383,
      "ustom": 2384,
      "aught": 2385,
      "Ġgreen": 2386,
      "Ġ1990": 2387,
      "Ġmatch": 2388,
      "ental": 2389,
      "Ġcases": 2390,
      "Ġstyle": 2391,
      "mes": 2392,
      "Ġalone": 2393,
      "reg": 2394,
      "nes": 2395,
      "Ġstra": 2396,
      "ael": 2397,
      "ask": 2398,
      "Ġleading": 2399,
      "sy": 2400,
      "Ġ100": 2401,
      "ĠYet": 2402,
      "itable": 2403,
      "ĠCup": 2404,
      "Ġregard": 2405,
      "rs": 2406,
      "Ġarch": 2407,
      "Ġcold": 2408,
      "Ġcertainly": 2409,
      "Ġcontract": 2410,
      "Ġseries": 2411,
      "Ġhorse": 2412,
      "Ġpull": 2413,
      "Ġdro": 2414,
      "Ġrates": 2415,
      "ique": 2416,
      "ils": 2417,
      "Ġunion": 2418,
      "Ġ25": 2419,
      "Ġshall": 2420,
      "Ġpoor": 2421,
      "lands": 2422,
      "Ġbuilt": 2423,
      "Ġchairman": 2424,
      "Ġproduced": 2425,
      "Ġer": 2426,
      "itution": 2427,
      "ĠCam": 2428,
      "Ġperf": 2429,
      "reme": 2430,
      "Ġemb": 2431,
      "ĠChristian": 2432,
      "Ġcause": 2433,
      "isters": 2434,
      "Ġdrink": 2435,
      "Ġaim": 2436,
      "aker": 2437,
      "Ġcarry": 2438,
      "Ġvalue": 2439,
      "uter": 2440,
      "oard": 2441,
      "iled": 2442,
      "Ġbroad": 2443,
      "ĠUN": 2444,
      "oured": 2445,
      "Ġprim": 2446,
      "Ġmach": 2447,
      "Ġund": 2448,
      "ams": 2449,
      "Ġrout": 2450,
      "ĠCent": 2451,
      "ublic": 2452,
      "Ġcosts": 2453,
      "Ġremark": 2454,
      "Ġproperty": 2455,
      "rest": 2456,
      "Ġsepar": 2457,
      "eneral": 2458,
      "Ġpen": 2459,
      "Ġcourt": 2460,
      "Ġfine": 2461,
      "Ġ195": 2462,
      "Ġsett": 2463,
      "Ġglass": 2464,
      "Ġrunning": 2465,
      "Ġprofess": 2466,
      "het": 2467,
      "ĠPresident": 2468,
      "Ġdied": 2469,
      "ĠIre": 2470,
      "Ġengine": 2471,
      "Ġpotential": 2472,
      "Ġreform": 2473,
      "uth": 2474,
      "Ġstudy": 2475,
      "Ġplayed": 2476,
      "ification": 2477,
      "Ġmovement": 2478,
      "itor": 2479,
      "Ġnews": 2480,
      "Ġcoup": 2481,
      "Ġrise": 2482,
      "Ġevening": 2483,
      "bit": 2484,
      "iar": 2485,
      "tered": 2486,
      "Ġson": 2487,
      "Ġdanger": 2488,
      "Ġstreng": 2489,
      "time": 2490,
      "Ġforward": 2491,
      "irst": 2492,
      "rug": 2493,
      "ĠScotland": 2494,
      "Ġbi": 2495,
      "ĠCouncil": 2496,
      "Ġseven": 2497,
      "undred": 2498,
      "Ġperformance": 2499,
      "Ġallowed": 2500,
      "ĠMost": 2501,
      "Ġhus": 2502,
      "uses": 2503,
      "Ġforest": 2504,
      "Ġgreater": 2505,
      "Ġdemon": 2506,
      "Ġinclude": 2507,
      "uted": 2508,
      "itch": 2509,
      "Ġcoll": 2510,
      "Ġlower": 2511,
      "Ġspent": 2512,
      "ĠAct": 2513,
      "eds": 2514,
      "Ġpurp": 2515,
      "ĠIreland": 2516,
      "Ġfire": 2517,
      "Ġknowledge": 2518,
      "ule": 2519,
      "Ġhair": 2520,
      "allen": 2521,
      "Ġgirl": 2522,
      "ĠGeor": 2523,
      "Ġrelationship": 2524,
      "iated": 2525,
      "Ġcreat": 2526,
      "urg": 2527,
      "Ġ40": 2528,
      "asc": 2529,
      "Ġcho": 2530,
      "kn": 2531,
      "isc": 2532,
      "Ġreve": 2533,
      "Ġmoved": 2534,
      "Ġstop": 2535,
      "Ġliter": 2536,
      "Ġcollect": 2537,
      "Ġphys": 2538,
      "Ġstraight": 2539,
      "Ġwasn": 2540,
      "attle": 2541,
      "ken": 2542,
      "Ġtal": 2543,
      "Ġtable": 2544,
      "AN": 2545,
      "oes": 2546,
      "Ġcivil": 2547,
      "pper": 2548,
      "Ġjour": 2549,
      "leg": 2550,
      "Ġpret": 2551,
      "urb": 2552,
      "Ġmilitary": 2553,
      "line": 2554,
      "Ġask": 2555,
      "hire": 2556,
      "usion": 2557,
      "ights": 2558,
      "Ġleader": 2559,
      "dden": 2560,
      "Ġnet": 2561,
      "Ġreact": 2562,
      "ĠCity": 2563,
      "Ġ1989": 2564,
      "He": 2565,
      "well": 2566,
      "ĠEli": 2567,
      "ris": 2568,
      "angu": 2569,
      "Ġpressure": 2570,
      "vey": 2571,
      "Ġinit": 2572,
      "Ġaccording": 2573,
      "Ġreceived": 2574,
      "Ġspir": 2575,
      "ĠStreet": 2576,
      "Ġmiddle": 2577,
      "cast": 2578,
      "Ġcat": 2579,
      "cious": 2580,
      "ech": 2581,
      "Ġtend": 2582,
      "arily": 2583,
      "ote": 2584,
      "Ġmethod": 2585,
      "fl": 2586,
      "Ġattention": 2587,
      "Ġanti": 2588,
      "aur": 2589,
      "avi": 2590,
      "aching": 2591,
      "Ġcontinue": 2592,
      "Ġmanager": 2593,
      "Ġsudden": 2594,
      "Ġdescribed": 2595,
      "Ġsea": 2596,
      "Ġrecently": 2597,
      "band": 2598,
      "ĠWilli": 2599,
      "Ġdirector": 2600,
      "Ġwritten": 2601,
      "yond": 2602,
      "Ġinj": 2603,
      "aughter": 2604,
      "oved": 2605,
      "ĠConservative": 2606,
      "ĠMany": 2607,
      "Ġtrain": 2608,
      "Ġmere": 2609,
      "Ġslight": 2610,
      "Ġinterv": 2611,
      "Ġcontinued": 2612,
      "field": 2613,
      "Ġproduc": 2614,
      "Ġsimple": 2615,
      "Ġmeant": 2616,
      "arp": 2617,
      "Ġeveryone": 2618,
      "amed": 2619,
      "Ġanyone": 2620,
      "Ġaver": 2621,
      "wood": 2622,
      "Ġfeeling": 2623,
      "ĠAustral": 2624,
      "Ġpos": 2625,
      "Ġworkers": 2626,
      "Ġbeginning": 2627,
      "ĠMid": 2628,
      "Ġsto": 2629,
      "lex": 2630,
      "ĠJust": 2631,
      "Ġhundred": 2632,
      "utions": 2633,
      "ĠJan": 2634,
      "Ġmember": 2635,
      "Ġmaintain": 2636,
      "ĠDes": 2637,
      "ĠRuss": 2638,
      "Ġchoice": 2639,
      "Ġspace": 2640,
      "Ġentire": 2641,
      "Ġgiving": 2642,
      "Ġsituation": 2643,
      "Ġcred": 2644,
      "Ġmount": 2645,
      "lement": 2646,
      "ify": 2647,
      "ES": 2648,
      "Ġnar": 2649,
      "Ġhear": 2650,
      "Ġagreed": 2651,
      "Ġeconomy": 2652,
      "Ġdue": 2653,
      "lying": 2654,
      "Ġir": 2655,
      "illing": 2656,
      "orthern": 2657,
      "Ġparents": 2658,
      "Ġquar": 2659,
      "aviour": 2660,
      "Ġmyself": 2661,
      "ograph": 2662,
      "Ġexec": 2663,
      "Ġideas": 2664,
      "Ġconditions": 2665,
      "Ġindeed": 2666,
      "OR": 2667,
      "ĠOct": 2668,
      "Ġworked": 2669,
      "anced": 2670,
      "Ġlooks": 2671,
      "ternal": 2672,
      "add": 2673,
      "ĠBel": 2674,
      "Ġchamp": 2675,
      "beral": 2676,
      "lo": 2677,
      "resh": 2678,
      "ĠFrom": 2679,
      "Ġindic": 2680,
      "Ġhy": 2681,
      "Ġthinking": 2682,
      "Ġphot": 2683,
      "Ġpractice": 2684,
      "ufact": 2685,
      "Ġvers": 2686,
      "ĠMich": 2687,
      "Ġsoft": 2688,
      "Ġletter": 2689,
      "mark": 2690,
      "Ġhosp": 2691,
      "Ġworks": 2692,
      "Ġclearly": 2693,
      "Ġaddition": 2694,
      "ips": 2695,
      "Ġactually": 2696,
      "Ġchem": 2697,
      "ompan": 2698,
      "ĠOf": 2699,
      "Ġtraditional": 2700,
      "ĠSim": 2701,
      "duct": 2702,
      "Ġshares": 2703,
      "ĠCour": 2704,
      "Ġvarious": 2705,
      "Ġmajority": 2706,
      "Ġanswer": 2707,
      "Ġschools": 2708,
      "ests": 2709,
      "Ġqual": 2710,
      "Ġremain": 2711,
      "Ġgovern": 2712,
      "Ġbelow": 2713,
      "Ġenergy": 2714,
      "Ġfloor": 2715,
      "Ġhistor": 2716,
      "dd": 2717,
      "inct": 2718,
      "Ġanal": 2719,
      "ĠDon": 2720,
      "ĠYork": 2721,
      "Ġappeared": 2722,
      "Ġapparent": 2723,
      "iction": 2724,
      "ĠRichard": 2725,
      "Ġbillion": 2726,
      "ĠMark": 2727,
      "inated": 2728,
      "Ġcolour": 2729,
      "Ġconcerned": 2730,
      "Ġviol": 2731,
      "Ġshows": 2732,
      "Ġgoes": 2733,
      "Ġdi": 2734,
      "ĠCor": 2735,
      "Ġhost": 2736,
      "urd": 2737,
      "Ġquickly": 2738,
      "Ġtakes": 2739,
      "Ġreached": 2740,
      "Ġexh": 2741,
      "Ġoffered": 2742,
      "ĠDem": 2743,
      "rief": 2744,
      "Ġnearly": 2745,
      "Ġassum": 2746,
      "ients": 2747,
      "Ġcustom": 2748,
      "rugg": 2749,
      "Ġwonder": 2750,
      "ober": 2751,
      "ĠLaw": 2752,
      "Ġbooks": 2753,
      "Ġdespite": 2754,
      "Ġsurf": 2755,
      "Ġgrowth": 2756,
      "ength": 2757,
      "Ġrequired": 2758,
      "Ġmess": 2759,
      "oph": 2760,
      "Ġfailed": 2761,
      "Ġprices": 2762,
      "Ġsize": 2763,
      "Ġstood": 2764,
      "ĠMore": 2765,
      "Ġran": 2766,
      "Ġappoint": 2767,
      "Ġchanged": 2768,
      "Ġauthority": 2769,
      "Ġprevent": 2770,
      "Ġplaying": 2771,
      "mon": 2772,
      "de": 2773,
      "Ġexerc": 2774,
      "Ġindustrial": 2775,
      "ĠMichael": 2776,
      "bour": 2777,
      "Ġthroughout": 2778,
      "Ġrights": 2779,
      "Ġweight": 2780,
      "ĠPark": 2781,
      "Ġ1980": 2782,
      "xford": 2783,
      "isions": 2784,
      "idered": 2785,
      "Ġfigure": 2786,
      "Ġsleep": 2787,
      "ires": 2788,
      "ĠMe": 2789,
      "Ġfem": 2790,
      "Ġreflect": 2791,
      "ruction": 2792,
      "AT": 2793,
      "uary": 2794,
      "Ġtit": 2795,
      "Ġfif": 2796,
      "ĠApr": 2797,
      "alled": 2798,
      "Ġesc": 2799,
      "Ġessential": 2800,
      "ĠPat": 2801,
      "Ġ24": 2802,
      "ground": 2803,
      "Ġshowed": 2804,
      "Ġsexual": 2805,
      "Ġacqu": 2806,
      "Ġchief": 2807,
      "Ġproduce": 2808,
      "Ġrail": 2809,
      "go": 2810,
      "Ġconference": 2811,
      "Ġremains": 2812,
      "ĠScott": 2813,
      "Ġforces": 2814,
      "Ġsecurity": 2815,
      "ĠSecretary": 2816,
      "Ġnor": 2817,
      "Ġbehaviour": 2818,
      "EN": 2819,
      "ĠJune": 2820,
      "Ġperfect": 2821,
      "iers": 2822,
      "Ġcharge": 2823,
      "Ġflat": 2824,
      "Ġfigures": 2825,
      "Ġhotel": 2826,
      "Ġrelative": 2827,
      "Ġminister": 2828,
      "overed": 2829,
      "Ġhusband": 2830,
      "Ġparties": 2831,
      "ids": 2832,
      "ĠAg": 2833,
      "Ġinside": 2834,
      "enced": 2835,
      "ĠPhilip": 2836,
      "ites": 2837,
      "Ġbeyond": 2838,
      "ounter": 2839,
      "Ġopened": 2840,
      "ball": 2841,
      "Ġmanufact": 2842,
      "Ġconcent": 2843,
      "Ġhappened": 2844,
      "Ġgrowing": 2845,
      "Ġvillage": 2846,
      "Ġcomfort": 2847,
      "Ġparts": 2848,
      "rec": 2849,
      "imum": 2850,
      "ĠWil": 2851,
      "ĠHigh": 2852,
      "Ġachieve": 2853,
      "ĠOctober": 2854,
      "asons": 2855,
      "Ġhuge": 2856,
      "Ġinvestment": 2857,
      "amm": 2858,
      "Ġsales": 2859,
      "Ġsuccessful": 2860,
      "isted": 2861,
      "Ġtro": 2862,
      "Ġincome": 2863,
      "Ġconsum": 2864,
      "oses": 2865,
      "Ġtrees": 2866,
      "Ġfrequ": 2867,
      "ĠApril": 2868,
      "Ġrequire": 2869,
      "Ġchallen": 2870,
      "wise": 2871,
      "Ġspl": 2872,
      "lear": 2873,
      "ĠInst": 2874,
      "Ġoccur": 2875,
      "Ġaware": 2876,
      "Ġmer": 2877,
      "iful": 2878,
      "Ġbox": 2879,
      "Ġbeat": 2880,
      "uty": 2881,
      "Ġones": 2882,
      "ĠAug": 2883,
      "ĠRoman": 2884,
      "Ġcarried": 2885,
      "minist": 2886,
      "AR": 2887,
      "Ġfast": 2888,
      "Ġlangu": 2889,
      "ĠServ": 2890,
      "right": 2891,
      "Ġwat": 2892,
      "Ġfit": 2893,
      "Ġshown": 2894,
      "atever": 2895,
      "ĠFl": 2896,
      "Ġprepared": 2897,
      "Ġcomplex": 2898,
      "aded": 2899,
      "aries": 2900,
      "Ġdrug": 2901,
      "ĠTheir": 2902,
      "Ġrace": 2903,
      "Ġclot": 2904,
      "aled": 2905,
      "Ġang": 2906,
      "Ġconsidered": 2907,
      "Ġpolitics": 2908,
      "Ġincreased": 2909,
      "Ġpopulation": 2910,
      "Ġdefence": 2911,
      "ĠAssociation": 2912,
      "change": 2913,
      "okes": 2914,
      "Ġprec": 2915,
      "Ġspecies": 2916,
      "Ġopt": 2917,
      "Ġbase": 2918,
      "iling": 2919,
      "Ġplayers": 2920,
      "astic": 2921,
      "Ġheavy": 2922,
      "Ġcouncil": 2923,
      "Ġpleas": 2924,
      "Ġda": 2925,
      "Ġdispl": 2926,
      "ocked": 2927,
      "eder": 2928,
      "Ġoriginal": 2929,
      "rect": 2930,
      "ĠGeneral": 2931,
      "aging": 2932,
      "Ġspeak": 2933,
      "Ġtype": 2934,
      "ĠJack": 2935,
      "ibly": 2936,
      "Ġclean": 2937,
      "Ġinstead": 2938,
      "Ġlives": 2939,
      "ĠSat": 2940,
      "rate": 2941,
      "ĠSept": 2942,
      "Ġprincip": 2943,
      "ĠForest": 2944,
      "Ġgra": 2945,
      "Ġplans": 2946,
      "ĠPrime": 2947,
      "acing": 2948,
      "Ġmist": 2949,
      "Ġarm": 2950,
      "Ġteacher": 2951,
      "Ġimm": 2952,
      "Ġimprove": 2953,
      "itude": 2954,
      "Ġahead": 2955,
      "sec": 2956,
      "erved": 2957,
      "Ġcontact": 2958,
      "icle": 2959,
      "ĠSund": 2960,
      "Ġgrand": 2961,
      "Ġpublished": 2962,
      "Ġmiles": 2963,
      "Ġcast": 2964,
      "iment": 2965,
      "Ġpeace": 2966,
      "ĠDep": 2967,
      "Ġpoet": 2968,
      "Ġdeveloped": 2969,
      "Ġrisk": 2970,
      "iny": 2971,
      "Ġrare": 2972,
      "Ġinfluence": 2973,
      "ĠDo": 2974,
      "Ġsafe": 2975,
      "na": 2976,
      "Ġaltern": 2977,
      "Ġlegal": 2978,
      "Ġtrust": 2979,
      "ĠOther": 2980,
      "rowd": 2981,
      "ĠMac": 2982,
      "Ġsell": 2983,
      "ables": 2984,
      "ĠJames": 2985,
      "Ġwriting": 2986,
      "Ġaverage": 2987,
      "house": 2988,
      "Ġquiet": 2989,
      "Ġemph": 2990,
      "Ġsouth": 2991,
      "ĠFirst": 2992,
      "ixed": 2993,
      "Ġoccup": 2994,
      "erve": 2995,
      "ĠEC": 2996,
      "ĠRep": 2997,
      "Ġ1988": 2998,
      "ading": 2999,
      "Ġdifference": 3000,
      "Ġpiece": 3001,
      "Th": 3002,
      "atory": 3003,
      "Ġboard": 3004,
      "ĠAugust": 3005,
      "alt": 3006,
      "ades": 3007,
      "ĠPaul": 3008,
      "Ġgold": 3009,
      "Ġcouldn": 3010,
      "pro": 3011,
      "Ġthous": 3012,
      "apers": 3013,
      "eness": 3014,
      "Ġcand": 3015,
      "Ġhur": 3016,
      "Ġ1987": 3017,
      "Ġtouch": 3018,
      "Ġblue": 3019,
      "Ġhappy": 3020,
      "ata": 3021,
      "Ġextreme": 3022,
      "Ġbrother": 3023,
      "Ġtar": 3024,
      "acks": 3025,
      "Ġannounced": 3026,
      "Ġbud": 3027,
      "mercial": 3028,
      "Ġauthorities": 3029,
      "ĠQu": 3030,
      "Ġstructure": 3031,
      "ses": 3032,
      "Ġnorth": 3033,
      "ĠPal": 3034,
      "ctions": 3035,
      "Ġlength": 3036,
      "Ġpicture": 3037,
      "ees": 3038,
      "Ġnovel": 3039,
      "lied": 3040,
      "iles": 3041,
      "Ġdeli": 3042,
      "ĠQue": 3043,
      "ĠDemocr": 3044,
      "Ġfresh": 3045,
      "utive": 3046,
      "Ġkey": 3047,
      "umn": 3048,
      "Ġunlike": 3049,
      "Ġimage": 3050,
      "Ġlif": 3051,
      "irth": 3052,
      "ancy": 3053,
      "urance": 3054,
      "apter": 3055,
      "Ġcontinu": 3056,
      "Ġresults": 3057,
      "ashion": 3058,
      "Ġoil": 3059,
      "Ġamb": 3060,
      "No": 3061,
      "ope": 3062,
      "ĠAng": 3063,
      "Ġscheme": 3064,
      "ĠSu": 3065,
      "Ġwarm": 3066,
      "Ġeye": 3067,
      "ĠSeptember": 3068,
      "Ġfish": 3069,
      "ĠKe": 3070,
      "Ġestablish": 3071,
      "Ġlines": 3072,
      "ĠGeorge": 3073,
      "30": 3074,
      "Ġevents": 3075,
      "ĠMarch": 3076,
      "lection": 3077,
      "Ġhardly": 3078,
      "Ġapart": 3079,
      "Ġconn": 3080,
      "Ġexact": 3081,
      "aint": 3082,
      "Ġquestions": 3083,
      "ushed": 3084,
      "Ġpassed": 3085,
      "Ġdemonstr": 3086,
      "oul": 3087,
      "istry": 3088,
      "ateg": 3089,
      "Ġbelieved": 3090,
      "Ġissues": 3091,
      "Ġstandard": 3092,
      "Ġcompetition": 3093,
      "Ġkit": 3094,
      "Ġimpl": 3095,
      "BC": 3096,
      "Ġhit": 3097,
      "ett": 3098,
      "Ġdefe": 3099,
      "Ġadvant": 3100,
      "cul": 3101,
      "ĠMajor": 3102,
      "Ġport": 3103,
      "Ġ22": 3104,
      "Ġopin": 3105,
      "ĠCommission": 3106,
      "Ġinn": 3107,
      "icit": 3108,
      "ĠMP": 3109,
      "Ġ60": 3110,
      "inner": 3111,
      "Ġbanks": 3112,
      "ĠSmith": 3113,
      "Ġcouple": 3114,
      "cell": 3115,
      "oted": 3116,
      "Ġpropos": 3117,
      "vere": 3118,
      "ization": 3119,
      "wh": 3120,
      "ĠMon": 3121,
      "ĠWhite": 3122,
      "Ġbasis": 3123,
      "Ġrock": 3124,
      "Ġdoesn": 3125,
      "Ġcars": 3126,
      "ĠTwo": 3127,
      "Ġemot": 3128,
      "ĠMag": 3129,
      "Ġrefer": 3130,
      "road": 3131,
      "sych": 3132,
      "ĠSunday": 3133,
      "hester": 3134,
      "anch": 3135,
      "oper": 3136,
      "Ġleaving": 3137,
      "rawn": 3138,
      "Ġgenerally": 3139,
      "Ġprofessional": 3140,
      "Ġsusp": 3141,
      "ĠJuly": 3142,
      "atholic": 3143,
      "dom": 3144,
      "bridge": 3145,
      "Ġrap": 3146,
      "fast": 3147,
      "Ġgives": 3148,
      "Ġband": 3149,
      "Ġstar": 3150,
      "ĠGreen": 3151,
      "ĠIrish": 3152,
      "cy": 3153,
      "zer": 3154,
      "Ġrain": 3155,
      "Ġcircum": 3156,
      "Ġreligious": 3157,
      "chen": 3158,
      "Ġwish": 3159,
      "Ġpan": 3160,
      "orough": 3161,
      "Ġlevels": 3162,
      "och": 3163,
      "uel": 3164,
      "Ġvote": 3165,
      "ray": 3166,
      "erson": 3167,
      "Ġsatis": 3168,
      "Ġraised": 3169,
      "Ġsen": 3170,
      "Ġwild": 3171,
      "Ġdream": 3172,
      "Ġstrugg": 3173,
      "ĠBank": 3174,
      "Ġcaused": 3175,
      "Ġ21": 3176,
      "Ġshop": 3177,
      "Ġtwenty": 3178,
      "Ġwindow": 3179,
      "night": 3180,
      "Ġphil": 3181,
      "Ġestablished": 3182,
      "Ġanalys": 3183,
      "Ġmoving": 3184,
      "ĠCourt": 3185,
      "Ġarms": 3186,
      "Ġready": 3187,
      "Ġplanning": 3188,
      "ĠStates": 3189,
      "Ġopposition": 3190,
      "Ġhour": 3191,
      "sey": 3192,
      "ĠWales": 3193,
      "nces": 3194,
      "Ġplaces": 3195,
      "Ġminor": 3196,
      "Ġeasily": 3197,
      "Ġnegot": 3198,
      "Ġver": 3199,
      "using": 3200,
      "Ġprefer": 3201,
      "round": 3202,
      "Ġclosed": 3203,
      "onse": 3204,
      "Ġbeg": 3205,
      "ĠBoth": 3206,
      "ĠJapanese": 3207,
      "Ġhouses": 3208,
      "Ġhon": 3209,
      "Ġreb": 3210,
      "Ġdeg": 3211,
      "ĠWhile": 3212,
      "Ġcareer": 3213,
      "abor": 3214,
      "Ġaccess": 3215,
      "Ġexperi": 3216,
      "antic": 3217,
      "Ġfeat": 3218,
      "Ġvictory": 3219,
      "Ġemphas": 3220,
      "Ġmort": 3221,
      "ropri": 3222,
      "hood": 3223,
      "Ġthus": 3224,
      "Ġstrength": 3225,
      "Ġign": 3226,
      "Ġspeed": 3227,
      "Ġmult": 3228,
      "Ġforms": 3229,
      "Ġtrouble": 3230,
      "Ġincluded": 3231,
      "Ġwrite": 3232,
      "Ġreview": 3233,
      "Ġculture": 3234,
      "Ġanimals": 3235,
      "eal": 3236,
      "ĠMary": 3237,
      "Ġpattern": 3238,
      "hem": 3239,
      "Ġeat": 3240,
      "Ġstudents": 3241,
      "Ġcrowd": 3242,
      "Ġfat": 3243,
      "Ġsection": 3244,
      "Ġdeterm": 3245,
      "ĠBec": 3246,
      "Ġreturned": 3247,
      "Ġpage": 3248,
      "riage": 3249,
      "Ġcommercial": 3250,
      "Ġsharp": 3251,
      "Ġimmediately": 3252,
      "Ġrose": 3253,
      "Ġconcept": 3254,
      "Ġscient": 3255,
      "ixt": 3256,
      "Ġtheory": 3257,
      "Ġnewsp": 3258,
      "Ġspect": 3259,
      "ĠHen": 3260,
      "Ġtext": 3261,
      "Ġholiday": 3262,
      "Ġstation": 3263,
      "Ġbasic": 3264,
      "Ġbenefit": 3265,
      "oly": 3266,
      "Ġenter": 3267,
      "ĠCommun": 3268,
      "Ġtim": 3269,
      "Ġpolicies": 3270,
      "bs": 3271,
      "lt": 3272,
      "adem": 3273,
      "Ġaspect": 3274,
      "oring": 3275,
      "ques": 3276,
      "mas": 3277,
      "Ġpun": 3278,
      "Ġmention": 3279,
      "anged": 3280,
      "ĠMiss": 3281,
      "Ġwaiting": 3282,
      "Ġarrange": 3283,
      "aches": 3284,
      "Ġforced": 3285,
      "ĠUniversity": 3286,
      "ĠRoad": 3287,
      "Ġensure": 3288,
      "isl": 3289,
      "ashing": 3290,
      "There": 3291,
      "ĠCount": 3292,
      "Ġtruth": 3293,
      "udd": 3294,
      "Ġadop": 3295,
      "Ġsystems": 3296,
      "ny": 3297,
      "Ġreasons": 3298,
      "Ġwants": 3299,
      "Ġstandards": 3300,
      "Ġbreat": 3301,
      "rian": 3302,
      "Ġadvice": 3303,
      "Ġresponse": 3304,
      "mans": 3305,
      "isher": 3306,
      "icket": 3307,
      "Ġbought": 3308,
      "ĠEvery": 3309,
      "Ġbeautiful": 3310,
      "Ġindependent": 3311,
      "But": 3312,
      "rated": 3313,
      "ortion": 3314,
      "Ġhar": 3315,
      "irty": 3316,
      "ĠNove": 3317,
      "Ġcommittee": 3318,
      "Ġopening": 3319,
      "Ġbalance": 3320,
      "ocks": 3321,
      "ĠOnly": 3322,
      "Ġsignificant": 3323,
      "Ġpsych": 3324,
      "Ġwel": 3325,
      "Ġdism": 3326,
      "Ġtalking": 3327,
      "ban": 3328,
      "Ġreach": 3329,
      "ĠCr": 3330,
      "Ġdesigned": 3331,
      "Ġtravel": 3332,
      "Ġadminist": 3333,
      "Ġbelief": 3334,
      "Ġcreated": 3335,
      "Ġfamous": 3336,
      "Ġspirit": 3337,
      "Ġstopped": 3338,
      "ĠScottish": 3339,
      "Ġrepe": 3340,
      "olph": 3341,
      "Ġcomment": 3342,
      "Ġparliament": 3343,
      "gar": 3344,
      "Ġcell": 3345,
      "Ġuseful": 3346,
      "Ġbrief": 3347,
      "iced": 3348,
      "Ġnuc": 3349,
      "Ġprotect": 3350,
      "Ġfort": 3351,
      "ĠTre": 3352,
      "Ġstreet": 3353,
      "ĠAfrica": 3354,
      "ĠGreat": 3355,
      "ĠInternational": 3356,
      "aste": 3357,
      "ĠJanuary": 3358,
      "Ġremained": 3359,
      "Ġresour": 3360,
      "Ġhelped": 3361,
      "lig": 3362,
      "wing": 3363,
      "ston": 3364,
      "Ġreject": 3365,
      "Ġstick": 3366,
      "Ġleaves": 3367,
      "Ġassoc": 3368,
      "Ġgrant": 3369,
      "ĠFrank": 3370,
      "Ġlanguage": 3371,
      "omen": 3372,
      "Ġgoal": 3373,
      "Ġdetails": 3374,
      "Ġtom": 3375,
      "Ġspecific": 3376,
      "itect": 3377,
      "Ġarrived": 3378,
      "nal": 3379,
      "Ġterm": 3380,
      "EA": 3381,
      "Ġcele": 3382,
      "abinet": 3383,
      "Ġstanding": 3384,
      "Ġsuggested": 3385,
      "Ġshot": 3386,
      "Ġavoid": 3387,
      "Ġhospital": 3388,
      "Ġsitting": 3389,
      "Ġspread": 3390,
      "Ġcreate": 3391,
      "That": 3392,
      "ples": 3393,
      "Ġconfir": 3394,
      "Ġinvestig": 3395,
      "Ġbow": 3396,
      "eenth": 3397,
      "Ġbag": 3398,
      "Ġpet": 3399,
      "anging": 3400,
      "Ġgirls": 3401,
      "ĠQueen": 3402,
      "ĠRes": 3403,
      "aph": 3404,
      "ĠPerhaps": 3405,
      "Ġappeal": 3406,
      "ĠSuch": 3407,
      "ĠMill": 3408,
      "ooking": 3409,
      "Ġsecret": 3410,
      "ĠWestern": 3411,
      "Ġhighly": 3412,
      "Ġoccasion": 3413,
      "ĠNovember": 3414,
      "pir": 3415,
      "oned": 3416,
      "ander": 3417,
      "Ġaftern": 3418,
      "pre": 3419,
      "imate": 3420,
      "Ġeffective": 3421,
      "Ġdrive": 3422,
      "olk": 3423,
      "ĠAnother": 3424,
      "Ġvirt": 3425,
      "Ġclos": 3426,
      "ĠThom": 3427,
      "ingly": 3428,
      "Ġreading": 3429,
      "Ġprogress": 3430,
      "Ġ1991": 3431,
      "Ġsurface": 3432,
      "Ġscr": 3433,
      "Ġagreement": 3434,
      "Ġphilos": 3435,
      "kes": 3436,
      "Ġlived": 3437,
      "Ġprison": 3438,
      "Ġyourself": 3439,
      "Ġopportunity": 3440,
      "put": 3441,
      "ĠEnd": 3442,
      "urday": 3443,
      "Ġspeech": 3444,
      "ĠBrown": 3445,
      "Ġbudget": 3446,
      "uct": 3447,
      "Ġbab": 3448,
      "Ġhom": 3449,
      "Ġnumbers": 3450,
      "ĠSince": 3451,
      "Ġapplic": 3452,
      "Ġreported": 3453,
      "Ġrules": 3454,
      "Ġwinter": 3455,
      "Ġwouldn": 3456,
      "ĠSaturday": 3457,
      "ieties": 3458,
      "Ġdirection": 3459,
      "Ġnormal": 3460,
      "Ġcommit": 3461,
      "Ġlimited": 3462,
      "Ġslightly": 3463,
      "cle": 3464,
      "Ġiron": 3465,
      "Ġcash": 3466,
      "Ġarmy": 3467,
      "ĠHere": 3468,
      "orses": 3469,
      "Ġbound": 3470,
      "ĠBBC": 3471,
      "Ġvariety": 3472,
      "atre": 3473,
      "ĠSy": 3474,
      "Ġaccepted": 3475,
      "ĠEliot": 3476,
      "oz": 3477,
      "Ġbecomes": 3478,
      "Ġprofits": 3479,
      "Ġcontrast": 3480,
      "burg": 3481,
      "illy": 3482,
      "ĠOld": 3483,
      "bury": 3484,
      "Ġfreed": 3485,
      "Ġsenior": 3486,
      "Ġconvers": 3487,
      "apt": 3488,
      "ĠUNK": 3489,
      "ae": 3490,
      "ols": 3491,
      "Ġtitle": 3492,
      "ĠLew": 3493,
      "Ġtarget": 3494,
      "If": 3495,
      "rupt": 3496,
      "Ġdemocr": 3497,
      "Ġactivities": 3498,
      "Ġkitchen": 3499,
      "arian": 3500,
      "ĠClub": 3501,
      "ĠOffice": 3502,
      "ĠSocial": 3503,
      "Ġfaith": 3504,
      "ĠEm": 3505,
      "ems": 3506,
      "Ġsong": 3507,
      "Ġanc": 3508,
      "ishop": 3509,
      "Ġannual": 3510,
      "aud": 3511,
      "ocu": 3512,
      "phone": 3513,
      "Ġcelebr": 3514,
      "Ġanx": 3515,
      "ĠEl": 3516,
      "Ġlargely": 3517,
      "Ġce": 3518,
      "iations": 3519,
      "Ġfing": 3520,
      "Ġasse": 3521,
      "ai": 3522,
      "Ġcomputer": 3523,
      "Ġparticip": 3524,
      "itute": 3525,
      "Ġclothes": 3526,
      "Ġunless": 3527,
      "ipment": 3528,
      "Ġpowerful": 3529,
      "Ġintrodu": 3530,
      "Ġpath": 3531,
      "Ġneigh": 3532,
      "Ġsuddenly": 3533,
      "ek": 3534,
      "ĠOxford": 3535,
      "ĠJew": 3536,
      "Ġfully": 3537,
      "ĠReg": 3538,
      "ault": 3539,
      "Ġrich": 3540,
      "key": 3541,
      "ĠVict": 3542,
      "ĠSal": 3543,
      "ĠNorthern": 3544,
      "ially": 3545,
      "down": 3546,
      "lim": 3547,
      "ety": 3548,
      "Ġinstance": 3549,
      "ka": 3550,
      "Ġdry": 3551,
      "Ġdouble": 3552,
      "ĠPeople": 3553,
      "Ġorganis": 3554,
      "rol": 3555,
      "ĠAir": 3556,
      "Ġrule": 3557,
      "Ġargument": 3558,
      "unn": 3559,
      "Ġgrad": 3560,
      "Ġpolitic": 3561,
      "Ġopinion": 3562,
      "Ġafternoon": 3563,
      "pool": 3564,
      "Ġpound": 3565,
      "Ġcris": 3566,
      "Ġmale": 3567,
      "Ġuns": 3568,
      "Ġproducts": 3569,
      "Ġjudge": 3570,
      "Ġconsequ": 3571,
      "Ġability": 3572,
      "Ġbecoming": 3573,
      "ĠState": 3574,
      "sid": 3575,
      "aret": 3576,
      "Ġspending": 3577,
      "ĠHong": 3578,
      "Ġinterests": 3579,
      "employ": 3580,
      "Ġcontem": 3581,
      "Ġadvert": 3582,
      "Ġjoin": 3583,
      "Ġcircumst": 3584,
      "lict": 3585,
      "Ġodd": 3586,
      "ĠNig": 3587,
      "oms": 3588,
      "Ġperm": 3589,
      "ĠBlack": 3590,
      "And": 3591,
      "ulf": 3592,
      "ĠKinn": 3593,
      "Ġtea": 3594,
      "Ġcoff": 3595,
      "arr": 3596,
      "Ġfinally": 3597,
      "Ġfamilies": 3598,
      "Ġtemper": 3599,
      "estic": 3600,
      "Ġimposs": 3601,
      "Ġsand": 3602,
      "orters": 3603,
      "Ġcounter": 3604,
      "ĠUnder": 3605,
      "Ġrestrict": 3606,
      "Ġearn": 3607,
      "Ġoperation": 3608,
      "ĠLike": 3609,
      "Ġresponsible": 3610,
      "RA": 3611,
      "Ġmouth": 3612,
      "ĠFin": 3613,
      "Ġreality": 3614,
      "Ġaudience": 3615,
      "ĠMal": 3616,
      "Ġpresident": 3617,
      "Ġinteresting": 3618,
      "Ġfilms": 3619,
      "Ġsport": 3620,
      "iously": 3621,
      "tr": 3622,
      "Ġbirth": 3623,
      "Ġet": 3624,
      "Ġdisplay": 3625,
      "back": 3626,
      "ipe": 3627,
      "ĠTory": 3628,
      "ĠIts": 3629,
      "Ġnice": 3630,
      "Ġspring": 3631,
      "ĠTe": 3632,
      "Ġrecomm": 3633,
      "Ġdebate": 3634,
      "Ġactivity": 3635,
      "Ġarchitect": 3636,
      "unk": 3637,
      "Ġcandid": 3638,
      "ĠAcc": 3639,
      "Ġobtain": 3640,
      "Ġearth": 3641,
      "Ġinflation": 3642,
      "Ġprospect": 3643,
      "Ġradio": 3644,
      "Ġlatest": 3645,
      "ĠKinnock": 3646,
      "ĠHoll": 3647,
      "Ġconduct": 3648,
      "Ġadj": 3649,
      "Ġminute": 3650,
      "Ġolder": 3651,
      "Ġmarried": 3652,
      "overy": 3653,
      "Ġsight": 3654,
      "Ġfoc": 3655,
      "Ġ1986": 3656,
      "Ġachieved": 3657,
      "Ġsource": 3658,
      "Ġtrave": 3659,
      "Ġrestaur": 3660,
      "olute": 3661,
      "ores": 3662,
      "Ġfinished": 3663,
      "Ġtreatment": 3664,
      "Ġpark": 3665,
      "Ġowners": 3666,
      "Ġpresence": 3667,
      "Ġmanaged": 3668,
      "Ġconsiderable": 3669,
      "Ġexercise": 3670,
      "ĠLewis": 3671,
      "Ġnation": 3672,
      "ĠGold": 3673,
      "Ġterr": 3674,
      "ĠMarx": 3675,
      "Ġclaims": 3676,
      "light": 3677,
      "Ġdress": 3678,
      "Ġreduced": 3679,
      "Ġwhatever": 3680,
      "ĠCal": 3681,
      "ĠCong": 3682,
      "Ġproved": 3683,
      "Ġkilled": 3684,
      "Ġcompared": 3685,
      "Ġbird": 3686,
      "ented": 3687,
      "Ġenth": 3688,
      "Ġfarmers": 3689,
      "Ġinterview": 3690,
      "Oh": 3691,
      "Ġmur": 3692,
      "istance": 3693,
      "ĠEar": 3694,
      "Ġbelong": 3695,
      "Ġlearn": 3696,
      "ĠItal": 3697,
      "Ġbright": 3698,
      "They": 3699,
      "Ġrespond": 3700,
      "Ġexisting": 3701,
      "Ġsav": 3702,
      "Ġclaimed": 3703,
      "ĠCommunity": 3704,
      "Ġappears": 3705,
      "Ġnuclear": 3706,
      "bon": 3707,
      "Ġbomb": 3708,
      "itation": 3709,
      "Ġmerely": 3710,
      "Ġexactly": 3711,
      "Ġneg": 3712,
      "usi": 3713,
      "ĠFeb": 3714,
      "Ġworse": 3715,
      "order": 3716,
      "Ġpersu": 3717,
      "Ġcaught": 3718,
      "Ġnine": 3719,
      "ĠOur": 3720,
      "Ġjoined": 3721,
      "Ġisn": 3722,
      "Ġholding": 3723,
      "ĠAny": 3724,
      "Ġbattle": 3725,
      "rael": 3726,
      "ĠWhy": 3727,
      "ĠMarie": 3728,
      "Ġimportance": 3729,
      "Ġdim": 3730,
      "Ġdocu": 3731,
      "Ġtask": 3732,
      "Ġbid": 3733,
      "Ġbod": 3734,
      "Ġunf": 3735,
      "IS": 3736,
      "Ġconfidence": 3737,
      "ĠParliament": 3738,
      "Ġleadership": 3739,
      "roy": 3740,
      "Ġbiggest": 3741,
      "icated": 3742,
      "ript": 3743,
      "Ġphysical": 3744,
      "co": 3745,
      "ĠOnce": 3746,
      "Ġprotest": 3747,
      "ĠDepartment": 3748,
      "Ġalternative": 3749,
      "ike": 3750,
      "Ġnotice": 3751,
      "Ġexcell": 3752,
      "ĠItaly": 3753,
      "ĠKong": 3754,
      "shire": 3755,
      "Ġconsult": 3756,
      "uz": 3757,
      "ĠHall": 3758,
      "ionship": 3759,
      "Ġadvantage": 3760,
      "Ġmarkets": 3761,
      "Ġofficers": 3762,
      "Ġbes": 3763,
      "ĠApp": 3764,
      "ĠWell": 3765,
      "Ġappropri": 3766,
      "essed": 3767,
      "Ġgrass": 3768,
      "Ġcorner": 3769,
      "Ġdepart": 3770,
      "cember": 3771,
      "Ġcondition": 3772,
      "Ġborn": 3773,
      "ĠVictor": 3774,
      "ipped": 3775,
      "mi": 3776,
      "ties": 3777,
      "term": 3778,
      "Ġfailure": 3779,
      "Ġcircumstances": 3780,
      "Ġdate": 3781,
      "Ġplaced": 3782,
      "Ġdefin": 3783,
      "Ġnarrow": 3784,
      "com": 3785,
      "Ġministers": 3786,
      "Ġlegisl": 3787,
      "porary": 3788,
      "orks": 3789,
      "odd": 3790,
      "Ġequipment": 3791,
      "vant": 3792,
      "ĠSer": 3793,
      "ume": 3794,
      "Ġtransport": 3795,
      "Ġusual": 3796,
      "Ġregular": 3797,
      "Ġdolph": 3798,
      "ĠSam": 3799,
      "Ġjump": 3800,
      "ruary": 3801,
      "Ġknows": 3802,
      "ĠWilliam": 3803,
      "Ġspot": 3804,
      "Ġ200": 3805,
      "Ġdesire": 3806,
      "Ġedge": 3807,
      "Ġfunction": 3808,
      "ĠFer": 3809,
      "Ġspokes": 3810,
      "Ġaid": 3811,
      "Ġlose": 3812,
      "Ġstone": 3813,
      "Ġeffort": 3814,
      "ĠHenry": 3815,
      "bing": 3816,
      "hest": 3817,
      "...'": 3818,
      "ĠDecember": 3819,
      "ext": 3820,
      "Ġretain": 3821,
      "Ġarg": 3822,
      "Ġcompletely": 3823,
      "Ġshout": 3824,
      "Ġ191": 3825,
      "Ġinterested": 3826,
      "Ġeventually": 3827,
      "ĠLuc": 3828,
      "Ġpretty": 3829,
      "Ġcredit": 3830,
      "vered": 3831,
      "Ġstrange": 3832,
      "ether": 3833,
      "ellow": 3834,
      "Ġdepend": 3835,
      "Ġhappen": 3836,
      "iance": 3837,
      "Ġcry": 3838,
      "Ġletters": 3839,
      "Ġviews": 3840,
      "Ġresponsibility": 3841,
      "iate": 3842,
      "Ġsale": 3843,
      "Ġfashion": 3844,
      "Ġstatus": 3845,
      "Ġquarter": 3846,
      "Ġchallenge": 3847,
      "Ġimpossible": 3848,
      "ĠFebruary": 3849,
      "Ġexistence": 3850,
      "Ġchemical": 3851,
      "Ġsuc": 3852,
      "ĠRob": 3853,
      "ears": 3854,
      "teen": 3855,
      "Ġeffects": 3856,
      "ĠParis": 3857,
      "Ġhall": 3858,
      "osite": 3859,
      "Ġjoint": 3860,
      "Ġpurpose": 3861,
      "Ġrapid": 3862,
      "AL": 3863,
      "orry": 3864,
      "Ġmainly": 3865,
      "Ġsurround": 3866,
      "Ġextent": 3867,
      "Ġmodel": 3868,
      "ĠProt": 3869,
      "ios": 3870,
      "Ġhorses": 3871,
      "ĠManc": 3872,
      "akers": 3873,
      "mosp": 3874,
      "ĠWel": 3875,
      "Ġdirectly": 3876,
      "Ġdamage": 3877,
      "Ġatmosp": 3878,
      "Ġsector": 3879,
      "ulated": 3880,
      "Ġshape": 3881,
      "Ġflowers": 3882,
      "Ġweekend": 3883,
      "Ġbul": 3884,
      "ĠGroup": 3885,
      "Ġlargest": 3886,
      "Ġcompar": 3887,
      "ĠLeague": 3888,
      "ĠChristmas": 3889,
      "Ġmeaning": 3890,
      "Ġintroduced": 3891,
      "ĠWhere": 3892,
      "Ġdrop": 3893,
      "ĠSur": 3894,
      "ulations": 3895,
      "ender": 3896,
      "Ġsupply": 3897,
      "Ġdrama": 3898,
      "Ġcatch": 3899,
      "Ġnames": 3900,
      "Ġriver": 3901,
      "ancing": 3902,
      "Ġsumm": 3903,
      "ashed": 3904,
      "ĠBir": 3905,
      "ple": 3906,
      "Ġdiss": 3907,
      "ĠThus": 3908,
      "Ġfirms": 3909,
      "rom": 3910,
      "Ġaffect": 3911,
      "rid": 3912,
      "Ġz": 3913,
      "Ġgun": 3914,
      "Ġrid": 3915,
      "Ġking": 3916,
      "Ġfavourite": 3917,
      "Ġdropped": 3918,
      "ux": 3919,
      "Ġprem": 3920,
      "Ġconserv": 3921,
      "Ġideal": 3922,
      "Ġweak": 3923,
      "ĠWood": 3924,
      "Ġcheck": 3925,
      "ĠCommittee": 3926,
      "Ġmarriage": 3927,
      "ĠAustralia": 3928,
      "war": 3929,
      "verse": 3930,
      "ĠEas": 3931,
      "atter": 3932,
      "ille": 3933,
      "Ġwait": 3934,
      "Ġorigin": 3935,
      "Ġbottom": 3936,
      "Ġvictim": 3937,
      "Ġmotor": 3938,
      "Ġcriticism": 3939,
      "Ġpurch": 3940,
      "Ġbroken": 3941,
      "Ġadult": 3942,
      "Ġexpress": 3943,
      "ĠIsrael": 3944,
      "ĠII": 3945,
      "Ġ23": 3946,
      "Ġturning": 3947,
      "class": 3948,
      "Ġpractical": 3949,
      "Ġwalked": 3950,
      "ĠCont": 3951,
      "Ġspend": 3952,
      "Ġrefused": 3953,
      "Ġresources": 3954,
      "Ġenthusi": 3955,
      "IT": 3956,
      "iture": 3957,
      "osen": 3958,
      "Ġserved": 3959,
      "Ġunderstanding": 3960,
      "Ġseparate": 3961,
      "gen": 3962,
      "Ġnote": 3963,
      "Ġexchange": 3964,
      "Ġputting": 3965,
      "ĠLee": 3966,
      "ĠRobert": 3967,
      "Ġlarger": 3968,
      "rel": 3969,
      "Ġegg": 3970,
      "ĠTony": 3971,
      "uries": 3972,
      "Ġstates": 3973,
      "Ġscreen": 3974,
      "Ġempt": 3975,
      "Ġcorrect": 3976,
      "mm": 3977,
      "Ġselect": 3978,
      "Ġnone": 3979,
      "Ġanalysis": 3980,
      "ĠManchester": 3981,
      "olf": 3982,
      "Well": 3983,
      "Ġcontain": 3984,
      "ception": 3985,
      "Ġdistinct": 3986,
      "ĠEdward": 3987,
      "Ġdaughter": 3988,
      "raz": 3989,
      "Ġmeasure": 3990,
      "Ġsite": 3991,
      "Ġpurs": 3992,
      "Ġreports": 3993,
      "Ġconflict": 3994,
      "Ġreduce": 3995,
      "Ġexecutive": 3996,
      "ĠThomas": 3997,
      "Ġluck": 3998,
      "ĠHealth": 3999,
      "hens": 4000,
      "Ġincreasingly": 4001,
      "aven": 4002,
      "ker": 4003,
      "Ġfle": 4004,
      "Ġ26": 4005,
      "Ġunderst": 4006,
      "Ġacadem": 4007,
      "ught": 4008,
      "Ġdance": 4009,
      "Ġsmaller": 4010,
      "Ġrooms": 4011,
      "Ġsufficient": 4012,
      "Ġdebt": 4013,
      "net": 4014,
      "ada": 4015,
      "ama": 4016,
      "Ġprior": 4017,
      "ĠSecond": 4018,
      "Ġfreedom": 4019,
      "Ġdrawn": 4020,
      "ache": 4021,
      "Ġcommission": 4022,
      "Ġtypes": 4023,
      "Ġstuff": 4024,
      "Ġbuildings": 4025,
      "Ġneither": 4026,
      "Ġscene": 4027,
      "OU": 4028,
      "ĠMus": 4029,
      "craft": 4030,
      "Ġhero": 4031,
      "aped": 4032,
      "Ġaband": 4033,
      "Ġsupposed": 4034,
      "Ġmagaz": 4035,
      "Ġsources": 4036,
      "Yes": 4037,
      "Ġinev": 4038,
      "adow": 4039,
      "ĠMart": 4040,
      "Ġwithd": 4041,
      "ĠDuring": 4042,
      "Ġpredict": 4043,
      "Ġtalks": 4044,
      "ommod": 4045,
      "Ġdistrib": 4046,
      "ĠLiberal": 4047,
      "Ġfamiliar": 4048,
      "Ġtrib": 4049,
      "ĠTV": 4050,
      "Ġkick": 4051,
      "Ġgas": 4052,
      "aked": 4053,
      "theless": 4054,
      "encies": 4055,
      "Ġmax": 4056,
      "Ġrub": 4057,
      "Ġ27": 4058,
      "Ġdomin": 4059,
      "Ġlatter": 4060,
      "Ġton": 4061,
      "Ġstret": 4062,
      "ode": 4063,
      "ĠDist": 4064,
      "Ġtight": 4065,
      "Ġpil": 4066,
      "Ġscale": 4067,
      "ĠProf": 4068,
      "Ġentirely": 4069,
      "een": 4070,
      "llor": 4071,
      "Ġ28": 4072,
      "Ġequally": 4073,
      "Ġsurprising": 4074,
      "Ġsubstant": 4075,
      "ipp": 4076,
      "ĠEs": 4077,
      "Ġcalls": 4078,
      "acity": 4079,
      "ĠLast": 4080,
      "Ġremind": 4081,
      "Ġfootball": 4082,
      "idents": 4083,
      "emb": 4084,
      "ĠRed": 4085,
      "Ġfacilities": 4086,
      "ĠLet": 4087,
      "Ġdoct": 4088,
      "Ġfeed": 4089,
      "Ġbedroom": 4090,
      "Ġrelatively": 4091,
      "Ġexcellent": 4092,
      "Ġsac": 4093,
      "Ġsecretary": 4094,
      "Ġended": 4095,
      "ĠNigel": 4096,
      "Ġcoffee": 4097,
      "Ġtree": 4098,
      "Ġsad": 4099,
      "Ġharm": 4100,
      "ĠLa": 4101,
      "Ġrow": 4102,
      "Ġtroops": 4103,
      "quir": 4104,
      "Ġformed": 4105,
      "Ġoppon": 4106,
      "Ġsuit": 4107,
      "hetic": 4108,
      "ĠDiv": 4109,
      "Ġ1985": 4110,
      "Ġsurvey": 4111,
      "Ġprotection": 4112,
      "Ġversion": 4113,
      "ads": 4114,
      "ĠHit": 4115,
      "Ġdistance": 4116,
      "Ġreceive": 4117,
      "Ġofficials": 4118,
      "Ġmill": 4119,
      "outhern": 4120,
      "Ġpromot": 4121,
      "Ġtransfer": 4122,
      "ĠX": 4123,
      "ĠLl": 4124,
      "resp": 4125,
      "Ġcoal": 4126,
      "ference": 4127,
      "arant": 4128,
      "Ġmir": 4129,
      "Ġ1970": 4130,
      "bl": 4131,
      "aling": 4132,
      "Ġvast": 4133,
      "Ġcovered": 4134,
      "Ġmatters": 4135,
      "Ġdegree": 4136,
      "Ġartist": 4137,
      "Ġcrisis": 4138,
      "ĠItalian": 4139,
      "equ": 4140,
      "ĠDan": 4141,
      "Ġjobs": 4142,
      "Ġsucceed": 4143,
      "Ġburn": 4144,
      "Ġweap": 4145,
      "Ġconsist": 4146,
      "ĠSociety": 4147,
      "Ġsides": 4148,
      "Ġotherwise": 4149,
      "Ġconscious": 4150,
      "Ġrural": 4151,
      "oyd": 4152,
      "Ġdiscovered": 4153,
      "while": 4154,
      "Ġdetermined": 4155,
      "asm": 4156,
      "Ġbill": 4157,
      "Ġder": 4158,
      "Ġult": 4159,
      "ĠIndeed": 4160,
      "Ġraise": 4161,
      "Ġabsolute": 4162,
      "Ġsafety": 4163,
      "ifying": 4164,
      "Ġunemploy": 4165,
      "Ġsymp": 4166,
      "cont": 4167,
      "Ġmanufacture": 4168,
      "Ġtelephone": 4169,
      "ication": 4170,
      "Ġunit": 4171,
      "inson": 4172,
      "Ġdogs": 4173,
      "Ġweather": 4174,
      "Ġprove": 4175,
      "Ġroof": 4176,
      "ĠAmericans": 4177,
      "Ġslowly": 4178,
      "ING": 4179,
      "Ġphilosop": 4180,
      "Ġbath": 4181,
      "Ġsetting": 4182,
      "Ġregarded": 4183,
      "vest": 4184,
      "Ġenvironmental": 4185,
      "Ġsend": 4186,
      "iser": 4187,
      "utch": 4188,
      "Ġinstit": 4189,
      "Ġorganisation": 4190,
      "Ġstrike": 4191,
      "ius": 4192,
      "ĠSomet": 4193,
      "ding": 4194,
      "ĠMed": 4195,
      "Ġkill": 4196,
      "ĠGermans": 4197,
      "Ġhousing": 4198,
      "Ġexhib": 4199,
      "Ġtomorrow": 4200,
      "ications": 4201,
      "Ġworry": 4202,
      "Ġflow": 4203,
      "ĠService": 4204,
      "Ġpowers": 4205,
      "ĠTele": 4206,
      "ĠNever": 4207,
      "Ġimpact": 4208,
      "Ġruns": 4209,
      "ĠGrand": 4210,
      "Ġinvolve": 4211,
      "Ġdomestic": 4212,
      "orb": 4213,
      "ager": 4214,
      "Ġgets": 4215,
      "Ġshowing": 4216,
      "Ġappropriate": 4217,
      "Ġaccommod": 4218,
      "Ġfourth": 4219,
      "Ġmedia": 4220,
      "ingu": 4221,
      "ĠSch": 4222,
      "berg": 4223,
      "ellig": 4224,
      "ĠWilson": 4225,
      "ien": 4226,
      "Ġcarefully": 4227,
      "ĠPrince": 4228,
      "Ġdelight": 4229,
      "EC": 4230,
      "Ġthrow": 4231,
      "Ġep": 4232,
      "ĠRose": 4233,
      "Ġdecade": 4234,
      "itiz": 4235,
      "Ġeld": 4236,
      "Ġgent": 4237,
      "Ġsearch": 4238,
      "Ġtraff": 4239,
      "Ġdoctor": 4240,
      "pton": 4241,
      "Ġdemands": 4242,
      "ĠBerlin": 4243,
      "Ġmachine": 4244,
      "Ġut": 4245,
      "ivity": 4246,
      "Ġworst": 4247,
      "Ġwalking": 4248,
      "omin": 4249,
      "Ġfruit": 4250,
      "Ġseat": 4251,
      "Ġoffers": 4252,
      "Ġ70": 4253,
      "useum": 4254,
      "Ġordinary": 4255,
      "Ġdangerous": 4256,
      "amental": 4257,
      "ĠCambridge": 4258,
      "ns": 4259,
      "ulate": 4260,
      "ĠBecause": 4261,
      "Ġcourses": 4262,
      "Ġaddress": 4263,
      "Ġanimal": 4264,
      "lie": 4265,
      "hered": 4266,
      "Ġcup": 4267,
      "Ġfro": 4268,
      "osl": 4269,
      "Ġchapter": 4270,
      "ardens": 4271,
      "Ġexplain": 4272,
      "Ġveh": 4273,
      "Ġfeatures": 4274,
      "Ġunable": 4275,
      "Ġexpensive": 4276,
      "Ġguarant": 4277,
      "Ġwinning": 4278,
      "Ġconstit": 4279,
      "know": 4280,
      "Ġprinciple": 4281,
      "Ġdefeat": 4282,
      "ĠJe": 4283,
      "Ġpictures": 4284,
      "Ġshops": 4285,
      "Ġelectric": 4286,
      "Ġgovernments": 4287,
      "rim": 4288,
      "oral": 4289,
      "Ġforget": 4290,
      "agon": 4291,
      "Ġextremely": 4292,
      "chan": 4293,
      "Ġenorm": 4294,
      "Ġsymb": 4295,
      "Ġprovides": 4296,
      "Ġstatement": 4297,
      "Ġsuggests": 4298,
      "ennis": 4299,
      "Ġillust": 4300,
      "lies": 4301,
      "Ġgri": 4302,
      "ĠChina": 4303,
      "Ġcruc": 4304,
      "Ġexplained": 4305,
      "Ġofficer": 4306,
      "Ġrevolution": 4307,
      "Ġfemale": 4308,
      "Ġatmosphere": 4309,
      "egr": 4310,
      "anks": 4311,
      "ara": 4312,
      "AS": 4313,
      "Ġhomes": 4314,
      "ellect": 4315,
      "Ġopposite": 4316,
      "Ġ.": 4317,
      "ĠMil": 4318,
      "usse": 4319,
      "Ġdecide": 4320,
      "Ġtechnology": 4321,
      "Ġfunds": 4322,
      "how": 4323,
      "ĠPre": 4324,
      "Ġwrites": 4325,
      "Ġ1979": 4326,
      "Ġcam": 4327,
      "col": 4328,
      "Ġtwice": 4329,
      "Ġdisappoint": 4330,
      "rant": 4331,
      "Ġprime": 4332,
      "Ġcultural": 4333,
      "Ġsteps": 4334,
      "ĠEastern": 4335,
      "part": 4336,
      "ugg": 4337,
      "ĠGood": 4338,
      "ĠJay": 4339,
      "Ġinsurance": 4340,
      "ĠHitler": 4341,
      "Ġring": 4342,
      "Ġaccompan": 4343,
      "Ġunlikely": 4344,
      "ĠBen": 4345,
      "Ġpray": 4346,
      "Ġrelax": 4347,
      "Ġprovision": 4348,
      "Ġreplace": 4349,
      "Ġmessage": 4350,
      "Ġlog": 4351,
      "Ġsubsid": 4352,
      "Ġproviding": 4353,
      "Ġlegs": 4354,
      "Ġproposed": 4355,
      "Ġapparently": 4356,
      "wick": 4357,
      "ĠPri": 4358,
      "lets": 4359,
      "Ġproceed": 4360,
      "Ġindividuals": 4361,
      "ĠDespite": 4362,
      "Ġdies": 4363,
      "Ġgrown": 4364,
      "ĠMond": 4365,
      "Ġarrest": 4366,
      "Ġfighting": 4367,
      "IC": 4368,
      "iant": 4369,
      "Ġfasc": 4370,
      "Ġgames": 4371,
      "Ġplayer": 4372,
      "19": 4373,
      "Ġlaug": 4374,
      "ĠThose": 4375,
      "Ġkeeping": 4376,
      "Ġwine": 4377,
      "ici": 4378,
      "Ġthick": 4379,
      "This": 4380,
      "uine": 4381,
      "icles": 4382,
      "Ġninet": 4383,
      "ĠWed": 4384,
      "unched": 4385,
      "Ġapplied": 4386,
      "Ġprofit": 4387,
      "Ġunions": 4388,
      "Ġselling": 4389,
      "Ġgreatest": 4390,
      "cer": 4391,
      "pret": 4392,
      "vis": 4393,
      "Ġdinner": 4394,
      "ĠTrent": 4395,
      "Ġpartly": 4396,
      "Ġfeature": 4397,
      "Ġfinance": 4398,
      "Ġassess": 4399,
      "ĠFranc": 4400,
      "Ġ80": 4401,
      "Ġduty": 4402,
      "icial": 4403,
      "ĠCabinet": 4404,
      "ĠChance": 4405,
      "ĠCentral": 4406,
      "based": 4407,
      "ĠBoard": 4408,
      "ĠHel": 4409,
      "agues": 4410,
      "Ġpossibility": 4411,
      "Ġmut": 4412,
      "Ġdata": 4413,
      "Ġcapt": 4414,
      "Ġseeing": 4415,
      "ĠCommon": 4416,
      "Ġwalls": 4417,
      "Ġwidely": 4418,
      "Ġchoose": 4419,
      "Ġsick": 4420,
      "ĠBR": 4421,
      "Ġplus": 4422,
      "Ġattitude": 4423,
      "Ġpresented": 4424,
      "ĠAfrican": 4425,
      "uild": 4426,
      "Ġge": 4427,
      "Don": 4428,
      "ĠPan": 4429,
      "Ġflo": 4430,
      "ĠClass": 4431,
      "Ġjournal": 4432,
      "Ġthousands": 4433,
      "Ġbodies": 4434,
      "Ġaward": 4435,
      "Ġrhy": 4436,
      "Ġsoil": 4437,
      "Ġresign": 4438,
      "Ġconstitution": 4439,
      "cr": 4440,
      "uous": 4441,
      "Ġyouth": 4442,
      "Ġscore": 4443,
      "Ġunderstood": 4444,
      "Ġpal": 4445,
      "Ġdie": 4446,
      "Ġframe": 4447,
      "Ġmethods": 4448,
      "Ġviolence": 4449,
      "Ġlie": 4450,
      "Ġloyal": 4451,
      "Ġpointed": 4452,
      "Ġskills": 4453,
      "Ġconvention": 4454,
      "Ġhung": 4455,
      "Ġeth": 4456,
      "Ġunits": 4457,
      "Ġattractive": 4458,
      "Ġobviously": 4459,
      "ey": 4460,
      "Ġplenty": 4461,
      "Ġroute": 4462,
      "20": 4463,
      "Ġlift": 4464,
      "ĠSchool": 4465,
      "ĠStr": 4466,
      "Ġreaction": 4467,
      "ĠGree": 4468,
      "Ġtrack": 4469,
      "Ġoverall": 4470,
      "Ġspoke": 4471,
      "ogue": 4472,
      "ails": 4473,
      "Ġstudent": 4474,
      "ography": 4475,
      "Ġcard": 4476,
      "Ġlies": 4477,
      "Ġmechan": 4478,
      "Ġpool": 4479,
      "Ġpieces": 4480,
      "ĠHome": 4481,
      "osc": 4482,
      "Ġ29": 4483,
      "Ġreaders": 4484,
      "Ġcommitment": 4485,
      "ĠAccording": 4486,
      "ET": 4487,
      "ari": 4488,
      "ĠDor": 4489,
      "Ġ1983": 4490,
      "Ġgenuine": 4491,
      "alty": 4492,
      "Ġisland": 4493,
      "Ġseats": 4494,
      "Ġunus": 4495,
      "Ġapprec": 4496,
      "Ġefforts": 4497,
      "Ġbelieves": 4498,
      "Ġlabour": 4499,
      "Ġgar": 4500,
      "Ġgrey": 4501,
      "Ġblock": 4502,
      "ĠCatholic": 4503,
      "Ġintellect": 4504,
      "In": 4505,
      "Ġborrow": 4506,
      "Ġsemi": 4507,
      "Ġreck": 4508,
      "Ġacid": 4509,
      "ĠDistrict": 4510,
      "what": 4511,
      "Ġswim": 4512,
      "Ġwatched": 4513,
      "Ġliked": 4514,
      "Ġdepartment": 4515,
      "Ġaircraft": 4516,
      "Ġsolid": 4517,
      "ĠConservatives": 4518,
      "She": 4519,
      "Ġpartners": 4520,
      "Ġpulled": 4521,
      "Ġbaby": 4522,
      "Ġchosen": 4523,
      "unately": 4524,
      "Ġsave": 4525,
      "Ġprint": 4526,
      "Ġprogrammes": 4527,
      "worth": 4528,
      "Ġpure": 4529,
      "Ġcontext": 4530,
      "Ġdecline": 4531,
      "Ġdismiss": 4532,
      "Ġ500": 4533,
      "Ġproportion": 4534,
      "Ġoblig": 4535,
      "Ġpaint": 4536,
      "Ġadmitted": 4537,
      "Ġdiscussion": 4538,
      "Ġspokesman": 4539,
      "fra": 4540,
      "ishes": 4541,
      "ĠRam": 4542,
      "Ġintended": 4543,
      "Ġestim": 4544,
      "Ġemerg": 4545,
      "Ġintellig": 4546,
      "Ġimpress": 4547,
      "Ġmurder": 4548,
      "ĠLucy": 4549,
      "Ġinstitutions": 4550,
      "Ġsch": 4551,
      "Ġinternal": 4552,
      "ĠSl": 4553,
      "igg": 4554,
      "Ġowner": 4555,
      "Ġrelated": 4556,
      "Ġwindows": 4557,
      "hand": 4558,
      "Ġthin": 4559,
      "ĠKen": 4560,
      "Ġaccur": 4561,
      "Ġconcl": 4562,
      "Ġappearance": 4563,
      "Ġbond": 4564,
      "uls": 4565,
      "Ġheads": 4566,
      "Ġfinding": 4567,
      "ricult": 4568,
      "atically": 4569,
      "Ġcy": 4570,
      "Ġlit": 4571,
      "Ġstro": 4572,
      "aints": 4573,
      "Ġgeneration": 4574,
      "century": 4575,
      "lor": 4576,
      "Ġwit": 4577,
      "ĠWater": 4578,
      "Ġlimit": 4579,
      "Ġsquare": 4580,
      "Ġimmediate": 4581,
      "Ġphotograph": 4582,
      "eper": 4583,
      "Ġrough": 4584,
      "ĠPound": 4585,
      "Ġskin": 4586,
      "Ġelections": 4587,
      "Ġenjoyed": 4588,
      "ylie": 4589,
      "Ġproposals": 4590,
      "Ġancient": 4591,
      "inem": 4592,
      "Ġheat": 4593,
      "Ġbackground": 4594,
      "Ġsubsequ": 4595,
      "ĠCentre": 4596,
      "Ġintegr": 4597,
      "Ġwriter": 4598,
      "Ġsharehold": 4599,
      "essor": 4600,
      "ĠJose": 4601,
      "Ġvalues": 4602,
      "40": 4603,
      "EL": 4604,
      "Ġcas": 4605,
      "Ġsevent": 4606,
      "Ġcoast": 4607,
      "Ġelement": 4608,
      "Ġargued": 4609,
      "ica": 4610,
      "ĠJane": 4611,
      "mingham": 4612,
      "iples": 4613,
      "Ġcustomers": 4614,
      "Ġempty": 4615,
      "zen": 4616,
      "Ġenem": 4617,
      "Ġcommand": 4618,
      "Ġpolicem": 4619,
      "Ġprofession": 4620,
      "Ġmedical": 4621,
      "Ġfrequently": 4622,
      "Ġnewspaper": 4623,
      "ĠBro": 4624,
      "Ġsuspect": 4625,
      "Ġdifficulties": 4626,
      "Ġradical": 4627,
      "annel": 4628,
      "Ġpapers": 4629,
      "ĠTom": 4630,
      "Ġstress": 4631,
      "Ġagricult": 4632,
      "ĠArab": 4633,
      "Ġdriving": 4634,
      "Ġasking": 4635,
      "Ġexcl": 4636,
      "Ġboys": 4637,
      "Ġassociated": 4638,
      "10": 4639,
      "writ": 4640,
      "ĠPet": 4641,
      "Ġactive": 4642,
      "Ġcrime": 4643,
      "Ġcheap": 4644,
      "Ġpleasure": 4645,
      "ĠRepublic": 4646,
      "ĠCongress": 4647,
      "Ġtraffic": 4648,
      "ĠMer": 4649,
      "ĠBur": 4650,
      "ĠLeon": 4651,
      "Ġequal": 4652,
      "Ġeasier": 4653,
      "standing": 4654,
      "Ġdaily": 4655,
      "ooth": 4656,
      "ĠBill": 4657,
      "ĠOver": 4658,
      "Ġaccident": 4659,
      "Ġmanagers": 4660,
      "Ġfaces": 4661,
      "Ġsister": 4662,
      "ushing": 4663,
      "ĠRec": 4664,
      "eless": 4665,
      "Ġcapacity": 4666,
      "Ġstreets": 4667,
      "Ġveget": 4668,
      "hall": 4669,
      "Ġpair": 4670,
      "Ġmental": 4671,
      "Ġlab": 4672,
      "ĠRussian": 4673,
      "lege": 4674,
      "ĠHot": 4675,
      "Ġdecisions": 4676,
      "Ġ35": 4677,
      "Ġdefend": 4678,
      "Ġ1992": 4679,
      "Ġsnow": 4680,
      "known": 4681,
      "ĠBirmingham": 4682,
      "ID": 4683,
      "uke": 4684,
      "Ġlunch": 4685,
      "Ġvital": 4686,
      "Ġapply": 4687,
      "Ġacknow": 4688,
      "Ġnormally": 4689,
      "Ġprecise": 4690,
      "ĠWall": 4691,
      "ĠDef": 4692,
      "Ġpossibly": 4693,
      "Ġhighest": 4694,
      "ĠTest": 4695,
      "Ġgrew": 4696,
      "iable": 4697,
      "Ġbeer": 4698,
      "ĠGra": 4699,
      "Ġlect": 4700,
      "Ġcontent": 4701,
      "Ġcommitted": 4702,
      "Ġrelief": 4703,
      "Ġrising": 4704,
      "Ġhadn": 4705,
      "new": 4706,
      "Ġautumn": 4707,
      "Ġseriously": 4708,
      "xual": 4709,
      "Ġdise": 4710,
      "Ġsupporters": 4711,
      "Ġgoods": 4712,
      "Ġcorpor": 4713,
      "Ġmetal": 4714,
      "Ġhopes": 4715,
      "Ġtiny": 4716,
      "ching": 4717,
      "Ġseek": 4718,
      "Ġdivision": 4719,
      "Ġwatching": 4720,
      "Ġpoliticians": 4721,
      "Ġwear": 4722,
      "Ġpeas": 4723,
      "Ġscar": 4724,
      "Ġarticle": 4725,
      "Ġbrew": 4726,
      "Ġdifficulty": 4727,
      "Ġfalling": 4728,
      "ĠDivision": 4729,
      "tle": 4730,
      "Ġpension": 4731,
      "ĠPort": 4732,
      "Ġaged": 4733,
      "Ġperman": 4734,
      "Ġrecession": 4735,
      "Ġfactors": 4736,
      "Ġestate": 4737,
      "Ġcritical": 4738,
      "force": 4739,
      "Ġlegislation": 4740,
      "ino": 4741,
      "ĠComp": 4742,
      "Ġoffering": 4743,
      "Ġcool": 4744,
      "Ġ1984": 4745,
      "ĠFriday": 4746,
      "Ġmemory": 4747,
      "Ġincludes": 4748,
      "Ġautom": 4749,
      "Ġcollection": 4750,
      "inter": 4751,
      "Ġstories": 4752,
      "Ġsuppose": 4753,
      "Ġstarting": 4754,
      "Ġchanging": 4755,
      "Ġsuffered": 4756,
      "ĠCommunist": 4757,
      "Ġsought": 4758,
      "Ġinh": 4759,
      "Ġshut": 4760,
      "Ġattend": 4761,
      "Ġconfident": 4762,
      "Ġdeclared": 4763,
      "Ġdestroy": 4764,
      "embered": 4765,
      "gl": 4766,
      "Ġcook": 4767,
      "Ġlaid": 4768,
      "Ġeast": 4769,
      "istics": 4770,
      "Ġuniversity": 4771,
      "Ġscience": 4772,
      "Ġreplied": 4773,
      "Ġsoldiers": 4774,
      "Ġwelcome": 4775,
      "ĠChancellor": 4776,
      "60": 4777,
      "ait": 4778,
      "Ġforgot": 4779,
      "ĠAut": 4780,
      "rative": 4781,
      "Ġcateg": 4782,
      "oked": 4783,
      "Ġinstruct": 4784,
      "Ġcurren": 4785,
      "Ġlaws": 4786,
      "Ġsurprise": 4787,
      "Ġinjury": 4788,
      "Ġdrugs": 4789,
      "Ġgall": 4790,
      "ĠCap": 4791,
      "raq": 4792,
      "ĠKylie": 4793,
      "Ġmarked": 4794,
      "Ġsupported": 4795,
      "Ġelsewhere": 4796,
      "Ġobserv": 4797,
      "Ġsweet": 4798,
      "ĠMonday": 4799,
      "board": 4800,
      "gent": 4801,
      "Ġdramatic": 4802,
      "urally": 4803,
      "Ġmanner": 4804,
      "Ġterror": 4805,
      "ĠArmy": 4806,
      "ĠLiver": 4807,
      "Ġcolleagues": 4808,
      "ĠLloyd": 4809,
      "rehens": 4810,
      "aine": 4811,
      "quar": 4812,
      "ĠOp": 4813,
      "Ġunivers": 4814,
      "Ġrefere": 4815,
      "Ġtelling": 4816,
      "Ġfairly": 4817,
      "Ġpock": 4818,
      "Ġisol": 4819,
      "Ġexcess": 4820,
      "Ġadvance": 4821,
      "Ġopportun": 4822,
      "Ġought": 4823,
      "Ġheight": 4824,
      "iring": 4825,
      "ĠHam": 4826,
      "ĠDot": 4827,
      "Ġmoral": 4828,
      "ĠSimon": 4829,
      "ĠHung": 4830,
      "Ġflight": 4831,
      "Ġelements": 4832,
      "Ġoperations": 4833,
      "ais": 4834,
      "kin": 4835,
      "Ġmaster": 4836,
      "ĠTories": 4837,
      "ĠAN": 4838,
      "Ġcharges": 4839,
      "million": 4840,
      "Ġsust": 4841,
      "Ġregion": 4842,
      "Ġgrounds": 4843,
      "Ġtechnical": 4844,
      "ĠMartin": 4845,
      "point": 4846,
      "Ġcitiz": 4847,
      "Ġyellow": 4848,
      "Ġtreated": 4849,
      "25": 4850,
      "Ġbare": 4851,
      "Ġbear": 4852,
      "Ġeating": 4853,
      "ĠChel": 4854,
      "olved": 4855,
      "rible": 4856,
      "iveness": 4857,
      "rave": 4858,
      "Ġsports": 4859,
      "ĠKar": 4860,
      "Ġentertain": 4861,
      "Ġappointed": 4862,
      "Ġwest": 4863,
      "Ġhabit": 4864,
      "Ġbroke": 4865,
      "Ġstudies": 4866,
      "Ġmilk": 4867,
      "Ġwaste": 4868,
      "Ġdoll": 4869,
      "Ġexpression": 4870,
      "Ġformal": 4871,
      "Ġtall": 4872,
      "Ġhat": 4873,
      "Ġwearing": 4874,
      "Ġalt": 4875,
      "Ġmaximum": 4876,
      "Ġmood": 4877,
      "Ġalle": 4878,
      "Ġremoved": 4879,
      "Ġexpressed": 4880,
      "Ġreplaced": 4881,
      "ĠGlas": 4882,
      "Ġteachers": 4883,
      "Ġexperienced": 4884,
      "ĠWelsh": 4885,
      "Ġmic": 4886,
      "throp": 4887,
      "Ġvide": 4888,
      "alling": 4889,
      "Ġroy": 4890,
      "Ġplanned": 4891,
      "Ġclasses": 4892,
      "Ġencourage": 4893,
      "Ġbeside": 4894,
      "Ġrelease": 4895,
      "Ġpicked": 4896,
      "RE": 4897,
      "mph": 4898,
      "Ġwealth": 4899,
      "oles": 4900,
      "Ġwilling": 4901,
      "Ġremembered": 4902,
      "Ġrhyth": 4903,
      "IL": 4904,
      "ĠThough": 4905,
      "Ġinterpret": 4906,
      "Ġartists": 4907,
      "Ġcaptain": 4908,
      "Ġinvestors": 4909,
      "Ġwid": 4910,
      "Ġplain": 4911,
      "Ġsmile": 4912,
      "Ġkinds": 4913,
      "Ġvoters": 4914,
      "Ġpoetry": 4915,
      "apes": 4916,
      "Ġaffected": 4917,
      "Ġattempts": 4918,
      "ription": 4919,
      "ĠDer": 4920,
      "luded": 4921,
      "nesday": 4922,
      "ederal": 4923,
      "ha": 4924,
      "Ġnurs": 4925,
      "ĠIraq": 4926,
      "Ġbrain": 4927,
      "Ġbrown": 4928,
      "99": 4929,
      "How": 4930,
      "Ġtack": 4931,
      "Ġhun": 4932,
      "ĠSand": 4933,
      "Ġteaching": 4934,
      "Ġdesper": 4935,
      "Ġreput": 4936,
      "Ġconstruct": 4937,
      "Ġdocument": 4938,
      "ĠProtest": 4939,
      "ĠLiverpool": 4940,
      "orial": 4941,
      "otic": 4942,
      "Ġ31": 4943,
      "izing": 4944,
      "Ġlaunched": 4945,
      "Ġmeasures": 4946,
      "Ġtaste": 4947,
      "Ġneighbour": 4948,
      "Ġfurn": 4949,
      "aved": 4950,
      "ĠClar": 4951,
      "Ġrecords": 4952,
      "wich": 4953,
      "ĠTur": 4954,
      "ĠSpe": 4955,
      "ĠIndian": 4956,
      "Ġreleased": 4957,
      "etary": 4958,
      "Ġfallen": 4959,
      "Ġtrip": 4960,
      "Ġtotally": 4961,
      "gow": 4962,
      "inent": 4963,
      "ĠAlex": 4964,
      "Ġselection": 4965,
      "ungo": 4966,
      "ĠMiller": 4967,
      "Ġcrop": 4968,
      "asters": 4969,
      "Ġdiet": 4970,
      "Ġlic": 4971,
      "ĠAnt": 4972,
      "Ġshared": 4973,
      "Ġboat": 4974,
      "Ġtrading": 4975,
      "Ġaspects": 4976,
      "respond": 4977,
      "ington": 4978,
      "Ġthirty": 4979,
      "abled": 4980,
      "ĠSpain": 4981,
      "Ġescape": 4982,
      "Ġsatisf": 4983,
      "ĠLand": 4984,
      "ĠRA": 4985,
      "ĠNorm": 4986,
      "Ġoverse": 4987,
      "ĠAlan": 4988,
      "ducing": 4989,
      "Ġsigns": 4990,
      "Ġbreakfast": 4991,
      "ĠCollege": 4992,
      "Ġdrawing": 4993,
      "itudes": 4994,
      "Ġmortg": 4995,
      "Ġcos": 4996,
      "usted": 4997,
      "ĠJim": 4998,
      "Ġcrim": 4999,
      "Ġphr": 5000,
      "ĠRev": 5001,
      "Ġtransform": 5002,
      "Ġsli": 5003,
      "orter": 5004,
      "ĠIm": 5005,
      "urches": 5006,
      "ĠCompan": 5007,
      "Ġ1960": 5008,
      "Ġbenefits": 5009,
      "ĠDemocrats": 5010,
      "Ġnerv": 5011,
      "owing": 5012,
      "Ġpassion": 5013,
      "Ġlaunch": 5014,
      "rig": 5015,
      "Ġfilled": 5016,
      "ĠIT": 5017,
      "ĠRome": 5018,
      "ĠAnn": 5019,
      "Ġaccounts": 5020,
      "Ġfault": 5021,
      "Ġhistorical": 5022,
      "Ġcrucial": 5023,
      "500": 5024,
      "orne": 5025,
      "ĠMungo": 5026,
      "Ġexplan": 5027,
      "ĠSpan": 5028,
      "Ġfundamental": 5029,
      "ĠForeign": 5030,
      "pm": 5031,
      "Ġnamed": 5032,
      "ĠBell": 5033,
      "ensions": 5034,
      "Ġaffairs": 5035,
      "ĠBefore": 5036,
      "Ġliterature": 5037,
      "Ġwonderful": 5038,
      "Ġtheatre": 5039,
      "Ġdelic": 5040,
      "Ġsevere": 5041,
      "Ġreligion": 5042,
      "Ġenormous": 5043,
      "han": 5044,
      "Ġfixed": 5045,
      "Ġdoors": 5046,
      "Ġmargin": 5047,
      "Ġbadly": 5048,
      "Ġi": 5049,
      "urt": 5050,
      "ĠBush": 5051,
      "ĠBet": 5052,
      "ĠHill": 5053,
      "Ġshr": 5054,
      "ĠYorks": 5055,
      "Ġevolution": 5056,
      "Ġclosely": 5057,
      "Ġcarrying": 5058,
      "Ġtow": 5059,
      "ĠDel": 5060,
      "Ġsmell": 5061,
      "ĠArt": 5062,
      "Ġpassing": 5063,
      "ĠMcL": 5064,
      "Ġjourney": 5065,
      "Ġrein": 5066,
      "ĠThree": 5067,
      "ĠChamp": 5068,
      "Ġhappens": 5069,
      "Ġrecorded": 5070,
      "Ġpositive": 5071,
      "rical": 5072,
      "ĠFar": 5073,
      "Ġoutl": 5074,
      "Ġ45": 5075,
      "Ġstrate": 5076,
      "Ġbringing": 5077,
      "Ġdelay": 5078,
      "Ġspectac": 5079,
      "under": 5080,
      "ller": 5081,
      "Ġshoot": 5082,
      "Ġregime": 5083,
      "Ġguide": 5084,
      "Ġstrategy": 5085,
      "bel": 5086,
      "sea": 5087,
      "Ġfrag": 5088,
      "ula": 5089,
      "ĠNat": 5090,
      "Ġinstitution": 5091,
      "Ġproperly": 5092,
      "Ġsolution": 5093,
      "imately": 5094,
      "Ġconver": 5095,
      "ĠDire": 5096,
      "ĠJac": 5097,
      "Ġseeking": 5098,
      "ĠVal": 5099,
      "Ġmarketing": 5100,
      "Ġelder": 5101,
      "ĠWednesday": 5102,
      "Ġrat": 5103,
      "hers": 5104,
      "iform": 5105,
      "Ġexplo": 5106,
      "ĠTrans": 5107,
      "Ġfellow": 5108,
      "Ġstruggle": 5109,
      "Ġsubstantial": 5110,
      ".,": 5111,
      "iques": 5112,
      "Ġpup": 5113,
      "Ġconce": 5114,
      "Ġyounger": 5115,
      "ĠIndia": 5116,
      "bro": 5117,
      "cks": 5118,
      "lls": 5119,
      "ĠSqu": 5120,
      "Ġsomewhere": 5121,
      "rence": 5122,
      "Ġkeen": 5123,
      "Ġmaterials": 5124,
      "OM": 5125,
      "itors": 5126,
      "market": 5127,
      "Ġrepeated": 5128,
      "lem": 5129,
      "ĠCom": 5130,
      "Ġproced": 5131,
      "essions": 5132,
      "Ġshel": 5133,
      "ĠKn": 5134,
      "Ġterrit": 5135,
      "Ġdeveloping": 5136,
      "Ġcareful": 5137,
      "uce": 5138,
      "rie": 5139,
      "Ġvan": 5140,
      "Ġleaf": 5141,
      "Ġextended": 5142,
      "ĠMorgan": 5143,
      "ĠTod": 5144,
      "Ġvision": 5145,
      "anches": 5146,
      "Ġ300": 5147,
      "Ġentered": 5148,
      "ĠMPs": 5149,
      "Ġice": 5150,
      "alle": 5151,
      "ĠEach": 5152,
      "usive": 5153,
      "Ġserve": 5154,
      "ĠGlasgow": 5155,
      "idden": 5156,
      "Ġtheme": 5157,
      "Ġremaining": 5158,
      "Ġbuying": 5159,
      "Ġ1982": 5160,
      "Ġdistingu": 5161,
      "Ġcutting": 5162,
      "Ġmagazine": 5163,
      "oo": 5164,
      "ship": 5165,
      "eron": 5166,
      "Ġhaven": 5167,
      "Ġprev": 5168,
      "ĠInstead": 5169,
      "Ġvirtually": 5170,
      "arrass": 5171,
      "Ġgentle": 5172,
      "Ġintellectual": 5173,
      "fraid": 5174,
      "Ġlad": 5175,
      "ĠWashing": 5176,
      "Ġcompens": 5177,
      "ga": 5178,
      "Ġec": 5179,
      "Ġseed": 5180,
      "abeth": 5181,
      "Ġgoals": 5182,
      "Ġfears": 5183,
      "Ġimagine": 5184,
      "rough": 5185,
      "Ġwing": 5186,
      "Ġwhis": 5187,
      "ĠFur": 5188,
      "Ġconstruction": 5189,
      "Ġprinciples": 5190,
      "ĠJoseph": 5191,
      "Ġafraid": 5192,
      "ria": 5193,
      "Ġspons": 5194,
      "Ġrevealed": 5195,
      "lean": 5196,
      "Ġsuitable": 5197,
      "anda": 5198,
      "Ġdifferences": 5199,
      "ugby": 5200,
      "Ġsuffering": 5201,
      "Ġlearned": 5202,
      "Ġsilver": 5203,
      "Ġclubs": 5204,
      "ĠAgain": 5205,
      "Ġopportunities": 5206,
      "ĠWashington": 5207,
      "Ġprivat": 5208,
      "Ġ90": 5209,
      "Ġsounds": 5210,
      "Ġcinem": 5211,
      "asy": 5212,
      "umph": 5213,
      "Ġje": 5214,
      "Ġ1981": 5215,
      "Ġdealing": 5216,
      "Ġabsence": 5217,
      "Ġetc": 5218,
      "Ġbat": 5219,
      "Ġflower": 5220,
      "Ġrig": 5221,
      "Ġdear": 5222,
      "abb": 5223,
      "Ġguard": 5224,
      "Ġmembership": 5225,
      "Ġtrial": 5226,
      "Ġdivided": 5227,
      "Ġordered": 5228,
      "ma": 5229,
      "erry": 5230,
      "Ġcart": 5231,
      "Ġpushed": 5232,
      "ĠDown": 5233,
      "ishment": 5234,
      "Ġmyth": 5235,
      "Ġcontinuing": 5236,
      "ini": 5237,
      "Ġborder": 5238,
      "asion": 5239,
      "ĠBook": 5240,
      "Ġassist": 5241,
      "ĠYoung": 5242,
      "Ġcompleted": 5243,
      "Ġtrend": 5244,
      "Ġcontribution": 5245,
      "ĠFig": 5246,
      "Ġpoly": 5247,
      "Ġafford": 5248,
      "Ġfields": 5249,
      "Ġrailway": 5250,
      "Ġincident": 5251,
      "win": 5252,
      "Ġbread": 5253,
      "ĠIan": 5254,
      "Ġcoach": 5255,
      "Ġsubm": 5256,
      "Ġcourts": 5257,
      "Ġnecessarily": 5258,
      "Ġsurely": 5259,
      "Ġpollution": 5260,
      "Ġcomfortable": 5261,
      "Ġadministration": 5262,
      "Ġfuel": 5263,
      "Ġrecon": 5264,
      "Ġfactor": 5265,
      "Ġunemployment": 5266,
      "lers": 5267,
      "ware": 5268,
      "Ġlady": 5269,
      "Ġanaly": 5270,
      "Ġneck": 5271,
      "Ġunw": 5272,
      "Ġrefuge": 5273,
      "inese": 5274,
      "Ġfriendly": 5275,
      "Ġembarrass": 5276,
      "Ġconfirmed": 5277,
      "Ġmad": 5278,
      "Ġwheel": 5279,
      "ĠWho": 5280,
      "Ġpaying": 5281,
      "ĠWilliams": 5282,
      "ĠEndill": 5283,
      "Ġwound": 5284,
      "ĠGen": 5285,
      "ĠFour": 5286,
      "osexual": 5287,
      "Ġmostly": 5288,
      "Ġsecure": 5289,
      "Ġcreation": 5290,
      "Ġbegun": 5291,
      "Ġemphasis": 5292,
      "Ġtough": 5293,
      "Ġwet": 5294,
      "Ġmob": 5295,
      "ĠWhe": 5296,
      "Ġregional": 5297,
      "Ġdiscipl": 5298,
      "Ġcorrespond": 5299,
      "Ġrarely": 5300,
      "Ġargue": 5301,
      "making": 5302,
      "ĠWal": 5303,
      "Ġresident": 5304,
      "ĠAsh": 5305,
      "Ġexplos": 5306,
      "stone": 5307,
      "Ġupper": 5308,
      "Ġexpand": 5309,
      "wide": 5310,
      "Ġham": 5311,
      "Ġrent": 5312,
      "rier": 5313,
      "Ġcrack": 5314,
      "Ġinitial": 5315,
      "ya": 5316,
      "organ": 5317,
      "alls": 5318,
      "Ġrecru": 5319,
      "Ġmyster": 5320,
      "Ġemployment": 5321,
      "ĠYorkshire": 5322,
      "yer": 5323,
      "Ġcities": 5324,
      "ĠMen": 5325,
      "ĠMosc": 5326,
      "Ġabroad": 5327,
      "Ġsomewhat": 5328,
      "Ġrestaurant": 5329,
      "gie": 5330,
      "gel": 5331,
      "Ġoutput": 5332,
      "Ġanyway": 5333,
      "ĠCommons": 5334,
      "Ġbusy": 5335,
      "Ġwinner": 5336,
      "itual": 5337,
      "uts": 5338,
      "Ġlean": 5339,
      "Ġfaced": 5340,
      "rison": 5341,
      "Ġwestern": 5342,
      "asp": 5343,
      "Ġlying": 5344,
      "ĠMat": 5345,
      "ĠBob": 5346,
      "Ġrom": 5347,
      "Ġvent": 5348,
      "Ġloved": 5349,
      "Ġmeal": 5350,
      "iana": 5351,
      "Ġsky": 5352,
      "Ġreasonable": 5353,
      "untary": 5354,
      "Ġreputation": 5355,
      "ĠMoscow": 5356,
      "ram": 5357,
      "Ġdust": 5358,
      "Ġstim": 5359,
      "Ġspr": 5360,
      "ĠYour": 5361,
      "Ġentr": 5362,
      "ĠIndust": 5363,
      "Ġadditional": 5364,
      "upp": 5365,
      "Ġyes": 5366,
      "Ġbridge": 5367,
      "Ġbrilli": 5368,
      "Ġfinish": 5369,
      "Ġbreath": 5370,
      "oration": 5371,
      "Ġquant": 5372,
      "Ġentit": 5373,
      "Ġwarned": 5374,
      "ĠMcC": 5375,
      "Ġmentioned": 5376,
      "pet": 5377,
      "ĠWat": 5378,
      "ĠLou": 5379,
      "Ġundert": 5380,
      "Ġteams": 5381,
      "Ġmissed": 5382,
      "iciency": 5383,
      "erous": 5384,
      "lly": 5385,
      "imb": 5386,
      "Ġwelf": 5387,
      "Ġrival": 5388,
      "ĠWill": 5389,
      "Ġnoted": 5390,
      "ogether": 5391,
      "Ġimpression": 5392,
      "Ġsmiled": 5393,
      "Ġcauses": 5394,
      "Ġminority": 5395,
      "ĠIN": 5396,
      "Ġminimum": 5397,
      "Ġuncertain": 5398,
      "Ġintroduction": 5399,
      "ĠSometimes": 5400,
      "Ġvul": 5401,
      "ĠStep": 5402,
      "Ġcontrovers": 5403,
      "ĠZeal": 5404,
      "Ġsignificance": 5405,
      "ĠTreas": 5406,
      "Ġcloser": 5407,
      "mond": 5408,
      "Ġcere": 5409,
      "Ġmel": 5410,
      "Ġlosing": 5411,
      "ĠEv": 5412,
      "sels": 5413,
      "ailed": 5414,
      "prise": 5415,
      "Ġstands": 5416,
      "Ġequival": 5417,
      "Ġchampion": 5418,
      "quarters": 5419,
      "ĠToday": 5420,
      "Ġwelfare": 5421,
      "ki": 5422,
      "itz": 5423,
      "imp": 5424,
      "ĠWork": 5425,
      "Ġnoticed": 5426,
      "athan": 5427,
      "Ġphone": 5428,
      "Ġcurrently": 5429,
      "Ġsurvive": 5430,
      "Ġperfectly": 5431,
      "Ġschol": 5432,
      "Ġded": 5433,
      "Ġdig": 5434,
      "Ġride": 5435,
      "Ġunique": 5436,
      "ĠThurs": 5437,
      "Ġrelation": 5438,
      "Ġbusinesses": 5439,
      "Ġhoped": 5440,
      "Ġprojects": 5441,
      "Ġcurrency": 5442,
      "11": 5443,
      "70": 5444,
      "90": 5445,
      "nam": 5446,
      "Ġble": 5447,
      "istan": 5448,
      "ĠLib": 5449,
      "ĠGarden": 5450,
      "Ġuniform": 5451,
      "Ġwarning": 5452,
      "Ġmatches": 5453,
      "Ġ150": 5454,
      "Ġstrongly": 5455,
      "Ġconventional": 5456,
      "Ġunusual": 5457,
      "ĠRamsey": 5458,
      "ĠTues": 5459,
      "Ġgain": 5460,
      "ĠMa": 5461,
      "ĠPen": 5462,
      "venue": 5463,
      "Ġourselves": 5464,
      "Ġtechnique": 5465,
      "Ġsuffer": 5466,
      "Ġheavily": 5467,
      "Ġremarkable": 5468,
      "real": 5469,
      "Ġfill": 5470,
      "Ġmo": 5471,
      "Ġmixed": 5472,
      "Ġhill": 5473,
      "Ġworried": 5474,
      "minster": 5475,
      "Ġlights": 5476,
      "Ġplease": 5477,
      "80": 5478,
      "Ġsoul": 5479,
      "alu": 5480,
      "tering": 5481,
      "Ġclock": 5482,
      "pective": 5483,
      "Ġobjects": 5484,
      "Ġsilence": 5485,
      "iplom": 5486,
      "Ġextraord": 5487,
      "Ġnetwork": 5488,
      "era": 5489,
      "Ġsequ": 5490,
      "ĠEduc": 5491,
      "Ġshock": 5492,
      "icip": 5493,
      "ĠAc": 5494,
      "ulous": 5495,
      "ĠRad": 5496,
      "Ġdesp": 5497,
      "Ġretail": 5498,
      "Ġeffectively": 5499,
      "more": 5500,
      "tes": 5501,
      "ĠInt": 5502,
      "gels": 5503,
      "ĠLoc": 5504,
      "Ġcounty": 5505,
      "Ġsets": 5506,
      "Ġpromised": 5507,
      "burgh": 5508,
      "Ġnineteenth": 5509,
      "95": 5510,
      "Ġdrew": 5511,
      "ĠHug": 5512,
      "esty": 5513,
      "ĠChinese": 5514,
      "Ġreference": 5515,
      "Ġpatients": 5516,
      "Ġrepresented": 5517,
      "Ġemerged": 5518,
      "Ġweapons": 5519,
      "Ġid": 5520,
      "owed": 5521,
      "ureau": 5522,
      "ĠJones": 5523,
      "Ġcloud": 5524,
      "Ġliberal": 5525,
      "Ġresort": 5526,
      "Ġsocieties": 5527,
      "Ġinsist": 5528,
      "Ġopposed": 5529,
      "Ġcrew": 5530,
      "Ġwider": 5531,
      "uties": 5532,
      "Ġ75": 5533,
      "Ġtypical": 5534,
      "orous": 5535,
      "Ġnotes": 5536,
      "Ġsho": 5537,
      "Ġimproved": 5538,
      "Ġthreatened": 5539,
      "Ġdeeply": 5540,
      "Ġacademic": 5541,
      "eral": 5542,
      "Ġmix": 5543,
      "Ġplat": 5544,
      "Ġ1950": 5545,
      "ĠJud": 5546,
      "Ġmassive": 5547,
      "Ġgest": 5548,
      "Ġstake": 5549,
      "Ġunp": 5550,
      "Ġproud": 5551,
      "Ġidentity": 5552,
      "Ġsque": 5553,
      "Ġfright": 5554,
      "unction": 5555,
      "Ġmeat": 5556,
      "ĠJes": 5557,
      "ĠChild": 5558,
      "Ġcuts": 5559,
      "Ġsatisfact": 5560,
      "Ġrejected": 5561,
      "Ġbirds": 5562,
      "ĠZealand": 5563,
      "Ġsorry": 5564,
      "apse": 5565,
      "acket": 5566,
      "Ġ190": 5567,
      "Ġdiscussed": 5568,
      "Ġcopy": 5569,
      "Ġliterary": 5570,
      "Ġscientific": 5571,
      "ĠHotel": 5572,
      "Ġcenturies": 5573,
      "Ġshoulder": 5574,
      "Ġstruck": 5575,
      "Ġmeetings": 5576,
      "Ġsurprised": 5577,
      "ĠEnvironment": 5578,
      "Ġphilosophy": 5579,
      "AM": 5580,
      "ĠMum": 5581,
      "oking": 5582,
      "Ġmanage": 5583,
      "eping": 5584,
      "Ġapplication": 5585,
      "Ġfingers": 5586,
      "Ġsouthern": 5587,
      "Ġnoise": 5588,
      "Ġrecovery": 5589,
      "angers": 5590,
      "Ġefficient": 5591,
      "Ġproperties": 5592,
      "Ġmagn": 5593,
      "Ġtired": 5594,
      "Ġsan": 5595,
      "Ġstore": 5596,
      "ĠHaving": 5597,
      "ĠPart": 5598,
      "ĠNord": 5599,
      "Ġinstru": 5600,
      "Ġtransl": 5601,
      "Ġarranged": 5602,
      "Ġschemes": 5603,
      "Ġpreviously": 5604,
      "Ġhurt": 5605,
      "Ġrapidly": 5606,
      "Ġcro": 5607,
      "Ġpush": 5608,
      "Ġdivid": 5609,
      "Ġvac": 5610,
      "Ġlinks": 5611,
      "Ġdeliber": 5612,
      "Ġcontemporary": 5613,
      "ĠThursday": 5614,
      "Ġing": 5615,
      "ĠChe": 5616,
      "olt": 5617,
      "ĠGall": 5618,
      "Ġemotional": 5619,
      "ĠSpanish": 5620,
      "Not": 5621,
      "lines": 5622,
      "Ġdriver": 5623,
      "Ġpleased": 5624,
      "Ġpenalty": 5625,
      "Ġassemb": 5626,
      "Ġhole": 5627,
      "Ġhelping": 5628,
      "Ġpayments": 5629,
      "ĠLeonard": 5630,
      "Ġforgotten": 5631,
      "inced": 5632,
      "Ġaccused": 5633,
      "ĠDev": 5634,
      "Ġalleged": 5635,
      "eared": 5636,
      "life": 5637,
      "Ġrum": 5638,
      "Ġrot": 5639,
      "oving": 5640,
      "Ġvalu": 5641,
      "Ġurban": 5642,
      "Ġencouraged": 5643,
      "sl": 5644,
      "Ġgap": 5645,
      "ods": 5646,
      "ĠFord": 5647,
      "Ġagency": 5648,
      "Ġ33": 5649,
      "ĠMarg": 5650,
      "Ġbroadcast": 5651,
      "ĠRussia": 5652,
      "achev": 5653,
      "Ġconstitu": 5654,
      "Ġoverseas": 5655,
      "Ġtempt": 5656,
      "inate": 5657,
      "ĠTy": 5658,
      "Ġyards": 5659,
      "Ġritual": 5660,
      "ĠGorb": 5661,
      "Ġsmooth": 5662,
      "ĠAlso": 5663,
      "Ġfeelings": 5664,
      "Ġbreed": 5665,
      "Ġswing": 5666,
      "Ġstayed": 5667,
      "Ġpositions": 5668,
      "long": 5669,
      "rad": 5670,
      "Ġfly": 5671,
      "Ġnose": 5672,
      "ĠCast": 5673,
      "Ġreluct": 5674,
      "Ġinvited": 5675,
      "Ġvisited": 5676,
      "Ġelectron": 5677,
      "Ġtalked": 5678,
      "Ġexamples": 5679,
      "Ġsettled": 5680,
      "Ġdemocracy": 5681,
      "unnel": 5682,
      "Ġopponent": 5683,
      "Ġtor": 5684,
      "Ġplays": 5685,
      "Ġsigned": 5686,
      "Ġconstant": 5687,
      "Ġvisitors": 5688,
      "Ġoccurred": 5689,
      "Ġarrangements": 5690,
      "My": 5691,
      "Ġbeach": 5692,
      "estival": 5693,
      "Ġjoy": 5694,
      "Ġbranches": 5695,
      "Ġends": 5696,
      "mination": 5697,
      "Ġfacing": 5698,
      "Ġtechniques": 5699,
      "Ġsplit": 5700,
      "ĠCamp": 5701,
      "ĠRem": 5702,
      "Ġcentres": 5703,
      "Ġbigger": 5704,
      "Ġthousand": 5705,
      "ĠTuesday": 5706,
      "sts": 5707,
      "ĠFree": 5708,
      "Ġimper": 5709,
      "Ġcontinues": 5710,
      "Ġcalcul": 5711,
      "ENT": 5712,
      "isers": 5713,
      "Ġpin": 5714,
      "Ġgro": 5715,
      "ĠMad": 5716,
      "ĠDen": 5717,
      "Ġreserv": 5718,
      "Ġteeth": 5719,
      "Ġprompt": 5720,
      "Ġmoves": 5721,
      "Ġcritics": 5722,
      "Ġsuspic": 5723,
      "UC": 5724,
      "Ġfant": 5725,
      "Ġlb": 5726,
      "Ġexternal": 5727,
      "Ġintention": 5728,
      "Ġuses": 5729,
      "Ġwhereas": 5730,
      "pected": 5731,
      "ĠLeeds": 5732,
      "Ġexpert": 5733,
      "Ġswitch": 5734,
      "zech": 5735,
      "ĠAustralian": 5736,
      "Ġreferred": 5737,
      "Ġadopt": 5738,
      "ĠDefence": 5739,
      "ĠFurther": 5740,
      "ront": 5741,
      "inction": 5742,
      "ĠCross": 5743,
      "ĠBal": 5744,
      "agan": 5745,
      "Ġassociation": 5746,
      "Ġplane": 5747,
      "Ġcream": 5748,
      "etic": 5749,
      "ĠOut": 5750,
      "Ġspeaking": 5751,
      "Ġhousehold": 5752,
      "Ġorders": 5753,
      "ĠMean": 5754,
      "Ġadvertising": 5755,
      "kins": 5756,
      "Ġstable": 5757,
      "ĠBre": 5758,
      "ila": 5759,
      "Ġsees": 5760,
      "Ġkiss": 5761,
      "Ġliber": 5762,
      "ĠAndrew": 5763,
      "Ġglob": 5764,
      "Ġlisten": 5765,
      "ĠSteve": 5766,
      "ixture": 5767,
      "12": 5768,
      "HS": 5769,
      "borough": 5770,
      "Ġhearing": 5771,
      "Ġdeleg": 5772,
      "Ġplastic": 5773,
      "Ġmusical": 5774,
      "UR": 5775,
      "Ġinner": 5776,
      "icy": 5777,
      "olit": 5778,
      "ĠEri": 5779,
      "ĠRO": 5780,
      "oken": 5781,
      "Ġafterwards": 5782,
      "Ġrepro": 5783,
      "henomen": 5784,
      "Ġdetect": 5785,
      "Ġrequest": 5786,
      "ĠNevertheless": 5787,
      "oria": 5788,
      "Ġstations": 5789,
      "ibilities": 5790,
      "Ġcalling": 5791,
      "Ġlearning": 5792,
      "Ġcombination": 5793,
      "iest": 5794,
      "rick": 5795,
      "Ġpeak": 5796,
      "Ġwitness": 5797,
      "Ġequivalent": 5798,
      "15": 5799,
      "bo": 5800,
      "Ġpartner": 5801,
      "Ġoffence": 5802,
      "Ġstrateg": 5803,
      "Ġsimpl": 5804,
      "Ġmovements": 5805,
      "Ġdetailed": 5806,
      "ĠSwed": 5807,
      "Ġdolphins": 5808,
      "Ġdisease": 5809,
      "aily": 5810,
      "Ġfal": 5811,
      "Ġincor": 5812,
      "Ġpublish": 5813,
      "Ġactual": 5814,
      "Ġelected": 5815,
      "Ġrecognised": 5816,
      "Ġenemy": 5817,
      "ĠCzech": 5818,
      "Ġvig": 5819,
      "Ġblind": 5820,
      "Ġdrag": 5821,
      "Ġrequires": 5822,
      "ĠTrust": 5823,
      "Ġlinked": 5824,
      "onel": 5825,
      "ĠFort": 5826,
      "Ġven": 5827,
      "Ġclients": 5828,
      "weight": 5829,
      "Ġattitudes": 5830,
      "gypt": 5831,
      "Ġsubjects": 5832,
      "bre": 5833,
      "Ġtail": 5834,
      "inating": 5835,
      "Ġanthrop": 5836,
      "Ġbranch": 5837,
      "Ġpermanent": 5838,
      "ĠGorbachev": 5839,
      "Ġflex": 5840,
      "omer": 5841,
      "ums": 5842,
      "ansion": 5843,
      "Ġremove": 5844,
      "Ġrealised": 5845,
      "Ġdirectors": 5846,
      "Ġexception": 5847,
      "Ġcitizens": 5848,
      "ĠTreasury": 5849,
      "Ġdiplom": 5850,
      "ĠTim": 5851,
      "Ġshadow": 5852,
      "Ġnobody": 5853,
      "Ġentry": 5854,
      "Ġeditor": 5855,
      "Ġloose": 5856,
      "chers": 5857,
      "ĠCompany": 5858,
      "Ġtone": 5859,
      "Ġinquir": 5860,
      "ĠMic": 5861,
      "ĠPo": 5862,
      "ĠKent": 5863,
      "Ġrob": 5864,
      "ologists": 5865,
      "Ġthoughts": 5866,
      "Ġoperating": 5867,
      "AC": 5868,
      "Ġoffices": 5869,
      "athy": 5870,
      "Ġcapable": 5871,
      "enna": 5872,
      "Ġcope": 5873,
      "Ġprimary": 5874,
      "Ġwithdraw": 5875,
      "Wh": 5876,
      "Ġfishing": 5877,
      "Ġloud": 5878,
      "ĠSil": 5879,
      "ifest": 5880,
      "Ġtrick": 5881,
      "ighter": 5882,
      "issions": 5883,
      "Ġcolours": 5884,
      "Ġaccommodation": 5885,
      "ĠEgypt": 5886,
      "Ġalive": 5887,
      "agu": 5888,
      "Ġperce": 5889,
      "ĠChief": 5890,
      "ĠCommand": 5891,
      "ĠOffic": 5892,
      "Ġindependence": 5893,
      "Ġproducing": 5894,
      "Ġfocus": 5895,
      "ĠMuslim": 5896,
      "Ġcou": 5897,
      "ĠTimes": 5898,
      "Ġthanks": 5899,
      "fortunately": 5900,
      "vin": 5901,
      "Ġster": 5902,
      "Ġru": 5903,
      "Ġneare": 5904,
      "Ġpoem": 5905,
      "Ġmaybe": 5906,
      "Ġknowing": 5907,
      "Ġcheese": 5908,
      "Ġcontrolled": 5909,
      "Ġidentified": 5910,
      "Ġtact": 5911,
      "Ġcru": 5912,
      "Ġmole": 5913,
      "Ġreass": 5914,
      "ida": 5915,
      "ĠDis": 5916,
      "ĠDay": 5917,
      "elve": 5918,
      "ĠOly": 5919,
      "Ġoverl": 5920,
      "itely": 5921,
      "ickets": 5922,
      "Ġwriters": 5923,
      "Ġallowing": 5924,
      "Ġspecialist": 5925,
      "Ġconvinced": 5926,
      "Ġhundreds": 5927,
      "Ġfifth": 5928,
      "Ġrecommend": 5929,
      "inburgh": 5930,
      "Ġgate": 5931,
      "ĠBed": 5932,
      "ĠHead": 5933,
      "Ġscored": 5934,
      "Ġindex": 5935,
      "Ġdiscover": 5936,
      "Ġreduction": 5937,
      "Ġcandidate": 5938,
      "Ġvideo": 5939,
      "ĠNordern": 5940,
      "ED": 5941,
      "Ġfought": 5942,
      "Ġpages": 5943,
      "Ġagent": 5944,
      "Ġquot": 5945,
      "Ġprepar": 5946,
      "Ġmountain": 5947,
      "Ch": 5948,
      "bours": 5949,
      "vation": 5950,
      "Ġpink": 5951,
      "ĠMo": 5952,
      "Ġemp": 5953,
      "Ġwondered": 5954,
      "chest": 5955,
      "Ġiniti": 5956,
      "Ġconversation": 5957,
      "eath": 5958,
      "mouth": 5959,
      "Ġgained": 5960,
      "ĠBo": 5961,
      "ĠHol": 5962,
      "Ġflour": 5963,
      "Ġthinks": 5964,
      "Ġcombined": 5965,
      "Ġmistake": 5966,
      "Why": 5967,
      "Ġpig": 5968,
      "Ġphenomen": 5969,
      "Ġgardens": 5970,
      "ĠAre": 5971,
      "aming": 5972,
      "amber": 5973,
      "Ġrac": 5974,
      "Ġvir": 5975,
      "ĠOh": 5976,
      "Ġunex": 5977,
      "Ġresist": 5978,
      "Ġactions": 5979,
      "Ġ400": 5980,
      "Ġminds": 5981,
      "Ġshareholders": 5982,
      "ĠOlymp": 5983,
      "car": 5984,
      "uits": 5985,
      "Ġtill": 5986,
      "Ġabol": 5987,
      "earing": 5988,
      "Ġowned": 5989,
      "Ġcarbon": 5990,
      "Ġdepth": 5991,
      "azz": 5992,
      "ĠEdinburgh": 5993,
      "Ġemergency": 5994,
      "apped": 5995,
      "Ġhang": 5996,
      "Ġkid": 5997,
      "Ġcoins": 5998,
      "obb": 5999,
      "Ġacting": 6000,
      "Ġevident": 6001,
      "Ġwaters": 6002,
      "Ġpace": 6003,
      "Ġgather": 6004,
      "Ġjustice": 6005,
      "ĠTurn": 6006,
      "riend": 6007,
      "ĠLes": 6008,
      "Ġchurches": 6009,
      "ĠScots": 6010,
      "Ġcharacters": 6011,
      "Ġentitled": 6012,
      "ĠEducation": 6013,
      "iot": 6014,
      "Ġrear": 6015,
      "Ġsomehow": 6016,
      "Ġtriumph": 6017,
      "Ġdispute": 6018,
      "Ġbottle": 6019,
      "Ġimpressive": 6020,
      "ĠErika": 6021,
      "omy": 6022,
      "lyn": 6023,
      "ĠMet": 6024,
      "iven": 6025,
      "Ġsheep": 6026,
      "ĠUl": 6027,
      "ĠStan": 6028,
      "Ġinsisted": 6029,
      "Ġprocesses": 6030,
      "ĠPolice": 6031,
      "Ġ1930": 6032,
      "ĠAmong": 6033,
      "Ġearnings": 6034,
      "Ġtut": 6035,
      "Ġfool": 6036,
      "edy": 6037,
      "sex": 6038,
      "Ġliqu": 6039,
      "Ġfewer": 6040,
      "Ġcontrols": 6041,
      "Ġorganic": 6042,
      "Ġclassical": 6043,
      "Ġemployees": 6044,
      "Ġclimate": 6045,
      "Ġcinema": 6046,
      "ĠMeanwhile": 6047,
      "Ġwave": 6048,
      "erted": 6049,
      "ana": 6050,
      "Ġturns": 6051,
      "ĠPoland": 6052,
      "Ġvoluntary": 6053,
      "Ġanxious": 6054,
      "Ġsavings": 6055,
      "zz": 6056,
      "Ġsir": 6057,
      "chant": 6058,
      "unning": 6059,
      "asts": 6060,
      "icted": 6061,
      "oves": 6062,
      "Ġleads": 6063,
      "Ġcricket": 6064,
      "Ġassault": 6065,
      "Ġgranted": 6066,
      "Ġtemperature": 6067,
      "Ġextraordinary": 6068,
      "itched": 6069,
      "arity": 6070,
      "Ġinher": 6071,
      "Ġnotion": 6072,
      "ĠNich": 6073,
      "Ġdepends": 6074,
      "Ġmodest": 6075,
      "Ġcharged": 6076,
      "apping": 6077,
      "Ġroutine": 6078,
      "ederation": 6079,
      "Ġsacr": 6080,
      "free": 6081,
      "ilarly": 6082,
      "ĠGaz": 6083,
      "Ġbutter": 6084,
      "ĠInter": 6085,
      "Ġregularly": 6086,
      "Ġbeneath": 6087,
      "Ġfirmly": 6088,
      "Ġchampionship": 6089,
      "ĠProfessor": 6090,
      "ĠMargaret": 6091,
      "So": 6092,
      "Ġbars": 6093,
      "Ġech": 6094,
      "Ġreli": 6095,
      "Ġvary": 6096,
      "ĠRiver": 6097,
      "cons": 6098,
      "ifts": 6099,
      "Ġpassage": 6100,
      "Ġtells": 6101,
      "Ġsteel": 6102,
      "Ġsteep": 6103,
      "Ġmissing": 6104,
      "ĠInstitute": 6105,
      "Ġadopted": 6106,
      "Ġeggs": 6107,
      "75": 6108,
      "CI": 6109,
      "ST": 6110,
      "gn": 6111,
      "Ġmine": 6112,
      "Ġonto": 6113,
      "ĠRail": 6114,
      "ĠConst": 6115,
      "ĠCounty": 6116,
      "Ġpilot": 6117,
      "Ġdoctors": 6118,
      "ĠWas": 6119,
      "usal": 6120,
      "Ġvia": 6121,
      "Ġtrained": 6122,
      "ĠHarry": 6123,
      "Ġconsumer": 6124,
      "operation": 6125,
      "Ġpa": 6126,
      "amic": 6127,
      "ĠCle": 6128,
      "Ġtroub": 6129,
      "Ġincreases": 6130,
      "Ġlosses": 6131,
      "Ġreflected": 6132,
      "Ġtimber": 6133,
      "Ġdiesel": 6134,
      "uing": 6135,
      "eries": 6136,
      "Ġflying": 6137,
      "ĠDutch": 6138,
      "action": 6139,
      "Ġadequ": 6140,
      "ĠStud": 6141,
      "Ġcommunities": 6142,
      "water": 6143,
      "ĠAv": 6144,
      "Ġaside": 6145,
      "Ġforests": 6146,
      "Ġroyal": 6147,
      "Ġgiant": 6148,
      "Ġhed": 6149,
      "Ġcolon": 6150,
      "Ġseconds": 6151,
      "Ġfollows": 6152,
      "Ġfeels": 6153,
      "Ġlovely": 6154,
      "Ġexha": 6155,
      "Ġadjust": 6156,
      "Ġmortgage": 6157,
      "Ġdying": 6158,
      "lla": 6159,
      "Ġyield": 6160,
      "Ġbrand": 6161,
      "Ġattended": 6162,
      "ĠJustice": 6163,
      "Ġfoss": 6164,
      "orate": 6165,
      "Ġdanc": 6166,
      "omic": 6167,
      "Ġscen": 6168,
      "....": 6169,
      "Ġbrick": 6170,
      "Ġblank": 6171,
      "Ġ36": 6172,
      "atively": 6173,
      "Ġrecognition": 6174,
      "rete": 6175,
      "ilst": 6176,
      "ĠWalk": 6177,
      "ĠWEA": 6178,
      "Ġsugar": 6179,
      "Ġchain": 6180,
      "ords": 6181,
      "Ġimplement": 6182,
      "olly": 6183,
      "Ġpromise": 6184,
      "Ġperiods": 6185,
      "Ġbitter": 6186,
      "Ġdenied": 6187,
      "ĠCameron": 6188,
      "ophistic": 6189,
      "ĠMaggie": 6190,
      "spe": 6191,
      "wart": 6192,
      "ĠBon": 6193,
      "Ġconven": 6194,
      "ĠEr": 6195,
      "ĠThird": 6196,
      "eff": 6197,
      "rer": 6198,
      "Ġmile": 6199,
      "Ġhint": 6200,
      "Ġnodd": 6201,
      "Ġstorm": 6202,
      "ĠDub": 6203,
      "Ġfinds": 6204,
      "Ġpayment": 6205,
      "Ġdominated": 6206,
      "Ġcalm": 6207,
      "Ġinevitable": 6208,
      "ĠOpen": 6209,
      "bell": 6210,
      "makers": 6211,
      "attered": 6212,
      "ĠLat": 6213,
      "Ġshift": 6214,
      "ude": 6215,
      "Ġresc": 6216,
      "ĠArch": 6217,
      "ĠCorpor": 6218,
      "Ġbegins": 6219,
      "comm": 6220,
      "rem": 6221,
      "isms": 6222,
      "Ġnorthern": 6223,
      "ĠSing": 6224,
      "Ġalb": 6225,
      "Ġprize": 6226,
      "Ġannounce": 6227,
      "ĠProtestant": 6228,
      "law": 6229,
      "Ġcab": 6230,
      "Ġmission": 6231,
      "ourse": 6232,
      "Ġownership": 6233,
      "OT": 6234,
      "greg": 6235,
      "Ġshook": 6236,
      "osure": 6237,
      "outs": 6238,
      "Ġcompon": 6239,
      "ĠAnne": 6240,
      "Ġrealise": 6241,
      "Ġissued": 6242,
      "ĠConc": 6243,
      "Ġsalt": 6244,
      "Ġabsolutely": 6245,
      "Ġexplanation": 6246,
      "Ġforty": 6247,
      "ĠBrian": 6248,
      "usc": 6249,
      "Ġmanifest": 6250,
      "Ġcontest": 6251,
      "Ġcontained": 6252,
      "Ġcontains": 6253,
      "Ġhoriz": 6254,
      "Ġarguments": 6255,
      "Ġmaintained": 6256,
      "SE": 6257,
      "When": 6258,
      "iating": 6259,
      "Ġcig": 6260,
      "Ġpra": 6261,
      "style": 6262,
      "Ġincl": 6263,
      "Ġrepublic": 6264,
      "Ġhandle": 6265,
      "ĠWestminster": 6266,
      "Ġbeauty": 6267,
      "Ġproposal": 6268,
      "ĠJesus": 6269,
      "rees": 6270,
      "Ġnit": 6271,
      "ĠPR": 6272,
      "Ġfee": 6273,
      "ĠChapter": 6274,
      "Ġsched": 6275,
      "Ġcoin": 6276,
      "izz": 6277,
      "ĠLeices": 6278,
      "Ġretire": 6279,
      "akespe": 6280,
      "Ġaffair": 6281,
      "Ġpatient": 6282,
      "archy": 6283,
      "ĠMiddle": 6284,
      "Ġintroduce": 6285,
      "Ġabandoned": 6286,
      "bb": 6287,
      "Ġthro": 6288,
      "iments": 6289,
      "Ġvo": 6290,
      "Ġimages": 6291,
      "Ġdistrict": 6292,
      "Ġadmit": 6293,
      "ĠIran": 6294,
      "Ġcollapse": 6295,
      "Ġfifty": 6296,
      "Ġdistribution": 6297,
      "uilding": 6298,
      "ĠNichol": 6299,
      "master": 6300,
      "ye": 6301,
      "illa": 6302,
      "orted": 6303,
      "Ġju": 6304,
      "Ġoutcome": 6305,
      "Ġmedium": 6306,
      "Ġcells": 6307,
      "Ġorganisations": 6308,
      "ĠVictorian": 6309,
      "Ġelderly": 6310,
      "Ġglad": 6311,
      "enny": 6312,
      "ĠExp": 6313,
      "iverse": 6314,
      "Ġmachines": 6315,
      "Ġreforms": 6316,
      "Ġconnection": 6317,
      "Ġconsequences": 6318,
      "St": 6319,
      "pired": 6320,
      "swe": 6321,
      "vy": 6322,
      "itably": 6323,
      "Ġdict": 6324,
      "Ġrank": 6325,
      "ĠDet": 6326,
      "earch": 6327,
      "Ġunity": 6328,
      "Ġdefined": 6329,
      "Ġobserved": 6330,
      "Ġsongs": 6331,
      "OW": 6332,
      "Ġtennis": 6333,
      "ĠLady": 6334,
      "Ġenh": 6335,
      "Ġparalle": 6336,
      "ĠShakespe": 6337,
      "Ġamongst": 6338,
      "ĠNotting": 6339,
      "engers": 6340,
      "ĠJewish": 6341,
      "Ġconclusion": 6342,
      "Ġcorporate": 6343,
      "ĠAuthor": 6344,
      "ĠTro": 6345,
      "Ġchances": 6346,
      "Ġtrains": 6347,
      "Ġdisaster": 6348,
      "Ġroots": 6349,
      "Ġvotes": 6350,
      "Ġassets": 6351,
      "ION": 6352,
      "icate": 6353,
      "ĠAC": 6354,
      "uman": 6355,
      "acked": 6356,
      "Ġagents": 6357,
      "Ġenable": 6358,
      "icked": 6359,
      "Ġexpend": 6360,
      "Ġmoments": 6361,
      "Ġnegotiations": 6362,
      "oan": 6363,
      "Ġhook": 6364,
      "ĠCard": 6365,
      "ĠChris": 6366,
      "rows": 6367,
      "Ġfactory": 6368,
      "Ġpurposes": 6369,
      "Ġappointment": 6370,
      "Ġparliamentary": 6371,
      "Ġexhibition": 6372,
      "Ġaccompanied": 6373,
      "Ġswimming": 6374,
      "OL": 6375,
      "ĠLy": 6376,
      "wealth": 6377,
      "ĠVir": 6378,
      "Ġmonetary": 6379,
      "Ġattacks": 6380,
      "Ġdrove": 6381,
      "ĠSupp": 6382,
      "Ġpurchase": 6383,
      "ĠGraham": 6384,
      "Ġsophistic": 6385,
      "Ġfert": 6386,
      "stairs": 6387,
      "ifted": 6388,
      "Ġ32": 6389,
      "Ġterrible": 6390,
      "Ġboost": 6391,
      "Ġbreaking": 6392,
      "Ġbloody": 6393,
      "Ġrequirements": 6394,
      "Ġoriginally": 6395,
      "Ġestimated": 6396,
      "Ġoption": 6397,
      "Ġsin": 6398,
      "Ġhell": 6399,
      "ĠPak": 6400,
      "ĠLittle": 6401,
      "Ġreply": 6402,
      "Ġreader": 6403,
      "Ġnearby": 6404,
      "Ġpocket": 6405,
      "Ġfalse": 6406,
      "pie": 6407,
      "uting": 6408,
      "cel": 6409,
      "Ġanywhere": 6410,
      "Ġexpansion": 6411,
      "Ġtermin": 6412,
      "azing": 6413,
      "Ġorganised": 6414,
      "Ġsquad": 6415,
      "ĠLanc": 6416,
      "Ġfacts": 6417,
      "ĠMinistry": 6418,
      "Ġnaturally": 6419,
      "ran": 6420,
      "asks": 6421,
      "Ġthorough": 6422,
      "sters": 6423,
      "ampton": 6424,
      "Ġstars": 6425,
      "Ġsections": 6426,
      "unte": 6427,
      "Ġmetres": 6428,
      "Ġhappening": 6429,
      "Ġacquired": 6430,
      "Ġoptim": 6431,
      "Ġmulti": 6432,
      "Ġgradually": 6433,
      "Ġlucky": 6434,
      "Is": 6435,
      "ds": 6436,
      "ĠTay": 6437,
      "idays": 6438,
      "ĠBern": 6439,
      "una": 6440,
      "unc": 6441,
      "avy": 6442,
      "Ġhanded": 6443,
      "Ġsentence": 6444,
      "ikh": 6445,
      "Ġburst": 6446,
      "Ġscientists": 6447,
      "Ġphrase": 6448,
      "Ġbureau": 6449,
      "Ġsty": 6450,
      "Ġcomprom": 6451,
      "ĠViet": 6452,
      "Ġstrict": 6453,
      "Ġallows": 6454,
      "Ġroads": 6455,
      "IV": 6456,
      "aus": 6457,
      "oons": 6458,
      "Ġfo": 6459,
      "Ġrenew": 6460,
      "Ġseeds": 6461,
      "ĠEve": 6462,
      "Ġbrings": 6463,
      "Ġattached": 6464,
      "Ġavo": 6465,
      "Ġeducational": 6466,
      "Ġtowns": 6467,
      "Ġrecognise": 6468,
      "ĠNext": 6469,
      "Ġnewspapers": 6470,
      "ĠRAF": 6471,
      "nament": 6472,
      "Ġtaught": 6473,
      "Ġforth": 6474,
      "ĠSar": 6475,
      "ĠDur": 6476,
      "Ġupset": 6477,
      "Ġune": 6478,
      "Ġoverw": 6479,
      "Ġimposed": 6480,
      "Ġmodels": 6481,
      "Ġvolume": 6482,
      "Ġangry": 6483,
      "Ġhomosexual": 6484,
      "Ġobtained": 6485,
      "ez": 6486,
      "itals": 6487,
      "Ġmixture": 6488,
      "Ġlake": 6489,
      "ĠWright": 6490,
      "Ġflu": 6491,
      "Ġhandling": 6492,
      "Ġdeficit": 6493,
      "lessly": 6494,
      "Ġguests": 6495,
      "Ġarrival": 6496,
      "ĠBelg": 6497,
      "uzz": 6498,
      "Ġsymbol": 6499,
      "iel": 6500,
      "Ġdraft": 6501,
      "rog": 6502,
      "Ġrocks": 6503,
      "Ġshoulders": 6504,
      "Ġinspect": 6505,
      "Ġhealthy": 6506,
      "Ġsensitive": 6507,
      "ĠCanada": 6508,
      "ĠKu": 6509,
      "Ġ38": 6510,
      "ĠRober": 6511,
      "Ġstructures": 6512,
      "Ġengineering": 6513,
      "All": 6514,
      "Ġpale": 6515,
      "Ġstir": 6516,
      "ĠPC": 6517,
      "Ġremote": 6518,
      "Ġsupplies": 6519,
      "Ġacts": 6520,
      "Ġcolumn": 6521,
      "Ġsurvived": 6522,
      "Ġlifted": 6523,
      "ĠNottingham": 6524,
      "Ġstup": 6525,
      "ĠMot": 6526,
      "Ġrational": 6527,
      "Ġtruly": 6528,
      "ffield": 6529,
      "avoured": 6530,
      "Ġsuburb": 6531,
      "Ġlandsc": 6532,
      "Ġarrested": 6533,
      "Ġlaughed": 6534,
      "Ġcasual": 6535,
      "ĠPakistan": 6536,
      "Ġwed": 6537,
      "orious": 6538,
      "ĠGulf": 6539,
      "ĠHeath": 6540,
      "icken": 6541,
      "Ġsmoke": 6542,
      "apel": 6543,
      "Ġdescribe": 6544,
      "iary": 6545,
      "sky": 6546,
      "Ġlock": 6547,
      "Ġreward": 6548,
      "ĠBoy": 6549,
      "Ġpros": 6550,
      "inking": 6551,
      "Ġpolls": 6552,
      "Ġwished": 6553,
      "acle": 6554,
      "Ġship": 6555,
      "Ġtrail": 6556,
      "Ġcomprehens": 6557,
      "Ġresistance": 6558,
      "ĠYe": 6559,
      "ĠVol": 6560,
      "Ġpresum": 6561,
      "ĠAnth": 6562,
      "Ġrecording": 6563,
      "Ġbeaten": 6564,
      "ĠGreek": 6565,
      "ĠMcLe": 6566,
      "Ġincorpor": 6567,
      "ĠShakespeare": 6568,
      "Ġwire": 6569,
      "Ġfans": 6570,
      "geant": 6571,
      "ulpt": 6572,
      "ĠNon": 6573,
      "Ġcoat": 6574,
      "Ġextensive": 6575,
      "Ġdriven": 6576,
      "Ġstriking": 6577,
      "Ġacknowled": 6578,
      "ĠChampionship": 6579,
      "but": 6580,
      "Ġped": 6581,
      "Ġhide": 6582,
      "ĠFre": 6583,
      "Ġspite": 6584,
      "Ġgreatly": 6585,
      "Ġimprovement": 6586,
      "Ġpreferred": 6587,
      "Ġhonour": 6588,
      "Ġmillions": 6589,
      "ĠRadio": 6590,
      "Ġvaluable": 6591,
      "Ġtie": 6592,
      "Ġbot": 6593,
      "oli": 6594,
      "ĠEll": 6595,
      "ĠDar": 6596,
      "ocation": 6597,
      "Ġadvanced": 6598,
      "Ġmotion": 6599,
      "ĠKingdom": 6600,
      "Ġrelationships": 6601,
      "ĠFrancis": 6602,
      "Ġbatt": 6603,
      "ĠSa": 6604,
      "Ġshoes": 6605,
      "ĠGP": 6606,
      "Ġarmed": 6607,
      "Ġdecor": 6608,
      "Ġbehalf": 6609,
      "Ġdisappeared": 6610,
      "Ġoz": 6611,
      "ulating": 6612,
      "Ġovert": 6613,
      "Ġknock": 6614,
      "ĠSheffield": 6615,
      "Ġadvent": 6616,
      "Ġexperiment": 6617,
      "Ġconsidering": 6618,
      "Ġdrinking": 6619,
      "Ġcandidates": 6620,
      "Ġenthusiasm": 6621,
      "ĠMem": 6622,
      "ĠDad": 6623,
      "ĠNHS": 6624,
      "ĠJul": 6625,
      "ĠKh": 6626,
      "Ġblame": 6627,
      "Ġ34": 6628,
      "izes": 6629,
      "Ġstarts": 6630,
      "Ġdevelopments": 6631,
      "appy": 6632,
      "Ġpainting": 6633,
      "ĠEliz": 6634,
      "Ġconnect": 6635,
      "IR": 6636,
      "irts": 6637,
      "ĠMod": 6638,
      "ĠLong": 6639,
      "Ġintense": 6640,
      "place": 6641,
      "Ġflavour": 6642,
      "Ġvisible": 6643,
      "Ġloans": 6644,
      "Ġcollege": 6645,
      "ĠResearch": 6646,
      "inity": 6647,
      "ĠTra": 6648,
      "ĠMount": 6649,
      "ĠFund": 6650,
      "ocol": 6651,
      "Ġscream": 6652,
      "ovak": 6653,
      "Ġeverywhere": 6654,
      "Ġqualities": 6655,
      "Ġnervous": 6656,
      "bal": 6657,
      "incess": 6658,
      "icar": 6659,
      "ĠCur": 6660,
      "Ġprosec": 6661,
      "Ġcheer": 6662,
      "azed": 6663,
      "Ġclassic": 6664,
      "Ġwooden": 6665,
      "Ġdolphin": 6666,
      "Ġil": 6667,
      "Ġdressed": 6668,
      "ĠSun": 6669,
      "ĠMax": 6670,
      "Ġoffences": 6671,
      "Ġtwelve": 6672,
      "ĠChannel": 6673,
      "ĠYes": 6674,
      "Ġdepos": 6675,
      "Ġdistinction": 6676,
      "Ġbrilliant": 6677,
      "mind": 6678,
      "Ġsession": 6679,
      "isure": 6680,
      "Ġthrown": 6681,
      "ste": 6682,
      "ĠAT": 6683,
      "Ġstuck": 6684,
      "olid": 6685,
      "Ġjun": 6686,
      "anges": 6687,
      "Ġregist": 6688,
      "Ġprimitive": 6689,
      "Ġinvestigation": 6690,
      "Ġinvolvement": 6691,
      "Ġshopping": 6692,
      "coh": 6693,
      "nic": 6694,
      "Ġhanging": 6695,
      "Ġplot": 6696,
      "Ġunh": 6697,
      "Ġwaited": 6698,
      "Ġanticip": 6699,
      "Ġaims": 6700,
      "Ġmanufacturing": 6701,
      "oslav": 6702,
      "ĠSquare": 6703,
      "coming": 6704,
      "don": 6705,
      "las": 6706,
      "Ġfitted": 6707,
      "ĠLater": 6708,
      "agger": 6709,
      "Ġhoping": 6710,
      "ĠBrad": 6711,
      "Ġemployed": 6712,
      "Ġdemanded": 6713,
      "Ġcreating": 6714,
      "Ġinnoc": 6715,
      "Ġcriminal": 6716,
      "Ġpupils": 6717,
      "Ġcott": 6718,
      "Ġfier": 6719,
      "Ġhidden": 6720,
      "Ġfrust": 6721,
      "ishops": 6722,
      "Ġcondem": 6723,
      "Ġpounds": 6724,
      "Ġvictims": 6725,
      "ĠCommonwealth": 6726,
      "Ġpartnership": 6727,
      "born": 6728,
      "pread": 6729,
      "then": 6730,
      "Ġlaugh": 6731,
      "uled": 6732,
      "ĠFam": 6733,
      "ago": 6734,
      "Ġlibr": 6735,
      "teenth": 6736,
      "Ġeverybody": 6737,
      "Ġdescription": 6738,
      "Ġmanaging": 6739,
      "Ġvillages": 6740,
      "Ġhyp": 6741,
      "ĠJews": 6742,
      "Ġvehicle": 6743,
      "Ġexpenditure": 6744,
      "EP": 6745,
      "Ġwides": 6746,
      "uters": 6747,
      "ĠAge": 6748,
      "Ġstages": 6749,
      "ĠMuch": 6750,
      "ĠWhit": 6751,
      "lude": 6752,
      "ĠNews": 6753,
      "Ġtaxes": 6754,
      "Ġlimits": 6755,
      "Ġattempted": 6756,
      "ĠServices": 6757,
      "Ġestablishment": 6758,
      "Ġshouted": 6759,
      "Ġromantic": 6760,
      "Ġwake": 6761,
      "ona": 6762,
      "ĠCivil": 6763,
      "riet": 6764,
      "Ġspin": 6765,
      "Ġnewly": 6766,
      "Ġharder": 6767,
      "Ġcountryside": 6768,
      "Ġeleg": 6769,
      "Ġballet": 6770,
      "Ġau": 6771,
      "athered": 6772,
      "Ġho": 6773,
      "ilty": 6774,
      "Ġneat": 6775,
      "ounced": 6776,
      "Ġserving": 6777,
      "ambia": 6778,
      "Ġimagination": 6779,
      "box": 6780,
      "cing": 6781,
      "cles": 6782,
      "reens": 6783,
      "Ġpitch": 6784,
      "leep": 6785,
      "osh": 6786,
      "ivered": 6787,
      "Ġabst": 6788,
      "Ġabuse": 6789,
      "ĠOt": 6790,
      "Ġstudied": 6791,
      "Ġinvolving": 6792,
      "Ġmountains": 6793,
      "Ġconsciousness": 6794,
      "Ġvulner": 6795,
      "Ġglobal": 6796,
      "ĠUlster": 6797,
      "ĠTaylor": 6798,
      "45": 6799,
      "lantic": 6800,
      "rates": 6801,
      "iders": 6802,
      "Ġracing": 6803,
      "uns": 6804,
      "ĠRen": 6805,
      "ivals": 6806,
      "Ġadvoc": 6807,
      "Ġindustries": 6808,
      "umped": 6809,
      "Ġexcite": 6810,
      "Ġassumed": 6811,
      "ĠAnthony": 6812,
      "Ġax": 6813,
      "Ġflag": 6814,
      "Ġchest": 6815,
      "Ġpersonality": 6816,
      "ĠSea": 6817,
      "ĠCarl": 6818,
      "ĠCountry": 6819,
      "Ġrhythm": 6820,
      "Ġdu": 6821,
      "achel": 6822,
      "ĠBishop": 6823,
      "olve": 6824,
      "ĠHard": 6825,
      "iforn": 6826,
      "Ġfees": 6827,
      "ĠStock": 6828,
      "ĠMarsh": 6829,
      "Ġhumour": 6830,
      "Ġhotels": 6831,
      "Ġexciting": 6832,
      "Ġgrave": 6833,
      "ĠNorman": 6834,
      "Ġunexpected": 6835,
      "Ġnodded": 6836,
      "made": 6837,
      "yers": 6838,
      "Ġstamp": 6839,
      "osa": 6840,
      "Ġconstantly": 6841,
      "ĠTrade": 6842,
      "Ġtests": 6843,
      "Ġoccupied": 6844,
      "Ġwidespread": 6845,
      "Ġwore": 6846,
      "Ġfulf": 6847,
      "ĠMont": 6848,
      "abit": 6849,
      "ĠGar": 6850,
      "umin": 6851,
      "Ġplate": 6852,
      "Ġunre": 6853,
      "elled": 6854,
      "Ġheaded": 6855,
      "Ġadding": 6856,
      "aze": 6857,
      "Ġfunny": 6858,
      "Ġarrive": 6859,
      "Ġsilent": 6860,
      "Ġproducers": 6861,
      "Ġintelligence": 6862,
      "Ġcompensation": 6863,
      "Ġliquid": 6864,
      "IA": 6865,
      "met": 6866,
      "Ġbuff": 6867,
      "Ġconcer": 6868,
      "ĠGeoff": 6869,
      "Ġpackage": 6870,
      "Ġpolicemen": 6871,
      "Ġlecture": 6872,
      "ato": 6873,
      "Ġdancing": 6874,
      "Ġgreet": 6875,
      "Ġdistant": 6876,
      "Ġoperate": 6877,
      "Ġprivile": 6878,
      "Ġcausing": 6879,
      "Ġcircle": 6880,
      "Ġattacked": 6881,
      "ĠPalace": 6882,
      "ĠEssex": 6883,
      "Ġsubsequent": 6884,
      "tical": 6885,
      "Ġox": 6886,
      "eded": 6887,
      "icing": 6888,
      "ĠSen": 6889,
      "ĠBrist": 6890,
      "ĠEqu": 6891,
      "ĠDuke": 6892,
      "occ": 6893,
      "enders": 6894,
      "Ġsculpt": 6895,
      "ĠStand": 6896,
      "Ġblow": 6897,
      "Ġending": 6898,
      "ologist": 6899,
      "Ġdeputy": 6900,
      "Ġcompetitive": 6901,
      "Ġoccasions": 6902,
      "Ġcontracts": 6903,
      "ĠFinally": 6904,
      "18": 6905,
      "Ġbits": 6906,
      "Ġfolk": 6907,
      "ĠAri": 6908,
      "ĠMuseum": 6909,
      "Ġneut": 6910,
      "ubs": 6911,
      "Ġtwent": 6912,
      "angle": 6913,
      "Ġflood": 6914,
      "Ġcaf": 6915,
      "Ġloan": 6916,
      "Ġoccasionally": 6917,
      "Ġaltogether": 6918,
      "ĠElizabeth": 6919,
      "urse": 6920,
      "ĠWomen": 6921,
      "Ġadapt": 6922,
      "Ġ250": 6923,
      "Ġfarming": 6924,
      "Ġeastern": 6925,
      "Ġ1975": 6926,
      "Ġsites": 6927,
      "Ġintervention": 6928,
      "Ġexperiences": 6929,
      "Ġpatterns": 6930,
      "ĠHolly": 6931,
      "ĠCaliforn": 6932,
      "14": 6933,
      "II": 6934,
      "ij": 6935,
      "Ġcod": 6936,
      "Ġcatholic": 6937,
      "othe": 6938,
      "igration": 6939,
      "cely": 6940,
      "oln": 6941,
      "ĠJon": 6942,
      "Ġroll": 6943,
      "Ġreturning": 6944,
      "Ġtalent": 6945,
      "Ġirre": 6946,
      "rating": 6947,
      "Ġpill": 6948,
      "esh": 6949,
      "Ġmuseum": 6950,
      "struct": 6951,
      "ĠMur": 6952,
      "ĠFe": 6953,
      "ĠFra": 6954,
      "ĠDoug": 6955,
      "Ġchose": 6956,
      "Ġalleg": 6957,
      "Ġclient": 6958,
      "rav": 6959,
      "Ġgrain": 6960,
      "formation": 6961,
      "ĠBridge": 6962,
      "Ġinvolves": 6963,
      "Ġbureaucr": 6964,
      "Ġoverwhel": 6965,
      "Ġilleg": 6966,
      "sen": 6967,
      "uk": 6968,
      "Ġfederal": 6969,
      "lease": 6970,
      "opher": 6971,
      "umes": 6972,
      "plus": 6973,
      "ordon": 6974,
      "Ġbacked": 6975,
      "Ġdecades": 6976,
      "Ġputs": 6977,
      "Ġcorrid": 6978,
      "Ġvisits": 6979,
      "Ġvalley": 6980,
      "ĠAdd": 6981,
      "Ġrelevant": 6982,
      "Ġinjured": 6983,
      "Ġanxiety": 6984,
      "Ġstupid": 6985,
      "Ġwal": 6986,
      "ĠDid": 6987,
      "ĠRog": 6988,
      "Ġsaved": 6989,
      "Ġsole": 6990,
      "Ġapproval": 6991,
      "ĠWithout": 6992,
      "Ġdivor": 6993,
      "Ġdarkness": 6994,
      "Ġsettle": 6995,
      "Ġdefinition": 6996,
      "Ġbedrooms": 6997,
      "Ġprecisely": 6998,
      "GE": 6999,
      "ped": 7000,
      "van": 7001,
      "Ġlots": 7002,
      "ĠCro": 7003,
      "ĠBath": 7004,
      "ĠLife": 7005,
      "Ġmonitor": 7006,
      "Ġvisiting": 7007,
      "Ġlanding": 7008,
      "oubted": 7009,
      "Ġraising": 7010,
      "Ġ1922": 7011,
      "Ġspiritual": 7012,
      "Ġtravelling": 7013,
      "ĠGazzer": 7014,
      "iences": 7015,
      "Ġtension": 7016,
      "itter": 7017,
      "Ġtoler": 7018,
      "Ġinse": 7019,
      "ĠCrown": 7020,
      "agn": 7021,
      "Ġcompound": 7022,
      "Ġdesk": 7023,
      "Ġextension": 7024,
      "Ġcrossed": 7025,
      "ĠEngels": 7026,
      "ĠGuard": 7027,
      "ĠAnglo": 7028,
      "nel": 7029,
      "Ġduties": 7030,
      "ĠPublic": 7031,
      "Ġoutstanding": 7032,
      "inds": 7033,
      "Ġexport": 7034,
      "Ġdirected": 7035,
      "Ġemployers": 7036,
      "Ġentrance": 7037,
      "Ġplatform": 7038,
      "mpt": 7039,
      "rous": 7040,
      "any": 7041,
      "Ġlux": 7042,
      "ĠEconom": 7043,
      "ĠThrough": 7044,
      "phy": 7045,
      "Ġextract": 7046,
      "Ġdisturb": 7047,
      "Ġforecast": 7048,
      "Ġjudges": 7049,
      "Ġmotiv": 7050,
      "Ġindicated": 7051,
      "Ġdeliver": 7052,
      "aisley": 7053,
      "ois": 7054,
      "tax": 7055,
      "Ġcock": 7056,
      "Ġpunch": 7057,
      "Ġprote": 7058,
      "ĠFather": 7059,
      "umber": 7060,
      "Ġclin": 7061,
      "Ġrecover": 7062,
      "Ġguilty": 7063,
      "ependent": 7064,
      "Ġsensible": 7065,
      "Ġ1945": 7066,
      "Ġdestroyed": 7067,
      "Ġspectacular": 7068,
      "ĠRoberts": 7069,
      "gers": 7070,
      "yr": 7071,
      "Ġfold": 7072,
      "Ġfaster": 7073,
      "icide": 7074,
      "ĠCertain": 7075,
      "Ġaren": 7076,
      "ela": 7077,
      "aval": 7078,
      "Ġcourage": 7079,
      "Ġperspective": 7080,
      "Ġboots": 7081,
      "ĠLiber": 7082,
      "Ġalongside": 7083,
      "Ġcharacteristic": 7084,
      "ĠLawson": 7085,
      "ĠEarth": 7086,
      "Ġbathroom": 7087,
      "ĠDublin": 7088,
      "ĠBristol": 7089,
      "Ġvice": 7090,
      "ĠUs": 7091,
      "Ġteen": 7092,
      "Ġphase": 7093,
      "Ġglider": 7094,
      "ĠOrgan": 7095,
      "forced": 7096,
      "ĠChristianity": 7097,
      "Ġsettlement": 7098,
      "Ġabandon": 7099,
      "ĠHungary": 7100,
      "ĠChelsea": 7101,
      "IG": 7102,
      "hour": 7103,
      "Ġnom": 7104,
      "ĠSud": 7105,
      "ĠAD": 7106,
      "ĠNick": 7107,
      "ĠNaz": 7108,
      "Ġkilling": 7109,
      "ĠBrig": 7110,
      "Ġweakness": 7111,
      "Ġmicro": 7112,
      "Ġterritory": 7113,
      "Ġpit": 7114,
      "ĠCorn": 7115,
      "ĠBroad": 7116,
      "Ġanger": 7117,
      "Ġexists": 7118,
      "Ġcoinc": 7119,
      "Ġpractices": 7120,
      "Ġstead": 7121,
      "Ġfalls": 7122,
      "ĠZambia": 7123,
      "ĠGloria": 7124,
      "Ġagricultural": 7125,
      "ĠClarke": 7126,
      "Do": 7127,
      "five": 7128,
      "Ġtur": 7129,
      "Ġow": 7130,
      "Ġmurd": 7131,
      "Ġdread": 7132,
      "icism": 7133,
      "Ġnut": 7134,
      "Ġease": 7135,
      "ĠMel": 7136,
      "Ġdeals": 7137,
      "Ġchore": 7138,
      "Ġattrib": 7139,
      "Ġ37": 7140,
      "Ġperformed": 7141,
      "ĠNeil": 7142,
      "Ġholes": 7143,
      "Ġruling": 7144,
      "Ġoccasional": 7145,
      "Ġconcentration": 7146,
      "Ġinterpretation": 7147,
      "ĠTown": 7148,
      "Ġcomments": 7149,
      "Ġcha": 7150,
      "Ġefficiency": 7151,
      "Ġassistance": 7152,
      "herent": 7153,
      "inny": 7154,
      "Ġsurvival": 7155,
      "ĠMoreover": 7156,
      "Ġpersuade": 7157,
      "Ġcomparison": 7158,
      "Ġdominant": 7159,
      "Ġvehicles": 7160,
      "chestra": 7161,
      "iat": 7162,
      "no": 7163,
      "you": 7164,
      "Ġcraft": 7165,
      "Ġhal": 7166,
      "ulance": 7167,
      "ĠPaisley": 7168,
      "Ġincomp": 7169,
      "Ġstring": 7170,
      "Ġexperts": 7171,
      "ĠChristopher": 7172,
      "Ġ1977": 7173,
      "Ġstronger": 7174,
      "Ġprincipal": 7175,
      "Ġselected": 7176,
      "Ġguarantee": 7177,
      "Ġcode": 7178,
      "Ġfab": 7179,
      "Ġmild": 7180,
      "Ġlamb": 7181,
      "Ġreverse": 7182,
      "igan": 7183,
      "ĠBraz": 7184,
      "Ġchart": 7185,
      "Ġworker": 7186,
      "Ġpreced": 7187,
      "Ġregulations": 7188,
      "Ġvisual": 7189,
      "Ġrepresentation": 7190,
      "mpire": 7191,
      "Ġpercent": 7192,
      "Ġheadquarters": 7193,
      "Ġexplains": 7194,
      "Ġconcerns": 7195,
      "ĠNothing": 7196,
      "Ġlistening": 7197,
      "Ġreveal": 7198,
      "Ġtendency": 7199,
      "ĠDonald": 7200,
      "Ġsurprisingly": 7201,
      "Ġpromotion": 7202,
      "fin": 7203,
      "Ġcoc": 7204,
      "ĠFR": 7205,
      "elf": 7206,
      "asty": 7207,
      "ĠJoe": 7208,
      "Ġobsc": 7209,
      "Ġmarks": 7210,
      "Ġdescribes": 7211,
      "ĠCastle": 7212,
      "book": 7213,
      "Ġwage": 7214,
      "Ġfate": 7215,
      "irable": 7216,
      "Ġwhilst": 7217,
      "ĠTheatre": 7218,
      "ĠBond": 7219,
      "abil": 7220,
      "Ġintent": 7221,
      "Ġsovere": 7222,
      "Ġcontaining": 7223,
      "ĠUp": 7224,
      "Ġroot": 7225,
      "ĠWexford": 7226,
      "Ġhelps": 7227,
      "Ġpassengers": 7228,
      "Ġtransm": 7229,
      "aimed": 7230,
      "ucking": 7231,
      "Ġuncom": 7232,
      "Ġcatal": 7233,
      "Ġneighbours": 7234,
      "Ġrestaurants": 7235,
      "ville": 7236,
      "Ġscept": 7237,
      "err": 7238,
      "Ġcrown": 7239,
      "Ġhaz": 7240,
      "Ġchap": 7241,
      "Ġintens": 7242,
      "Ġpride": 7243,
      "ĠUnt": 7244,
      "Ġrecip": 7245,
      "ĠYear": 7246,
      "Ġrelatives": 7247,
      "Ġpublication": 7248,
      "Ġears": 7249,
      "Ġcurtain": 7250,
      "Ġpropag": 7251,
      "Ġ1974": 7252,
      "Ġstream": 7253,
      "Ġpainted": 7254,
      "Ġexisted": 7255,
      "Ġlisted": 7256,
      "Ġresear": 7257,
      "Ġcollected": 7258,
      "Ġconsequence": 7259,
      "lit": 7260,
      "Ġtears": 7261,
      "onic": 7262,
      "isive": 7263,
      "Ġhier": 7264,
      "odge": 7265,
      "ĠStaff": 7266,
      "Ġinstinct": 7267,
      "Ġmilit": 7268,
      "Ġcomplicated": 7269,
      "Ġaimed": 7270,
      "Ġfleet": 7271,
      "Ġmanufacturers": 7272,
      "pay": 7273,
      "Ġtasks": 7274,
      "heart": 7275,
      "Ġgear": 7276,
      "irs": 7277,
      "ĠBas": 7278,
      "Ġexceed": 7279,
      "resents": 7280,
      "pered": 7281,
      "Ġalcoh": 7282,
      "Ġsheet": 7283,
      "Ġencl": 7284,
      "Ġservants": 7285,
      "ĠWithin": 7286,
      "Ġvolunte": 7287,
      "Ġcontrad": 7288,
      "Ġdemocratic": 7289,
      "Ġfurniture": 7290,
      "ipping": 7291,
      "Ġtort": 7292,
      "Ġgathered": 7293,
      "Ġheaven": 7294,
      "ĠSk": 7295,
      "ĠWild": 7296,
      "ĠJer": 7297,
      "Ġque": 7298,
      "orship": 7299,
      "tenham": 7300,
      "Ġconcrete": 7301,
      "Ġorganization": 7302,
      "Ġvarieties": 7303,
      "Ġapproached": 7304,
      "ĠHarris": 7305,
      "Ġenterprise": 7306,
      "Ġrestricted": 7307,
      "Ġsucceeded": 7308,
      "Ġaer": 7309,
      "ĠSpr": 7310,
      "ĠHad": 7311,
      "atering": 7312,
      "ieth": 7313,
      "Ġrepresentatives": 7314,
      "Ġexamination": 7315,
      "oslovak": 7316,
      "bn": 7317,
      "uv": 7318,
      "Ġbon": 7319,
      "Ġren": 7320,
      "ĠTor": 7321,
      "see": 7322,
      "ĠRay": 7323,
      "ĠRel": 7324,
      "Ġunknown": 7325,
      "Ġlikes": 7326,
      "Ġdiscl": 7327,
      "Ġguid": 7328,
      "ĠBright": 7329,
      "Ġsinging": 7330,
      "gressive": 7331,
      "Ġimplications": 7332,
      "Ġutter": 7333,
      "Ġsequence": 7334,
      "Ġsterling": 7335,
      "Ġcigaret": 7336,
      "aver": 7337,
      "ĠBud": 7338,
      "Ġvoc": 7339,
      "ĠRight": 7340,
      "ĠYug": 7341,
      "othy": 7342,
      "Ġactor": 7343,
      "Ġspecim": 7344,
      "Ġobjective": 7345,
      "Ġarrangement": 7346,
      "colm": 7347,
      "Ġresidential": 7348,
      "Ġinquiry": 7349,
      "bu": 7350,
      "kers": 7351,
      "eria": 7352,
      "Ġdish": 7353,
      "Ġrevers": 7354,
      "pel": 7355,
      "Ġarts": 7356,
      "Ġpercept": 7357,
      "Ġspark": 7358,
      "Ġrepresents": 7359,
      "ammuz": 7360,
      "ĠMalcolm": 7361,
      "Ġinevitably": 7362,
      "Ġburning": 7363,
      "Ġdismissed": 7364,
      "Ġtank": 7365,
      "Ġsample": 7366,
      "Ġcards": 7367,
      "Ġinject": 7368,
      "Ġnations": 7369,
      "Ġgently": 7370,
      "Ġrugby": 7371,
      "ĠHaw": 7372,
      "thur": 7373,
      "usions": 7374,
      "ĠFil": 7375,
      "ĠFred": 7376,
      "Ġ43": 7377,
      "Ġfarms": 7378,
      "Ġformation": 7379,
      "Ġ189": 7380,
      "Ġsteady": 7381,
      "ĠMcLeish": 7382,
      "UP": 7383,
      "low": 7384,
      "Ġmerc": 7385,
      "Ġdyn": 7386,
      "Ġgross": 7387,
      "Ġstiff": 7388,
      "ĠMike": 7389,
      "ĠHist": 7390,
      "agne": 7391,
      "Ġdozen": 7392,
      "Ġagencies": 7393,
      "Ġprofound": 7394,
      "ĠZu": 7395,
      "Ġamounts": 7396,
      "Ġconcentrate": 7397,
      "Ġfinger": 7398,
      "Ġmirror": 7399,
      "Ġelectricity": 7400,
      "bar": 7401,
      "rors": 7402,
      "Ġain": 7403,
      "Ġboss": 7404,
      "Ġbell": 7405,
      "acious": 7406,
      "imental": 7407,
      "Ġitems": 7408,
      "Ġstated": 7409,
      "ĠHv": 7410,
      "ieval": 7411,
      "enda": 7412,
      "pled": 7413,
      "Ġperception": 7414,
      "Ġteach": 7415,
      "adequ": 7416,
      "ĠStill": 7417,
      "Ġconsc": 7418,
      "conform": 7419,
      "anny": 7420,
      "Ġera": 7421,
      "ĠCzechoslovak": 7422,
      "cked": 7423,
      "Ġinex": 7424,
      "Ġlocked": 7425,
      "ĠMand": 7426,
      "ĠCat": 7427,
      "ĠDick": 7428,
      "ĠOl": 7429,
      "Ġthank": 7430,
      "owned": 7431,
      "Ġpointing": 7432,
      "velopment": 7433,
      "Ġvaried": 7434,
      "Ġidentify": 7435,
      "Ġruled": 7436,
      "Ġprimarily": 7437,
      "Ġhyd": 7438,
      "ĠPatten": 7439,
      "Ġpleasant": 7440,
      "Ġgradu": 7441,
      "Ġrelaxed": 7442,
      "Ġbonds": 7443,
      "Ġexcitement": 7444,
      "nie": 7445,
      "Ġtub": 7446,
      "ione": 7447,
      "Ġreaching": 7448,
      "Ġgift": 7449,
      "ĠSan": 7450,
      "ĠBig": 7451,
      "char": 7452,
      "ilton": 7453,
      "riers": 7454,
      "unting": 7455,
      "Ġalien": 7456,
      "Ġmeals": 7457,
      "ĠVi": 7458,
      "Ġsuccessfully": 7459,
      "Ġshortly": 7460,
      "Ġconsideration": 7461,
      "ĠCharlie": 7462,
      "Ġcircuit": 7463,
      "ĠMoran": 7464,
      "Ġrecommended": 7465,
      "Ġneglect": 7466,
      "Now": 7467,
      "crib": 7468,
      "Ġtape": 7469,
      "Ġcul": 7470,
      "ĠBax": 7471,
      "ĠField": 7472,
      "ĠRod": 7473,
      "ĠNob": 7474,
      "Ġjacket": 7475,
      "Ġpubs": 7476,
      "Ġretired": 7477,
      "ĠHoward": 7478,
      "ĠJohnson": 7479,
      "Ġpromote": 7480,
      "ĠConference": 7481,
      "Ġencouraging": 7482,
      "Ġdimin": 7483,
      "called": 7484,
      "Ġoce": 7485,
      "Ġpipe": 7486,
      "alin": 7487,
      "Ġlabor": 7488,
      "agers": 7489,
      "ruption": 7490,
      "Ġtakeover": 7491,
      "Ġexposed": 7492,
      "Ġsuggestion": 7493,
      "ĠAbout": 7494,
      "Ġawareness": 7495,
      "Ġhonest": 7496,
      "Ġdeparture": 7497,
      "Ġdoctr": 7498,
      "Ġcoalition": 7499,
      "Ġfan": 7500,
      "Ġgolf": 7501,
      "unes": 7502,
      "Ġscrew": 7503,
      "Ġthrust": 7504,
      "Ġpolicing": 7505,
      "ĠChristians": 7506,
      "Ġattracted": 7507,
      "Ġbrothers": 7508,
      "Ġprisoners": 7509,
      "Ġparticipation": 7510,
      "Ġadequate": 7511,
      "ĠLeicester": 7512,
      "Ġsophisticated": 7513,
      "ĠBrazil": 7514,
      "ĠZuway": 7515,
      "ĠHvK": 7516,
      "fall": 7517,
      "ias": 7518,
      "ras": 7519,
      "Ġfence": 7520,
      "Ġfix": 7521,
      "inge": 7522,
      "Ġstairs": 7523,
      "ĠCall": 7524,
      "ĠHay": 7525,
      "rive": 7526,
      "Ġbarr": 7527,
      "Ġinformed": 7528,
      "Ġsounded": 7529,
      "ĠMaybe": 7530,
      "Ġobser": 7531,
      "Ġdemanding": 7532,
      "Ġsplend": 7533,
      "Ġconfirm": 7534,
      "Ġjumped": 7535,
      "Ġprosper": 7536,
      "oom": 7537,
      "power": 7538,
      "icity": 7539,
      "acc": 7540,
      "ĠFarm": 7541,
      "Ġalter": 7542,
      "Ġpref": 7543,
      "Ġregions": 7544,
      "Ġ1978": 7545,
      "Ġdesigns": 7546,
      "Ġdevoted": 7547,
      "ĠPatrick": 7548,
      "ĠKeith": 7549,
      "Ġinnov": 7550,
      "ĠWhether": 7551,
      "ĠChildren": 7552,
      "sm": 7553,
      "ora": 7554,
      "Ġlav": 7555,
      "ĠTammuz": 7556,
      "ĠCare": 7557,
      "ĠRon": 7558,
      "oky": 7559,
      "Ġovercome": 7560,
      "ĠUnfortunately": 7561,
      "Ġdiscount": 7562,
      "Ġsecondary": 7563,
      "Ġmoder": 7564,
      "Ġskill": 7565,
      "ĠPrincess": 7566,
      "ĠLords": 7567,
      "ĠPolit": 7568,
      "Ġtournament": 7569,
      "ĠBelfast": 7570,
      "Ġsharply": 7571,
      "Ġconservation": 7572,
      "Ġpriority": 7573,
      "Ġbarely": 7574,
      "LE": 7575,
      "SC": 7576,
      "bits": 7577,
      "Ġaston": 7578,
      "Ġom": 7579,
      "Ġcore": 7580,
      "ĠApart": 7581,
      "ĠDec": 7582,
      "Ġcompos": 7583,
      "Ġquoted": 7584,
      "Ġpubl": 7585,
      "Ġ48": 7586,
      "tenance": 7587,
      "Ġguess": 7588,
      "Ġacceptable": 7589,
      "Ġtonight": 7590,
      "ĠCorporation": 7591,
      "ĠYugoslav": 7592,
      "gment": 7593,
      "Ġcow": 7594,
      "ĠHy": 7595,
      "ĠPost": 7596,
      "Ġproof": 7597,
      "ĠLove": 7598,
      "aux": 7599,
      "Ġpersons": 7600,
      "ĠDavies": 7601,
      "Ġdelivered": 7602,
      "Ġsuperior": 7603,
      "Ġ1920": 7604,
      "Ġconcentrated": 7605,
      "Ġconsumption": 7606,
      "Ġquietly": 7607,
      "Ġconversion": 7608,
      "Ġceiling": 7609,
      "Ġment": 7610,
      "ĠTake": 7611,
      "ĠAS": 7612,
      "usiness": 7613,
      "Ġpregn": 7614,
      "Ġundoubted": 7615,
      "Ġfrequent": 7616,
      "Ġgolden": 7617,
      "Ġcategory": 7618,
      "Ġvulnerable": 7619,
      "lical": 7620,
      "Ġcable": 7621,
      "adian": 7622,
      "ĠST": 7623,
      "Ġclergy": 7624,
      "aren": 7625,
      "Ġwanting": 7626,
      "Ġconcert": 7627,
      "Ġfunding": 7628,
      "Ġpacked": 7629,
      "Ġassume": 7630,
      "ĠLatin": 7631,
      "ĠHollywood": 7632,
      "ĠUntil": 7633,
      "Ġbull": 7634,
      "Ġhills": 7635,
      "ctors": 7636,
      "ĠHamp": 7637,
      "oster": 7638,
      "ĠVan": 7639,
      "elling": 7640,
      "Ġextend": 7641,
      "Ġchildhood": 7642,
      "Ġnumerous": 7643,
      "Ġdivine": 7644,
      "Ġhospitals": 7645,
      "Ġignored": 7646,
      "Ġassessment": 7647,
      "ĠBaxter": 7648,
      "away": 7649,
      "burn": 7650,
      "run": 7651,
      "west": 7652,
      "Ġhes": 7653,
      "abs": 7654,
      "ĠEst": 7655,
      "aping": 7656,
      "Ġinterpre": 7657,
      "exic": 7658,
      "Ġpreparing": 7659,
      "Ġframework": 7660,
      "hill": 7661,
      "ĠTri": 7662,
      "oty": 7663,
      "acter": 7664,
      "ĠHat": 7665,
      "ĠFA": 7666,
      "oyle": 7667,
      "Ġmemories": 7668,
      "Ġsteam": 7669,
      "umbled": 7670,
      "Ġcrops": 7671,
      "aser": 7672,
      "vell": 7673,
      "idd": 7674,
      "Ġimprison": 7675,
      "Ġdrift": 7676,
      "cester": 7677,
      "Ġcurious": 7678,
      "Ġholidays": 7679,
      "Ġcontributions": 7680,
      "ĠDemocratic": 7681,
      "Ġparallel": 7682,
      "rants": 7683,
      "erable": 7684,
      "itated": 7685,
      "Ġtools": 7686,
      "Ġreducing": 7687,
      "ĠMass": 7688,
      "ĠMother": 7689,
      "oping": 7690,
      "ĠElect": 7691,
      "Ġleather": 7692,
      "Ġshell": 7693,
      "Ġgrace": 7694,
      "Ġdecent": 7695,
      "Ġ55": 7696,
      "Ġmemor": 7697,
      "Ġ600": 7698,
      "Ġadds": 7699,
      "Ġfunctions": 7700,
      "Ġsuperb": 7701,
      "Ġdetermination": 7702,
      "Ġstrengthen": 7703,
      "Ġessentially": 7704,
      "Ġachievement": 7705,
      "Ġjudgement": 7706,
      "Ġgesture": 7707,
      "ca": 7708,
      "lock": 7709,
      "Ġfisher": 7710,
      "orse": 7711,
      "ĠCook": 7712,
      "Ġkids": 7713,
      "Ġlips": 7714,
      "Ġsomebody": 7715,
      "Ġelim": 7716,
      "ĠIsl": 7717,
      "Ġrisks": 7718,
      "Ġsituations": 7719,
      "Ġoptions": 7720,
      "Ġpermission": 7721,
      "Ġconducted": 7722,
      "Ġaccurate": 7723,
      "bec": 7724,
      "itarian": 7725,
      "Ġfed": 7726,
      "ĠChem": 7727,
      "ifting": 7728,
      "unate": 7729,
      "aks": 7730,
      "Ġcrash": 7731,
      "Ġfuneral": 7732,
      "Ġdispos": 7733,
      "Ġacquis": 7734,
      "ĠPalest": 7735,
      "ĠJacob": 7736,
      "ĠLouis": 7737,
      "case": 7738,
      "Ġsons": 7739,
      "Ġcooking": 7740,
      "Ġmap": 7741,
      "ĠMexic": 7742,
      "Ġyard": 7743,
      "illan": 7744,
      "Ġconvey": 7745,
      "ĠPress": 7746,
      "hedral": 7747,
      "Ġembr": 7748,
      "Ġ1976": 7749,
      "Ġillness": 7750,
      "Ġcovering": 7751,
      "ĠMidlands": 7752,
      "Ġpetrol": 7753,
      "Ġsurrounding": 7754,
      "Ġconstitutional": 7755,
      "Ġpreparation": 7756,
      "Ġalbum": 7757,
      "Ġvoices": 7758,
      "boy": 7759,
      "hib": 7760,
      "ĠColl": 7761,
      "third": 7762,
      "encing": 7763,
      "Ġinspir": 7764,
      "Ġinspired": 7765,
      "Ġparad": 7766,
      "Ġapproaches": 7767,
      "Ġholds": 7768,
      "ĠCaptain": 7769,
      "Ġslipped": 7770,
      "ĠAuthority": 7771,
      "Ġmould": 7772,
      "ĠRoss": 7773,
      "necess": 7774,
      "Ġ42": 7775,
      "Ġoccurs": 7776,
      "Ġairport": 7777,
      "Ġmedieval": 7778,
      "Ġperformances": 7779,
      "ĠIII": 7780,
      "Ġbands": 7781,
      "Ġbored": 7782,
      "Ġpond": 7783,
      "Ġpushing": 7784,
      "Ġchocol": 7785,
      "Ġinvasion": 7786,
      "Ġregret": 7787,
      "Ġexpense": 7788,
      "Ġstudio": 7789,
      "Ġelectoral": 7790,
      "Ġdeclined": 7791,
      "ikov": 7792,
      "Ġcomplained": 7793,
      "Ġfifteen": 7794,
      "Ġbulk": 7795,
      "swered": 7796,
      "ĠCalifornia": 7797,
      "Ġsed": 7798,
      "Ġreception": 7799,
      "ĠTH": 7800,
      "Ġanswered": 7801,
      "ateur": 7802,
      "ĠFoot": 7803,
      "Ġsake": 7804,
      "Ġdisag": 7805,
      "erences": 7806,
      "assy": 7807,
      "igned": 7808,
      "ĠStar": 7809,
      "Ġsmart": 7810,
      "Ġfounded": 7811,
      "Ġprominent": 7812,
      "Ġtesting": 7813,
      "Ġprepare": 7814,
      "ĠStewart": 7815,
      "ĠSmall": 7816,
      "Ġtemporary": 7817,
      "Ġviolent": 7818,
      "ĠJackson": 7819,
      "Ġnegative": 7820,
      "Ġadults": 7821,
      "Ġlaughing": 7822,
      "Ġconverted": 7823,
      "Ġinstrument": 7824,
      "Ġempire": 7825,
      "Ġcomprehensive": 7826,
      "final": 7827,
      "inth": 7828,
      "athetic": 7829,
      "anz": 7830,
      "Ġdamp": 7831,
      "ĠBaker": 7832,
      "Ġasleep": 7833,
      "quest": 7834,
      "Ġtrous": 7835,
      "Ġimpressed": 7836,
      "Ġfarmer": 7837,
      "Ġpreserved": 7838,
      "Ġlocation": 7839,
      "Ġmaintenance": 7840,
      "onym": 7841,
      "Ġrepresentative": 7842,
      "Ġcreative": 7843,
      "Ġsoftware": 7844,
      "Ġdepartments": 7845,
      "ĠTransport": 7846,
      "Ġlibrary": 7847,
      "71": 7848,
      "Ġtended": 7849,
      "Ġpor": 7850,
      "ĠBow": 7851,
      "ĠFair": 7852,
      "Ġgenerous": 7853,
      "Ġexpectations": 7854,
      "ĠCarol": 7855,
      "Ġclimb": 7856,
      "ĠMarket": 7857,
      "Ġargues": 7858,
      "Ġfeeding": 7859,
      "Ġdesperate": 7860,
      "ĠAlexander": 7861,
      "Ġrefugees": 7862,
      "Ġdiscipline": 7863,
      "ĠStephen": 7864,
      "gal": 7865,
      "ador": 7866,
      "advant": 7867,
      "irk": 7868,
      "keeper": 7869,
      "ĠPA": 7870,
      "Ġministry": 7871,
      "Ġevalu": 7872,
      "Ġcharity": 7873,
      "Ġpressures": 7874,
      "Ġdemonstrated": 7875,
      "Ġtackle": 7876,
      "Ġprocedures": 7877,
      "Ġpublishing": 7878,
      "minded": 7879,
      "Ġabstract": 7880,
      "bishop": 7881,
      "east": 7882,
      "wo": 7883,
      "Ġbishops": 7884,
      "atri": 7885,
      "Ġforwards": 7886,
      "celer": 7887,
      "ĠMu": 7888,
      "ĠHans": 7889,
      "ĠWay": 7890,
      "odox": 7891,
      "ĠGordon": 7892,
      "asted": 7893,
      "ensus": 7894,
      "ĠAsian": 7895,
      "ĠWhatever": 7896,
      "Ġ44": 7897,
      "Ġrestr": 7898,
      "Ġstepped": 7899,
      "Ġvoted": 7900,
      "ĠSecurity": 7901,
      "Ġremarked": 7902,
      "ĠJean": 7903,
      "Ġscholars": 7904,
      "Where": 7905,
      "Ġtries": 7906,
      "Ġaest": 7907,
      "Ġtheore": 7908,
      "Ġcabinet": 7909,
      "Ġfer": 7910,
      "ĠCas": 7911,
      "ĠHes": 7912,
      "ĠElean": 7913,
      "play": 7914,
      "Ġ39": 7915,
      "Ġminim": 7916,
      "ĠArthur": 7917,
      "Ġreturns": 7918,
      "Ġapproved": 7919,
      "Ġabsor": 7920,
      "Ġcomplaints": 7921,
      "Ġcoverage": 7922,
      "Ġcollabor": 7923,
      "Ġsleeping": 7924,
      "87": 7925,
      "aire": 7926,
      "do": 7927,
      "nut": 7928,
      "inger": 7929,
      "rogen": 7930,
      "ĠPage": 7931,
      "ĠLook": 7932,
      "ĠLane": 7933,
      "ĠRom": 7934,
      "ĠRef": 7935,
      "assion": 7936,
      "Ġconsent": 7937,
      "Ġrelie": 7938,
      "Ġconfusion": 7939,
      "ĠIndies": 7940,
      "Ġobjectives": 7941,
      "Ġproduces": 7942,
      "ĠOthers": 7943,
      "ĠEmily": 7944,
      "Ġstretch": 7945,
      "ĠNicholas": 7946,
      "cott": 7947,
      "vention": 7948,
      "Ġtong": 7949,
      "Ġbrave": 7950,
      "Ġmal": 7951,
      "otton": 7952,
      "ĠGal": 7953,
      "Ġleisure": 7954,
      "ĠVer": 7955,
      "Ġevil": 7956,
      "Ġsupporting": 7957,
      "Ġorganiz": 7958,
      "Ġpressed": 7959,
      "Ġkeeps": 7960,
      "ĠDavis": 7961,
      "Ġconviction": 7962,
      "ĠGlou": 7963,
      "Ġcollaps": 7964,
      "Ġemotion": 7965,
      "ĠVictoria": 7966,
      "Ġsurrounded": 7967,
      "Ġdisappointed": 7968,
      "Ġawarded": 7969,
      "ĠEleanor": 7970,
      "rell": 7971,
      "Ġwand": 7972,
      "Ġinadequ": 7973,
      "Ġlob": 7974,
      "Ġhence": 7975,
      "ĠHa": 7976,
      "ulph": 7977,
      "ĠPear": 7978,
      "ĠEmpire": 7979,
      "Ġweren": 7980,
      "acking": 7981,
      "Ġmini": 7982,
      "Ġconcluded": 7983,
      "Ġinfant": 7984,
      "iversary": 7985,
      "Ġ1940": 7986,
      "Ġpersuaded": 7987,
      "Ġsummit": 7988,
      "piece": 7989,
      "ĠDouglas": 7990,
      "As": 7991,
      "SP": 7992,
      "rum": 7993,
      "Ġtap": 7994,
      "Ġsending": 7995,
      "Ġwives": 7996,
      "Ġfib": 7997,
      "ĠHosp": 7998,
      "Ġshed": 7999,
      "ĠThames": 8000,
      "ĠKenn": 8001,
      "Ġpoison": 8002,
      "Ġcharacteristics": 8003,
      "addy": 8004,
      "Ġfemin": 8005,
      "Ġconstituency": 8006,
      "Ġpublisher": 8007,
      "iper": 8008,
      "lb": 8009,
      "enger": 8010,
      "Ġmoon": 8011,
      "ĠBay": 8012,
      "ola": 8013,
      "Ġraces": 8014,
      "ĠFestival": 8015,
      "Ġintr": 8016,
      "Ġroles": 8017,
      "ressing": 8018,
      "Ġanybody": 8019,
      "oebe": 8020,
      "Ġsuspended": 8021,
      "Ġarchitecture": 8022,
      "Ġconservative": 8023,
      "Ġagriculture": 8024,
      "foot": 8025,
      "po": 8026,
      "iner": 8027,
      "Ġdign": 8028,
      "level": 8029,
      "ĠCirc": 8030,
      "anted": 8031,
      "rapped": 8032,
      "ĠWhich": 8033,
      "Ġnevertheless": 8034,
      "Ġsuccessive": 8035,
      "ĠBlue": 8036,
      "Ġurged": 8037,
      "Ġroutes": 8038,
      "Ġhistoric": 8039,
      "ĠOfficer": 8040,
      "ĠZuwaya": 8041,
      "half": 8042,
      "pes": 8043,
      "inery": 8044,
      "Ġsixt": 8045,
      "llers": 8046,
      "ĠTable": 8047,
      "ĠOper": 8048,
      "inder": 8049,
      "erent": 8050,
      "ucks": 8051,
      "Ġgraph": 8052,
      "Ġknee": 8053,
      "Ġrecall": 8054,
      "ailing": 8055,
      "Ġaccord": 8056,
      "Ġdiscovery": 8057,
      "Ġcoloured": 8058,
      "Ġcompete": 8059,
      "ĠPlan": 8060,
      "Ġconnected": 8061,
      "ĠBrowning": 8062,
      "ĠHolland": 8063,
      "Ġretained": 8064,
      "Ġreminded": 8065,
      "Ġphotographs": 8066,
      "ĠCertainly": 8067,
      "13": 8068,
      "16": 8069,
      "lar": 8070,
      "mar": 8071,
      "Ġlone": 8072,
      "acon": 8073,
      "ĠSher": 8074,
      "changed": 8075,
      "Ġnotably": 8076,
      "Ġgrate": 8077,
      "Ġflesh": 8078,
      "Ġacceler": 8079,
      "Ġrealized": 8080,
      "Ġpossession": 8081,
      "Ġwinners": 8082,
      "ĠPhoebe": 8083,
      "Ġradi": 8084,
      "Ġjoining": 8085,
      "Ġawful": 8086,
      "Ġessence": 8087,
      "castle": 8088,
      "Ġchemistry": 8089,
      "Ġingred": 8090,
      "Ġcompromise": 8091,
      "Ġtin": 8092,
      "Ġsorts": 8093,
      "ĠSever": 8094,
      "ammed": 8095,
      "Ġstability": 8096,
      "ifer": 8097,
      "ĠEM": 8098,
      "Ġvague": 8099,
      "Ġwholly": 8100,
      "ouses": 8101,
      "Ġcler": 8102,
      "Ġdisadvant": 8103,
      "Ġvalid": 8104,
      "Ġvoting": 8105,
      "Ġdoubts": 8106,
      "ĠColonel": 8107,
      "ERS": 8108,
      "Ġtouched": 8109,
      "Ġdestruction": 8110,
      "Ġjunior": 8111,
      "host": 8112,
      "Ġtent": 8113,
      "Ġfavoured": 8114,
      "igs": 8115,
      "Ġstones": 8116,
      "ĠBack": 8117,
      "ĠBru": 8118,
      "Ġhabits": 8119,
      "ĠGiven": 8120,
      "ĠDaily": 8121,
      "Ġsauce": 8122,
      "Ġarbit": 8123,
      "Ġagenda": 8124,
      "ĠInvest": 8125,
      "irect": 8126,
      "Ġknife": 8127,
      "Ġpoems": 8128,
      "airman": 8129,
      "Ġsupplement": 8130,
      "Ġelabor": 8131,
      "Ġdivisions": 8132,
      "Ġimproving": 8133,
      "Ġsympathy": 8134,
      "ĠHelen": 8135,
      "Ġpaintings": 8136,
      "Ġsubsequently": 8137,
      "ĠDevon": 8138,
      "Ġinitiative": 8139,
      "cut": 8140,
      "overs": 8141,
      "Ġtied": 8142,
      "Ġpul": 8143,
      "Ġdull": 8144,
      "rose": 8145,
      "ĠSut": 8146,
      "ĠAld": 8147,
      "ĠHal": 8148,
      "orders": 8149,
      "Ġpriest": 8150,
      "Ġnights": 8151,
      "Ġexplicit": 8152,
      "Ġtested": 8153,
      "Ġrisen": 8154,
      "Ġdrinks": 8155,
      "going": 8156,
      "Ġtonnes": 8157,
      "ĠHold": 8158,
      "ifully": 8159,
      "ĠEight": 8160,
      "Ġshapes": 8161,
      "Ġleague": 8162,
      "ummer": 8163,
      "Ġkil": 8164,
      "Ġspare": 8165,
      "Ġconfined": 8166,
      "Ġconfront": 8167,
      "clock": 8168,
      "Ġsixth": 8169,
      "Ġlearnt": 8170,
      "Ġfriendship": 8171,
      "Ġburden": 8172,
      "Ġdeny": 8173,
      "Ġportra": 8174,
      "ĠJeff": 8175,
      "Ġretirement": 8176,
      "jud": 8177,
      "atoes": 8178,
      "Ġcattle": 8179,
      "itzer": 8180,
      "Ġchron": 8181,
      "arded": 8182,
      "ucked": 8183,
      "ĠChic": 8184,
      "Ġgrin": 8185,
      "Ġdiscrim": 8186,
      "Ġweekly": 8187,
      "ĠAtt": 8188,
      "ĠAtlantic": 8189,
      "Ġproport": 8190,
      "Ġpromises": 8191
    },
    "merges": [
      "Ġ t",
      "h e",
      "Ġ a",
      "i n",
      "Ġt he",
      "č Ċ",
      "r e",
      "Ġ o",
      "Ġ s",
      "Ġ w",
      "e r",
      "o n",
      "e n",
      "Ġ b",
      "a t",
      "Ġ c",
      "i s",
      "i t",
      "n d",
      "Ġ f",
      "e d",
      "Ġ p",
      "Ġo f",
      "o r",
      "e s",
      "o u",
      "in g",
      "a n",
      "Ġt o",
      "a r",
      "Ġ m",
      "Ġ h",
      "Ġ in",
      "a l",
      "Ġa nd",
      "a s",
      "Ġ d",
      "i c",
      "l e",
      "Ġt h",
      "o m",
      "i on",
      "Ġ čĊ",
      "Ġ n",
      "Ġ l",
      "l l",
      "Ġb e",
      "en t",
      "l y",
      "Ġ e",
      "s t",
      "Ġ re",
      "Ġ T",
      "v e",
      "r o",
      "Ġ g",
      "u t",
      "a d",
      "o t",
      "i d",
      "Ġ I",
      "Ġo n",
      "a c",
      "Ġ he",
      "l d",
      "s e",
      "i m",
      "Ġ is",
      "Ġf or",
      "e t",
      "o w",
      "a y",
      "Ġ S",
      "i r",
      "Ġw h",
      "Ġth at",
      "v er",
      "i g",
      "Ġ '",
      "Ġ A",
      "Ġ u",
      "Ġw as",
      "Ġ it",
      "u r",
      "a m",
      "Ġs t",
      "c t",
      "ĠT he",
      "c e",
      "it h",
      "Ġ M",
      "Ġ C",
      "Ġ B",
      "Ġa s",
      "Ġ y",
      "Ġw ith",
      "t er",
      "' s",
      "Ġw e",
      "at ion",
      "c h",
      "i l",
      "o l",
      "Ġa n",
      "Ġ r",
      "he r",
      "Ġ H",
      "i ll",
      "Ġh a",
      "Ġa t",
      "Ġc on",
      "a in",
      "i f",
      "Ġ 1",
      "Ġf r",
      "g e",
      "Ġd e",
      "Ġs e",
      "er s",
      "h t",
      "u l",
      "Ġ W",
      "k e",
      "ou r",
      "ou ld",
      "Ġ P",
      "Ġs u",
      "Ġb y",
      "Ġp ro",
      "Ġn ot",
      "is t",
      "o re",
      "Ġa re",
      "p p",
      "a b",
      "m ent",
      "o d",
      "es s",
      "t h",
      "r i",
      "Ġe x",
      "Ġc om",
      "es t",
      "a nd",
      "Ġo r",
      "Ġ L",
      "Ġh is",
      "Ġn e",
      "Ġfr om",
      "o p",
      "Ġ E",
      "Ġh ad",
      "Ġha ve",
      "ic h",
      "Ġs h",
      "u s",
      "at e",
      "an t",
      "re s",
      "Ġ -",
      "ig ht",
      "Ġ G",
      "Ġ F",
      "q u",
      "e m",
      "o s",
      "Ġ D",
      "i ve",
      "Ġc h",
      "ar t",
      "p e",
      "u n",
      "i es",
      "Ġ v",
      "re d",
      "Ġa l",
      "ar d",
      "Ġwh ich",
      "Ġ R",
      "o c",
      "or t",
      "Ġ le",
      "Ġy ou",
      "ou g",
      "it y",
      "e l",
      "as t",
      "Ġ N",
      "n t",
      "i e",
      "u st",
      "en d",
      "i v",
      "om e",
      "al l",
      "Ġb ut",
      "u m",
      "a p",
      "Ġwe re",
      "Ġa b",
      "Ġt r",
      "ou t",
      "Ġw he",
      "Ġw or",
      "Ġh as",
      "Ġg o",
      "Ġthe y",
      "Ġin t",
      "Ġth is",
      "o st",
      "e ar",
      "a g",
      "Ġa ll",
      "Ġwh o",
      "Ġs a",
      "ou s",
      "Ġp l",
      "Ġthe ir",
      "i al",
      "ac k",
      "Ġ O",
      "a k",
      "o k",
      "Ġd o",
      "Ġhe r",
      "Ġw ill",
      ". '",
      "Ġm e",
      "Ġ1 9",
      "Ġ j",
      "u re",
      "on g",
      "Ġ k",
      "Ġo ut",
      "Ġs o",
      "t her",
      "Ġbe en",
      "oug h",
      "ou nd",
      "id e",
      "Ġ J",
      "is h",
      "Ġon e",
      "Ġw ould",
      "f f",
      "Ġu p",
      "Ġu n",
      "u d",
      "Ġc an",
      "al ly",
      "Ġa r",
      "Ġm an",
      "p t",
      "ĠI t",
      "on e",
      "ic e",
      "Ġm ore",
      "Ġs he",
      "ĠH e",
      "r it",
      "p l",
      "Ġc l",
      "ac t",
      "in d",
      "ĠT h",
      "a ge",
      "Ġa g",
      "e ct",
      "r y",
      "Ġthe re",
      "ab le",
      "ion s",
      "im e",
      "a re",
      "Ġsa id",
      "ĠI n",
      "Ġ im",
      "Ġl i",
      "in e",
      "an ce",
      "am e",
      "Ġp er",
      "r a",
      "Ġ en",
      "Ġcom p",
      "ver y",
      "o ok",
      "ar y",
      "Ġcon t",
      "Ġp art",
      "Ġthe m",
      "c c",
      "on d",
      "0 0",
      "b er",
      "Ġit s",
      "en ce",
      "o se",
      "Ġy ear",
      "Ġa d",
      "Ġh im",
      "' t",
      "p er",
      "a ke",
      "v en",
      "at ed",
      "Ġab out",
      "an s",
      "Ġof f",
      "ic al",
      "Ġn o",
      "Ġo ver",
      "a u",
      "Ġd is",
      "e re",
      "ac e",
      "b le",
      "as s",
      "Ġth an",
      "Ġs p",
      "Ġp r",
      "Ġf e",
      "Ġwhe n",
      "w n",
      "i p",
      "ay s",
      "Ġs ome",
      "Ġint o",
      "or d",
      "Ġo ther",
      "ow n",
      "Ġ 2",
      "a v",
      "Ġbe c",
      "Ġ K",
      "ĠM r",
      "i re",
      "u b",
      "Ġ U",
      "re e",
      "Ġt w",
      "Ġ qu",
      "Ġ ro",
      "u e",
      "Ġre s",
      "Ġp e",
      "Ġa pp",
      "Ġt e",
      "Ġli ke",
      "he d",
      "Ġu s",
      "ar k",
      "u c",
      "ĠC h",
      "e p",
      "Ġc ould",
      "res s",
      "o g",
      "Ġg r",
      "Ġk n",
      "ad e",
      "ou nt",
      "ul t",
      "ig n",
      "Ġwor k",
      "w e",
      "Ġin c",
      "Ġon ly",
      "Ġt ime",
      "Ġf ir",
      "t e",
      "m er",
      "f ter",
      "ing s",
      "Ġ if",
      "Ġan y",
      "Ġre c",
      "re at",
      "it e",
      "se l",
      "Ġm y",
      "ac h",
      "ic k",
      "Ġne w",
      "i ous",
      "er v",
      "ct ion",
      ", '",
      "or m",
      "n g",
      "ĠB ut",
      "Ġp o",
      "Ġp ol",
      "ation s",
      "Ġs c",
      "a il",
      "Ġp re",
      "o y",
      "Ġwh at",
      "s o",
      "it ion",
      "op le",
      "Ġc o",
      "o od",
      "Ġtw o",
      ". .",
      "nd er",
      "i ld",
      "en s",
      "Ġbe t",
      "on s",
      "Ġim p",
      "Ġc ent",
      "m an",
      "ĠS t",
      "an g",
      "r u",
      "i an",
      "in t",
      "in k",
      "Ġfir st",
      "o ve",
      "Ġin d",
      "ur n",
      "is e",
      "l i",
      "Ġal so",
      "Ġpe ople",
      "ve l",
      "an c",
      "i le",
      "Ġa fter",
      "at er",
      "it t",
      "Ġf l",
      "or s",
      "if f",
      "ic t",
      "Ġag ain",
      "i a",
      "or y",
      "l and",
      "Ġb ack",
      "Ġm ost",
      "au se",
      "Ġ Y",
      "n e",
      "Ġb r",
      "ĠB rit",
      "Ġs pe",
      "Ġn ow",
      "u ch",
      "Ġb l",
      "Ġu nder",
      "Ġat t",
      "as e",
      "oc k",
      "f ore",
      "u ll",
      "h ing",
      "Ġa m",
      "Ġd es",
      "Ġd id",
      "o v",
      "u al",
      "Ġy our",
      "m s",
      "Ġre m",
      "am p",
      "Ġj ust",
      "Ġcom m",
      "Ġl ook",
      "Ġe ven",
      "Ġsh ould",
      "sel f",
      "f t",
      "Ġde c",
      "Ġh ow",
      "Ġth r",
      "d ay",
      "Ġyear s",
      "Ġ 3",
      "ĠTh is",
      "Ġcon s",
      "Ġ very",
      "oug ht",
      "Ġthe n",
      "Ġsu ch",
      "ation al",
      "os s",
      "Ġm ay",
      "Ġo wn",
      "ot her",
      "ver n",
      "Ġw ay",
      "Ġm ade",
      "i ly",
      "ar ly",
      "Ġwhe re",
      "Ġl ast",
      "w ard",
      "Ġd iff",
      "Ġa cc",
      "Ġse e",
      "Ġd own",
      "Ġm uch",
      "pe ct",
      "Ġ V",
      "at h",
      "Ġs m",
      "l es",
      "Ġg et",
      "Ġa c",
      "Ġre p",
      "at her",
      "t ain",
      "if e",
      "i z",
      "ĠS he",
      "ro w",
      "Ġre l",
      "a ir",
      "Ġthr ough",
      "ter n",
      "ig h",
      "Ġl ong",
      "is s",
      "f orm",
      "n ing",
      "e w",
      "d u",
      "k s",
      "Ġse c",
      "we en",
      "Ġin v",
      "i et",
      "' .",
      "ot h",
      "i ed",
      "l ic",
      "Ġbe ing",
      "o ld",
      "an ge",
      "f ul",
      "Ġo ur",
      "Ġc ar",
      "Ġwe ll",
      "w ay",
      "ĠW e",
      "Ġbet ween",
      "Ġbec ause",
      "Ġkn ow",
      "Ġne ed",
      "Ġman y",
      "ment s",
      "l ed",
      "ĠA s",
      "Ġsu pp",
      "x t",
      "re n",
      "at es",
      "Ġbe fore",
      "ver s",
      "Ġb u",
      "he s",
      "en c",
      "Ġ19 8",
      "Ġthe se",
      "le ct",
      "o b",
      "Ġgo od",
      "Ġe m",
      "v ed",
      "i b",
      "al s",
      "Ġ end",
      "i ble",
      "o ll",
      "? '",
      "ent s",
      "t ing",
      "it ies",
      "ow er",
      "en er",
      "ĠThe re",
      "he n",
      "Ġf in",
      "ou p",
      "vern ment",
      "e c",
      "Ġm ake",
      "Ġo b",
      "Ġw ant",
      "Ġth ose",
      "Ġha nd",
      "ĠW h",
      "Ġp ub",
      "at ive",
      "Ġc ount",
      "Ġto o",
      "Ġm in",
      "ĠThe y",
      "is m",
      "Ġsu b",
      "om m",
      "t y",
      "ter s",
      "Ġst ill",
      "a w",
      "g an",
      "j ect",
      "Ġa ct",
      "Ġ 4",
      "ou se",
      "Ġbe l",
      "a ve",
      "ĠA nd",
      "t s",
      "ak ing",
      "e ll",
      "Ġst r",
      "ce pt",
      "Ġs ur",
      "Ġr ight",
      "Ġe very",
      "at ing",
      "e ver",
      "is ed",
      "Ġs y",
      "t en",
      "Ġf ar",
      "Ġm on",
      "Ġe v",
      "id ent",
      "om et",
      "Ġp res",
      "p h",
      "an k",
      "Ġs l",
      "Ġpl ay",
      "Ġg reat",
      "ou n",
      "Ġth ree",
      "e red",
      "Ġ 5",
      "Ġs et",
      "Ġre g",
      "in ce",
      "Ġth ink",
      "Ġc our",
      "c on",
      "u ro",
      "ist s",
      "Ġle ad",
      "u p",
      "Ġse em",
      "o ol",
      "Ġ ke",
      "er n",
      "it s",
      "Ġt ake",
      "Ġwor ld",
      "Ġm ust",
      "Ġpro v",
      "Ġs ay",
      "it ed",
      "h ip",
      "g r",
      "g et",
      "Ġ ent",
      "Ġcon f",
      "a x",
      "itt le",
      "is ion",
      "ul ar",
      "Ġp ers",
      "a red",
      "l ud",
      "Ġagain st",
      "Ġe ff",
      "Ġm ark",
      "al k",
      "Ġre f",
      "g g",
      "Ġcon c",
      "c ial",
      "Ġwe e",
      "Ġd ay",
      "ri b",
      "Ġde f",
      "n ess",
      "u nd",
      "Ġex t",
      "ĠU n",
      "ĠE ng",
      "Ġs oc",
      "Ġl ife",
      "u res",
      "ĠE uro",
      "if ic",
      "Ġo p",
      "Ġc r",
      "re ad",
      "Ġs erv",
      "00 0",
      "Ġdis c",
      "Ġex p",
      "Ġc ol",
      "c ess",
      "Ġo ld",
      "ĠBrit ish",
      "Ġf am",
      "mer ic",
      "Ġc le",
      "Ġas s",
      "' ,",
      "Ġm ight",
      "Ġc all",
      "Ġl ittle",
      "ur ing",
      "Ġt urn",
      "Ġpol it",
      "i x",
      "Ġp ut",
      "iv es",
      "ie w",
      "ĠF r",
      "u ally",
      "ic es",
      "Ġw ar",
      "Ġcomp an",
      "ĠEuro pe",
      "Ġsh ow",
      "ĠI f",
      "Ġb oth",
      "t ed",
      "ut ion",
      "ar ge",
      "Ġt er",
      "ĠL e",
      "Ġs ame",
      "ro s",
      "in s",
      "ĠA n",
      "ĠA meric",
      "Ġpo int",
      "v ing",
      "Ġfor m",
      "v es",
      "Ġs omet",
      "al e",
      "Ġne ver",
      "Ġs im",
      "Ġdiff ere",
      "ere st",
      "Ġin st",
      "Ġin s",
      "Ġd r",
      "l ing",
      "Ġhe l",
      "Ġw om",
      "Ġh igh",
      "Ġch ild",
      "Ġre al",
      "w ays",
      "Ġre t",
      "Ġhe ad",
      "re t",
      "ab ly",
      "Ġm em",
      "ic s",
      "ĠA l",
      "il ity",
      "ol og",
      "ant s",
      "d uc",
      "n er",
      "he re",
      "Ġg ener",
      "ur y",
      "vel op",
      "Ġ 6",
      "Ġf ound",
      "im es",
      "Ġm at",
      "Ġan other",
      "Ġp h",
      "Ġf act",
      "Ġg l",
      "Ġu se",
      "is hed",
      "Ġgo vernment",
      "ĠG er",
      "Ġc he",
      "Ġde p",
      ".. .",
      "ĠM ar",
      "Ġth ought",
      "Ġpart ic",
      "ĠF or",
      "Ġl oc",
      "Ġb o",
      "c es",
      "Ġhel p",
      "ĠC omm",
      "Ġint erest",
      "u g",
      "Ġgr oup",
      "as ed",
      "Ġcom e",
      "a j",
      "Ġb us",
      "Ġde m",
      "t on",
      "Ġinc lud",
      "le y",
      "Ġd ist",
      "m e",
      "l ess",
      "in ess",
      "Ġad d",
      "Ġfe w",
      "y ing",
      "Ġw rit",
      "Ġsm all",
      "i ent",
      "Ġp oss",
      "Ġd ire",
      "on t",
      "Ġm ain",
      "oll ow",
      "Ġdo es",
      "Ġin ter",
      "Ġf ind",
      "Ġl ess",
      "Ġre ad",
      "Ġpro ble",
      "e f",
      "Ġpub lic",
      "Ġus ed",
      "p r",
      "Ġst art",
      "k ed",
      "Ġa ut",
      "ĠA r",
      "ros s",
      "Ġh ome",
      "y s",
      "Ġre st",
      "pp ed",
      "Ġ ide",
      "Ġd on",
      "Ġde velop",
      "as on",
      "Ġbel ie",
      "er tain",
      "ou th",
      "Ġwh ile",
      "ward s",
      "Ġr un",
      "ond on",
      "Ġle ft",
      "in ed",
      "Ġp ri",
      "n ce",
      "Ġpl ace",
      "o h",
      "Ġd et",
      "Ġsec ond",
      "ĠL ondon",
      "st em",
      "Ġa way",
      "ri ed",
      "Ġad v",
      "Ġop en",
      "ĠTh at",
      "Ġc ame",
      "Ġmark et",
      "Ġb ro",
      "Ġe ach",
      "al f",
      "Ġn um",
      "Ġg u",
      "Ġf our",
      "Ġwee k",
      "d er",
      "r ic",
      "ĠA t",
      "od y",
      "Ġne xt",
      "Ġh ard",
      "ak es",
      "Ġo pp",
      "Ġin f",
      "id ed",
      "Ġpro du",
      "ie ld",
      "Ġgo ing",
      "Ġth ough",
      "Ġs ince",
      "u es",
      "Ġal ways",
      "Ġimp ort",
      "ĠBrit ain",
      "l ish",
      "Ġmon th",
      "Ġst and",
      "ap s",
      "Ġf ollow",
      "b ers",
      "Ġg iv",
      "ch ool",
      "Ġpers on",
      "ĠS c",
      "Ġfe el",
      "es ter",
      "Ġm od",
      "con om",
      "Ġwith out",
      "ut e",
      "Ġsy stem",
      "ur al",
      "Ġe ar",
      "Ġcont in",
      "Ġar t",
      "Ġst ud",
      "i ence",
      "r al",
      "Ġinc re",
      "Ġch ar",
      "Ġc or",
      "Ġ 7",
      "Ġ ed",
      "is ing",
      "Ġp ass",
      "ab our",
      "Ġb ook",
      "Ġex per",
      "Ġm et",
      "Ġu nt",
      "Ġs ign",
      "Ġhe re",
      "r act",
      "Ġp ower",
      "in es",
      "c ed",
      "s h",
      "ill ion",
      "Ġc are",
      "Ġc ap",
      "ent ion",
      "Ġf ull",
      "Ġg ot",
      "os ed",
      "Ġn ight",
      "r ist",
      "aj or",
      "Ġm ar",
      "Ġc ur",
      "Ġex pl",
      "ain ed",
      "id er",
      "Ġar ound",
      "Ġs er",
      "ĠGer man",
      "Ġbe h",
      "Ġf ore",
      "or th",
      "Ġpol ic",
      "ĠR e",
      "ĠC l",
      "Ġha pp",
      "Ġl arge",
      "Ġle t",
      "Ġpro f",
      "Ġr ather",
      "Ġb re",
      "m ed",
      "ester day",
      "one y",
      "Ġcount ry",
      "Ġe conom",
      "Ġb est",
      "Ġw ent",
      "Ġm en",
      "ĠH ow",
      "th ing",
      "Ġh ouse",
      "Ġdire ct",
      "is ter",
      "as h",
      "Ġa v",
      "us s",
      "ak en",
      "Ġdiffere nt",
      "Ġloc al",
      "a z",
      "ir d",
      "ot t",
      "Ġeff ect",
      "Ġtr ans",
      "au g",
      "th ough",
      "ag es",
      "g ed",
      "ĠY ou",
      "s on",
      "Ġpart y",
      "Ġsomet hing",
      "Ġyou ng",
      "ri es",
      "h am",
      "Ġto ok",
      "ro p",
      "en se",
      "cc ess",
      "T he",
      "Ġ1 0",
      "m ost",
      "ic ally",
      "Ġo cc",
      "ur ch",
      "at ure",
      "Ġy esterday",
      "Ġw in",
      "b r",
      "m in",
      "ĠN ew",
      "ent ly",
      "Ġsupp ort",
      "Ġunt il",
      "ĠO n",
      "Ġle g",
      "Ġst ate",
      "h or",
      "i red",
      "Ġv is",
      "Ġth ings",
      "al th",
      "i er",
      "Ġs chool",
      "ain s",
      "Ġcont ro",
      "Ġof ten",
      "os ition",
      "Ġp ay",
      "Ġg ive",
      "Ġcomp le",
      "Ġb ig",
      "Ġres p",
      "it al",
      "or k",
      "our s",
      "Ġp ar",
      "Ġw ater",
      "ĠW hen",
      "Ġe le",
      "Ġbus iness",
      "ĠL abour",
      "' d",
      "Ġbu ild",
      "c hed",
      "Ġcour se",
      "Ġs ays",
      "Ġme et",
      "Ġsu ccess",
      "Ġ 8",
      "Ġs w",
      "Ġa ir",
      "Ġc ost",
      "Ġcon st",
      "Ġ est",
      "Ġp op",
      "Ġe l",
      "Ġv iew",
      "Ġh alf",
      "Ġpl an",
      "Ġsoc ial",
      "Ġpolit ical",
      "ĠA ll",
      "iet y",
      "Ġres ult",
      "Ġpro p",
      "Ġm ove",
      "t he",
      "oh n",
      "ic ult",
      "end s",
      "Ġc re",
      "Ġp ast",
      "Ġd uring",
      "ate ly",
      "a im",
      "Ġs k",
      "Ġor gan",
      "Ġe qu",
      "Ġhim self",
      "Ġbet ter",
      "ru ct",
      "it her",
      "uc k",
      "g er",
      "Ġto ld",
      "Ġl ater",
      "Ġm oney",
      "Ġe as",
      "Ġfr i",
      "Ġbec ome",
      "Ġex pect",
      "s ide",
      "at ch",
      "Ġind ust",
      "Ġm us",
      "ĠJ ohn",
      "Ġe arly",
      "ĠCh rist",
      "Ġ1 8",
      "Ġcompan y",
      "ar s",
      "am ent",
      "re en",
      "ard s",
      "ain ing",
      "ĠP r",
      "read y",
      "at s",
      "Ġl ight",
      "Ġal most",
      "ĠS h",
      "iv ed",
      "Ġen ough",
      "Ġqu est",
      "o ot",
      "er ing",
      "Ġf il",
      "i ans",
      "Ġse en",
      "c l",
      "Ġwith in",
      "a ff",
      "Ġa ff",
      "Ġd ays",
      "Ġc ertain",
      "Ġl and",
      "Ġ19 7",
      "d en",
      "Ġp ress",
      "em pt",
      "b y",
      "Ġf ur",
      "Ġe y",
      "Ġv ar",
      "Ġnum ber",
      "ort s",
      "Ġs ide",
      "o int",
      "ĠW est",
      "un ity",
      "Ġh op",
      "Ġro om",
      "Ġre qu",
      "ion al",
      "a pp",
      "Ġ19 9",
      "Ġon ce",
      "c k",
      "am es",
      "Ġfam ily",
      "Ġpres ent",
      "Ġke ep",
      "Ġv al",
      "Ġpr om",
      "Ġst re",
      "st er",
      "Ġgiv en",
      "al es",
      "Ġall ow",
      "Ġal ready",
      "Ġt aken",
      "Ġle ast",
      "pl oy",
      "Ġret urn",
      "ĠI nd",
      "Ġr ound",
      "Ġm il",
      "Ġoff ic",
      "Ġimport ant",
      "i o",
      "r ap",
      "Ġwor d",
      "Ġc ase",
      "Ġm ajor",
      "Ġrec ord",
      "Ġto p",
      "el t",
      "Ġwom en",
      "Ġinv est",
      "n ed",
      "ĠEng land",
      "et s",
      "' m",
      "ĠS o",
      "Ġchild ren",
      "ĠH is",
      "ĠMr s",
      "ĠB r",
      "Ġg row",
      "ĠD e",
      "' ve",
      "v ious",
      "Ġcall ed",
      "Ġdiff icult",
      "at ic",
      "h aps",
      "g in",
      "Ġtr ad",
      "ĠO ne",
      "' re",
      "ĠS e",
      "Ġ1 5",
      "Ġh ist",
      "us ed",
      "Ġre ally",
      "Ġc ut",
      "ir on",
      "Ġ es",
      "Ġf ive",
      "i vers",
      "' ll",
      "Ġp at",
      "Ġe lect",
      "Ġm ind",
      "un g",
      "in c",
      "anc es",
      "amp le",
      "en ed",
      "l f",
      "or n",
      "Ġh um",
      "Ġsh ort",
      "iv id",
      "sel ves",
      "Ġcl ass",
      "Ġch ang",
      "Ġo per",
      "ĠR o",
      "ou b",
      "ar ch",
      "Ġpro t",
      "Ġan n",
      "a id",
      "are nt",
      "end ed",
      "Ġm ov",
      "Ġk ind",
      "Ġpri v",
      "Ġapp ro",
      "Ġle vel",
      "h at",
      "g y",
      "Ġf ace",
      "Ġt re",
      "Ġde al",
      "Ġhow ever",
      "Ġe ver",
      "duc ed",
      "st and",
      "Ġte ll",
      "ĠEurope an",
      "Ġdes c",
      "Ġt y",
      "ĠP ro",
      "gg est",
      "ro wn",
      "re nt",
      "enc y",
      "ĠAmeric an",
      "ot s",
      "ent ial",
      "ĠG od",
      "Ġsu ggest",
      "ĠG r",
      "Ġposs ible",
      "id es",
      "ch n",
      "b e",
      "l s",
      "Ġinv ol",
      "Ġaut hor",
      "al ity",
      "Ġw ind",
      "Ġis s",
      "Ġas ked",
      "Ġsim p",
      "n ot",
      "Ġspe c",
      "Ġman ag",
      "ra w",
      "Ġnot hing",
      "iss ion",
      "g u",
      "Ġlook ed",
      "f ord",
      "ar ing",
      "Ġcl aim",
      "Ġwho le",
      "ĠG o",
      "it ions",
      "Ġha ving",
      "Ġpro per",
      "Ġcl ose",
      "s p",
      "as es",
      "Ġf ree",
      "Ġs ix",
      "Ġpr act",
      "! '",
      "Ġs ing",
      "Ġch ange",
      "Ġb ar",
      "Ġc rit",
      "Ġf ail",
      "ĠM an",
      "Ġmem bers",
      "Ġinf l",
      "ĠWh at",
      "ur s",
      "ir c",
      "Ġqu ite",
      "Ġfur ther",
      "Ġ 9",
      "qu e",
      "Ġam ong",
      "o ver",
      "Ġl aw",
      "Ġsu m",
      "Ġst e",
      "em ber",
      "Ġin form",
      "an e",
      "Ġc a",
      "om p",
      "Ġex ample",
      "Ġspe cial",
      "Ġd ri",
      "iv ing",
      "Ġm id",
      "Ġto get",
      "Ġtoget her",
      "Ġf all",
      "ĠN o",
      "or ies",
      "id ence",
      "ĠP h",
      "oun c",
      "Ġ1 2",
      "Ġte le",
      "Ġs it",
      "Ġm or",
      "o ice",
      "Ġy et",
      "Ġt alk",
      "re w",
      "Ġdes ign",
      "Ġab le",
      "ĠB e",
      "Ġme an",
      "m ing",
      "u red",
      "ĠEng lish",
      "Ġd one",
      "Ġcle ar",
      "Ġ Q",
      "a pe",
      "Ġstr ong",
      "i ation",
      "en n",
      "Ġre v",
      "Ġbec ame",
      "I t",
      "Ġf ac",
      "Ġwhe ther",
      "Ġs ol",
      "Ġm aking",
      "Ġt ax",
      "gr am",
      "Ġor der",
      "Ġm ed",
      "Ġdid n",
      "at t",
      "er t",
      "Ġc amp",
      "ĠL i",
      "i um",
      "Ġto wards",
      "Ġn ational",
      "Ġapp ear",
      "g es",
      "Ġl o",
      "ĠT o",
      "h y",
      "l er",
      "end ing",
      "ĠT r",
      "ĠI s",
      "e x",
      "Ġte am",
      "ul arly",
      "Ġal ong",
      "Ġ2 0",
      "i od",
      "ull y",
      "on y",
      "Ġit self",
      "Ġh old",
      "ĠW ith",
      "Ġth ing",
      "ĠU S",
      "ĠD av",
      "is on",
      "Ġthem selves",
      "Ġw on",
      "Ġre ce",
      "ap er",
[...]
