{
  "version": "1.0",
  "truncation": null,
  "padding": null,
  "added_tokens": [
    {
      "id": 0,
      "content": "<pad>",
      "single_word": false,
      "lstrip": false,
      "rstrip": false,
      "normalized": false,
      "special": true
    },
    {
      "id": 1,
      "content": "<s>",
      "single_word": false,
      "lstrip": false,
      "rstrip": false,
      "normalized": false,
      "special": true
    },
    {
      "id": 2,
      "content": "</s>",
      "single_word": false,
      "lstrip": false,
      "rstrip": false,
      "normalized": false,
      "special": true
    }
  ],
  "normalizer": {
    "type": "NFKC"
  },
  "pre_tokenizer": {
    "type": "ByteLevel",
    "add_prefix_space": true,
    "trim_offsets": true,
    "use_regex": true
  },
  "post_processor": {
    "type": "ByteLevel",
    "add_prefix_space": true,
    "trim_offsets": true,
    "use_regex": true
  },
  "decoder": {
    "type": "ByteLevel",
    "add_prefix_space": true,
    "trim_offsets": true,
    "use_regex": true
  },
  "model": {
    "type": "BPE",
    "dropout": null,
    "unk_token": null,
    "continuing_subword_prefix": null,
    "end_of_word_suffix": null,
    "fuse_unk": false,
    "byte_fallback": false,
    "ignore_merges": false,
    "vocab": {
      "<pad>": 0,
      "<s>": 1,
      "</s>": 2,
      "!": 3,
      "\"": 4,
      "#": 5,
      "$": 6,
      "%": 7,
      "&": 8,
      "'": 9,
      "(": 10,
      ")": 11,
      "*": 12,
      "+": 13,
      ",": 14,
      "-": 15,
      ".": 16,
      "/": 17,
      "0": 18,
      "1": 19,
      "2": 20,
      "3": 21,
      "4": 22,
      "5": 23,
      "6": 24,
      "7": 25,
      "8": 26,
      "9": 27,
      ":": 28,
      ";": 29,
      "<": 30,
      "=": 31,
      ">": 32,
      "?": 33,
      "@": 34,
      "A": 35,
      "B": 36,
      "C": 37,
      "D": 38,
      "E": 39,
      "F": 40,
      "G": 41,
      "H": 42,
      "I": 43,
      "J": 44,
      "K": 45,
      "L": 46,
      "M": 47,
      "N": 48,
      "O": 49,
      "P": 50,
      "Q": 51,
      "R": 52,
      "S": 53,
      "T": 54,
      "U": 55,
      "V": 56,
      "W": 57,
      "X": 58,
      "Y": 59,
      "Z": 60,
      "[": 61,
      "\\": 62,
      "]": 63,
      "^": 64,
      "_": 65,
      "a": 66,
      "b": 67,
      "c": 68,
      "d": 69,
      "e": 70,
      "f": 71,
      "g": 72,
      "h": 73,
      "i": 74,
      "j": 75,
      "k": 76,
      "l": 77,
      "m": 78,
      "n": 79,
      "o": 80,
      "p": 81,
      "q": 82,
      "r": 83,
      "s": 84,
      "t": 85,
      "u": 86,
      "v": 87,
      "w": 88,
      "x": 89,
      "y": 90,
      "z": 91,
      "{": 92,
      "|": 93,
      "}": 94,
      "~": 95,
      "¡": 96,
      "¢": 97,
      "£": 98,
      "¤": 99,
      "¥": 100,
      "¦": 101,
      "§": 102,
      "¨": 103,
      "©": 104,
      "ª": 105,
      "«": 106,
      "¬": 107,
      "®": 108,
      "¯": 109,
      "°": 110,
      "±": 111,
      "²": 112,
      "³": 113,
      "´": 114,
      "µ": 115,
      "¶": 116,
      "·": 117,
      "¸": 118,
      "¹": 119,
      "º": 120,
      "»": 121,
      "¼": 122,
      "½": 123,
      "¾": 124,
      "¿": 125,
      "Â": 126,
      "Ã": 127,
      "Ä": 128,
      "Å": 129,
      "Æ": 130,
      "Ç": 131,
      "È": 132,
      "É": 133,
      "Ê": 134,
      "Ë": 135,
      "Í": 136,
      "Î": 137,
      "Ï": 138,
      "Ð": 139,
      "Ñ": 140,
      "×": 141,
      "Ø": 142,
      "Ù": 143,
      "â": 144,
      "ã": 145,
      "ê": 146,
      "Ġ": 147,
      "Ģ": 148,
      "ģ": 149,
      "Ĥ": 150,
      "ĥ": 151,
      "Ħ": 152,
      "ħ": 153,
      "Ĩ": 154,
      "ĩ": 155,
      "Ī": 156,
      "ī": 157,
      "Ĭ": 158,
      "ĭ": 159,
      "Į": 160,
      "į": 161,
      "İ": 162,
      "ı": 163,
      "Ĳ": 164,
      "ĳ": 165,
      "Ĵ": 166,
      "ĵ": 167,
      "Ķ": 168,
      "ķ": 169,
      "ĸ": 170,
      "Ĺ": 171,
      "ĺ": 172,
      "Ļ": 173,
      "ļ": 174,
      "Ľ": 175,
      "ľ": 176,
      "Ŀ": 177,
      "ŀ": 178,
      "Ł": 179,
      "ł": 180,
      "Ń": 181,
      "Ġt": 182,
      "he": 183,
      "Ġa": 184,
      "Ġthe": 185,
      "in": 186,
      "Ġo": 187,
      "re": 188,
      "Ġof": 189,
      "er": 190,
      "nd": 191,
      "on": 192,
      "Ġw": 193,
      "is": 194,
      "Ġs": 195,
      "en": 196,
      "at": 197,
      "ed": 198,
      "Ġc": 199,
      "Ġb": 200,
      "it": 201,
      "es": 202,
      "Ġin": 203,
      "ar": 204,
      "or": 205,
      "Ġp": 206,
      "Ġf": 207,
      "Ġand": 208,
      "al": 209,
      "an": 210,
      "ic": 211,
      "as": 212,
      "Ġm": 213,
      "ou": 214,
      "Ġd": 215,
      "Ġto": 216,
      "Ġh": 217,
      "ing": 218,
      "ion": 219,
      "le": 220,
      "ro": 221,
      "ent": 222,
      "Ġe": 223,
      "Ġ1": 224,
      "ly": 225,
      "ĠT": 226,
      "st": 227,
      "Ġl": 228,
      "Ġn": 229,
      "Ġth": 230,
      "Ġre": 231,
      "Ġbe": 232,
      "ct": 233,
      "om": 234,
      "il": 235,
      "ce": 236,
      "Ġis": 237,
      "Ġ(": 238,
      "ol": 239,
      "ĠA": 240,
      "ut": 241,
      "ur": 242,
      "ĠS": 243,
      "Ġg": 244,
      "Ġwh": 245,
      "im": 246,
      "âĢ": 247,
      "se": 248,
      "Ġwas": 249,
      "ve": 250,
      "ĠThe": 251,
      "Ġby": 252,
      "ĠC": 253,
      "ad": 254,
      "am": 255,
      "Ġon": 256,
      "ch": 257,
      "Ġfor": 258,
      "id": 259,
      "ĠI": 260,
      "ig": 261,
      "ot": 262,
      "ir": 263,
      "us": 264,
      "ver": 265,
      "Ġhe": 266,
      "ith": 267,
      "ow": 268,
      "Ġas": 269,
      "ĠB": 270,
      "ter": 271,
      "th": 272,
      "ra": 273,
      "ation": 274,
      "ul": 275,
      "ich": 276,
      "ĠH": 277,
      "ĠM": 278,
      "Ġit": 279,
      "Ġwith": 280,
      "Ġor": 281,
      "Ġcon": 282,
      "el": 283,
      "ĠP": 284,
      "Ġhis": 285,
      "Ġat": 286,
      "ri": 287,
      "Ġst": 288,
      "la": 289,
      "Ġu": 290,
      "et": 291,
      "Ġwhich": 292,
      "Ġan": 293,
      "ere": 294,
      "her": 295,
      "ain": 296,
      "Ġde": 297,
      "rom": 298,
      "um": 299,
      "ist": 300,
      "Ġal": 301,
      "Ġthat": 302,
      "Ġv": 303,
      "Ġare": 304,
      "ĠL": 305,
      "Ġ18": 306,
      "ge": 307,
      "ĠG": 308,
      "Ġex": 309,
      "ĠE": 310,
      "pe": 311,
      "res": 312,
      "ĠF": 313,
      "Ġsu": 314,
      "os": 315,
      "qu": 316,
      "ay": 317,
      "Ġpro": 318,
      "est": 319,
      "Ġfrom": 320,
      "od": 321,
      "ab": 322,
      "em": 323,
      "ĠR": 324,
      "ess": 325,
      "if": 326,
      "Ġse": 327,
      "nt": 328,
      "ies": 329,
      "ers": 330,
      "ate": 331,
      "ant": 332,
      "iv": 333,
      "Ġcom": 334,
      "op": 335,
      "Ġch": 336,
      "ĠW": 337,
      "ĠD": 338,
      "ore": 339,
      "ort": 340,
      "ci": 341,
      "ous": 342,
      "Ġr": 343,
      "our": 344,
      "ĠN": 345,
      "ity": 346,
      "Ġha": 347,
      "ĠâĢ": 348,
      "art": 349,
      "ill": 350,
      "ard": 351,
      "ĠIn": 352,
      "Ġ2": 353,
      "),": 354,
      "ac": 355,
      "gh": 356,
      "ment": 357,
      "pp": 358,
      "âĢĿ": 359,
      "ĠâĢľ": 360,
      "ian": 361,
      "igh": 362,
      "ĠJ": 363,
      "ure": 364,
      "Ġbut": 365,
      "Ġnot": 366,
      "all": 367,
      "âĢĻ": 368,
      "ive": 369,
      "ld": 370,
      "un": 371,
      "Ġwere": 372,
      "ast": 373,
      "ish": 374,
      "ĠO": 375,
      "pt": 376,
      "cc": 377,
      "ary": 378,
      "ther": 379,
      "and": 380,
      "00": 381,
      "ia": 382,
      "ical": 383,
      "Ġne": 384,
      "ame": 385,
      "Ġk": 386,
      "ie": 387,
      "ated": 388,
      "Ġint": 389,
      "ction": 390,
      "ak": 391,
      "ough": 392,
      "ine": 393,
      "Ġsh": 394,
      "ber": 395,
      "ong": 396,
      "ran": 397,
      "ost": 398,
      "ust": 399,
      "ome": 400,
      "ud": 401,
      "ond": 402,
      "red": 403,
      "ound": 404,
      "ord": 405,
      "Ġab": 406,
      "Ġwhe": 407,
      "Ġle": 408,
      "ally": 409,
      "per": 410,
      "Ġy": 411,
      "Ġthis": 412,
      "Ġar": 413,
      "og": 414,
      "Ġhad": 415,
      "ight": 416,
      "Ġwho": 417,
      "ect": 418,
      "reat": 419,
      "Ġbeen": 420,
      "Ġits": 421,
      "Ġhave": 422,
      "ag": 423,
      "Ġim": 424,
      "ass": 425,
      "ition": 426,
      "18": 427,
      "ĠIt": 428,
      "ap": 429,
      "te": 430,
      "ry": 431,
      "Ġform": 432,
      "tain": 433,
      "Ġad": 434,
      "Ġpart": 435,
      "ount": 436,
      "Ġhas": 437,
      "Ġso": 438,
      "ence": 439,
      "ell": 440,
      "ff": 441,
      "Ġall": 442,
      "able": 443,
      "ĠCh": 444,
      "hed": 445,
      ").": 446,
      "land": 447,
      "rit": 448,
      "Ġother": 449,
      "ork": 450,
      "ub": 451,
      "av": 452,
      "Ġtheir": 453,
      "Ġ<": 454,
      "ire": 455,
      "oc": 456,
      "ib": 457,
      "Ġman": 458,
      "ars": 459,
      "wn": 460,
      "les": 461,
      "out": 462,
      "iz": 463,
      "ĠHe": 464,
      "Ġ3": 465,
      "ade": 466,
      "Ġun": 467,
      "ĠV": 468,
      "Ġone": 469,
      "so": 470,
      "ree": 471,
      "ng": 472,
      "Ġcomp": 473,
      "act": 474,
      "ance": 475,
      "ĠK": 476,
      "Ġdis": 477,
      "uc": 478,
      "ue": 479,
      "90": 480,
      "ied": 481,
      "Ġhim": 482,
      "Ġtw": 483,
      "nder": 484,
      "ric": 485,
      "ĠTh": 486,
      "ph": 487,
      "ĠSt": 488,
      "ory": 489,
      "int": 490,
      "ip": 491,
      "Ġper": 492,
      "Ġ17": 493,
      "ens": 494,
      "Ġgreat": 495,
      "ult": 496,
      ".,": 497,
      "ose": 498,
      "ater": 499,
      "fter": 500,
      "ide": 501,
      "ener": 502,
      "Ġimp": 503,
      "Ġcomm": 504,
      "ces": 505,
      "Ġfir": 506,
      "ial": 507,
      "ould": 508,
      "Ġinto": 509,
      "ign": 510,
      "ions": 511,
      "Ġye": 512,
      "Ġtim": 513,
      "ations": 514,
      "Ġres": 515,
      "own": 516,
      "Ġme": 517,
      "Ġag": 518,
      "Ġup": 519,
      "Ġthere": 520,
      "Ġmore": 521,
      "Ġwork": 522,
      "ru": 523,
      "age": 524,
      "very": 525,
      "ite": 526,
      "Ġpr": 527,
      "Ġsome": 528,
      "Ġcent": 529,
      "Ġob": 530,
      "Ġfirst": 531,
      "ice": 532,
      "Ġpo": 533,
      "Ġcont": 534,
      "Ġalso": 535,
      "Ġqu": 536,
      "Ġj": 537,
      "ind": 538,
      "Ġthey": 539,
      "ke": 540,
      "Ġsp": 541,
      "Ġcons": 542,
      "Ġcl": 543,
      "ach": 544,
      "Ġunder": 545,
      "Ġtwo": 546,
      "Ġmay": 547,
      "sel": 548,
      "low": 549,
      "ii": 550,
      ");": 551,
      "Ġpla": 552,
      "ne": 553,
      "Ġ4": 554,
      "erm": 555,
      "erv": 556,
      "Ġpre": 557,
      "Ġno": 558,
      "ood": 559,
      "Ġwe": 560,
      "ious": 561,
      "cl": 562,
      "Ġdist": 563,
      "Ġra": 564,
      "ress": 565,
      "ile": 566,
      "Ġen": 567,
      "ok": 568,
      "Ġsub": 569,
      "Ġbec": 570,
      "ates": 571,
      "Ġcol": 572,
      "we": 573,
      "Ġmade": 574,
      "au": 575,
      "Ġapp": 576,
      "ĠEng": 577,
      "Ġ16": 578,
      "Ġonly": 579,
      "Ġwhen": 580,
      "Ġus": 581,
      "ove": 582,
      "ubl": 583,
      "Ġdes": 584,
      "one": 585,
      "ward": 586,
      "ished": 587,
      "Ġafter": 588,
      "ath": 589,
      "Ġbeing": 590,
      "ew": 591,
      "Ġind": 592,
      "are": 593,
      "Ġro": 594,
      "ans": 595,
      "Ġmost": 596,
      "li": 597,
      "ons": 598,
      "ang": 599,
      "Ġthem": 600,
      "Ġacc": 601,
      "Ġem": 602,
      "Ġgr": 603,
      "ury": 604,
      "che": 605,
      "Ġear": 606,
      "ĠU": 607,
      "Ġthan": 608,
      "rough": 609,
      "ings": 610,
      "Ġfound": 611,
      "Ġtime": 612,
      "Ġrep": 613,
      "Ġexp": 614,
      "ven": 615,
      "Ġthese": 616,
      "over": 617,
      "ered": 618,
      "Ġrem": 619,
      "aw": 620,
      "rib": 621,
      "Ġout": 622,
      "Ġbet": 623,
      "Ġreg": 624,
      "Ġam": 625,
      "orm": 626,
      "ted": 627,
      "ks": 628,
      "ular": 629,
      "Ġspe": 630,
      "Ġgener": 631,
      "iff": 632,
      "ll": 633,
      "Ġoff": 634,
      "Ġac": 635,
      "oss": 636,
      "Ġ5": 637,
      "Ġ15": 638,
      "Ġlar": 639,
      "urn": 640,
      "ts": 641,
      "Ġpres": 642,
      "uch": 643,
      "ase": 644,
      "Ġabout": 645,
      "Ġkn": 646,
      "iss": 647,
      "Ġcan": 648,
      "ween": 649,
      "Ġatt": 650,
      "Ġcount": 651,
      "Ġrec": 652,
      "Ġmar": 653,
      "Ġany": 654,
      "ors": 655,
      "ren": 656,
      "Ġap": 657,
      "Ġpl": 658,
      ",âĢĿ": 659,
      "Ġnum": 660,
      "yst": 661,
      "Ġpubl": 662,
      "oy": 663,
      "Ġed": 664,
      "Ġwhere": 665,
      "vers": 666,
      "Ġtr": 667,
      "Ġâ": 668,
      "ents": 669,
      "Ġbetween": 670,
      "end": 671,
      "Ġ190": 672,
      "Ġchar": 673,
      "orth": 674,
      "ited": 675,
      "Ġ</": 676,
      "als": 677,
      "ced": 678,
      "outh": 679,
      "ace": 680,
      "Ġsec": 681,
      "ĠSe": 682,
      "ĠÎ": 683,
      "Ġco": 684,
      "oth": 685,
      "ject": 686,
      "tern": 687,
      "Ġagain": 688,
      "old": 689,
      "Ġele": 690,
      "ract": 691,
      "ative": 692,
      "Ġrel": 693,
      "ution": 694,
      "Ġvery": 695,
      "Ġdiff": 696,
      "Ġ6": 697,
      "000": 698,
      "fore": 699,
      "Ġyears": 700,
      "Ġinf": 701,
      "Ġsame": 702,
      "ild": 703,
      "Ġprov": 704,
      "Ġord": 705,
      "Ġent": 706,
      "orn": 707,
      "vel": 708,
      "cip": 709,
      "ife": 710,
      "ief": 711,
      "hen": 712,
      "ont": 713,
      "ĠAm": 714,
      "tle": 715,
      "ix": 716,
      "Ġover": 717,
      "Ġext": 718,
      "Ġsuch": 719,
      "olog": 720,
      "way": 721,
      "ower": 722,
      "cess": 723,
      "ict": 724,
      "self": 725,
      "ys": 726,
      "ĠThis": 727,
      "ature": 728,
      "ise": 729,
      "lish": 730,
      "Ġmany": 731,
      "Ġappe": 732,
      "ities": 733,
      "Ġimport": 734,
      "ters": 735,
      "Ġact": 736,
      "Ġprin": 737,
      "Ġvar": 738,
      "Ġlarge": 739,
      "Ġfol": 740,
      "ake": 741,
      "ily": 742,
      "Ġpe": 743,
      "Ġcentury": 744,
      "uring": 745,
      "Ġhow": 746,
      "17": 747,
      "ever": 748,
      "Ġ189": 749,
      "Ġinst": 750,
      "ten": 751,
      "ool": 752,
      "Ġocc": 753,
      "ĠRe": 754,
      "Ġcar": 755,
      "ĠAr": 756,
      "Ġgiv": 757,
      "ined": 758,
      "Ġtown": 759,
      "rans": 760,
      "ty": 761,
      "Ġsur": 762,
      "Ġlit": 763,
      "Ġthrough": 764,
      "Ġvol": 765,
      "Ġsc": 766,
      "Ġsm": 767,
      "Ġli": 768,
      "Ġref": 769,
      "ĠAs": 770,
      "overn": 771,
      "ful": 772,
      "ĠFran": 773,
      "Ġinc": 774,
      "Ġval": 775,
      "ures": 776,
      "urch": 777,
      "ual": 778,
      "Ġcour": 779,
      "led": 780,
      "Ġsupp": 781,
      "Ġ188": 782,
      "ism": 783,
      "ail": 784,
      "Ġfollow": 785,
      "Ġprod": 786,
      "ather": 787,
      "cted": 788,
      "cept": 789,
      "Â·": 790,
      "alled": 791,
      "Ġdo": 792,
      "amp": 793,
      "osition": 794,
      "oh": 795,
      "uth": 796,
      "Ġlong": 797,
      ".âĢĿ": 798,
      "ern": 799,
      "Ġpar": 800,
      "Ġconst": 801,
      "Ġname": 802,
      "wards": 803,
      "ug": 804,
      "ines": 805,
      "ins": 806,
      "Ġri": 807,
      "ific": 808,
      "Ġpass": 809,
      "ov": 810,
      "Ġnow": 811,
      "ft": 812,
      "ments": 813,
      "ck": 814,
      "Ġhowever": 815,
      "ĠHis": 816,
      "ack": 817,
      "Ġthen": 818,
      "Ġthose": 819,
      "Ġmuch": 820,
      "Ġlaw": 821,
      "tained": 822,
      "Ġend": 823,
      "ĠAt": 824,
      "Ġx": 825,
      "ae": 826,
      "..": 827,
      "Ġking": 828,
      "Ġgovern": 829,
      "Ġupon": 830,
      "Ġwrit": 831,
      "Ġest": 832,
      "Ġdef": 833,
      "ince": 834,
      "Ġbecame": 835,
      "ius": 836,
      "Ġher": 837,
      "Ġ7": 838,
      "Ġbo": 839,
      "the": 840,
      "Ġhist": 841,
      "Ġsmall": 842,
      "gan": 843,
      "igin": 844,
      "ĠLe": 845,
      "pl": 846,
      "Ġtrans": 847,
      "Ġknown": 848,
      "ĠBut": 849,
      "ĠAl": 850,
      "Ġ8": 851,
      "ĠDe": 852,
      "Ġthough": 853,
      "ĠAn": 854,
      "ized": 855,
      "Ġmod": 856,
      "Ġ12": 857,
      "Ġart": 858,
      "Ġfam": 859,
      "Ġret": 860,
      "ral": 861,
      "ĠSp": 862,
      "vent": 863,
      "ton": 864,
      "Ġsch": 865,
      "Ġph": 866,
      "ondon": 867,
      "its": 868,
      "cial": 869,
      "eric": 870,
      "Ġchief": 871,
      "Ġused": 872,
      "Ġpoint": 873,
      "osed": 874,
      "Ġmin": 875,
      "ĠBrit": 876,
      "Ġstate": 877,
      "ived": 878,
      "ah": 879,
      "Ġcond": 880,
      "Ġ187": 881,
      "aid": 882,
      "Ġdec": 883,
      "atter": 884,
      "ier": 885,
      "Ġnear": 886,
      "Ġnew": 887,
      "Ġposs": 888,
      "Ġmon": 889,
      "Ġpol": 890,
      "Ġinter": 891,
      "ible": 892,
      "ĠEnglish": 893,
      "Ġorigin": 894,
      "Ġbu": 895,
      "ually": 896,
      "Ġdep": 897,
      "ccess": 898,
      "ating": 899,
      "uss": 900,
      "Ġ14": 901,
      "ertain": 902,
      "ĠMar": 903,
      "ently": 904,
      "Ġyear": 905,
      "Ġagainst": 906,
      "ystem": 907,
      "Ġthree": 908,
      ".-": 909,
      "Ġft": 910,
      "Ġtra": 911,
      "Ġconsid": 912,
      "Ġprincip": 913,
      "ians": 914,
      "any": 915,
      "Ġset": 916,
      "Ġfl": 917,
      "ĠY": 918,
      "Ġif": 919,
      "Ġgeneral": 920,
      "Ġass": 921,
      "ably": 922,
      "Ġwill": 923,
      "uced": 924,
      "Ġcalled": 925,
      "row": 926,
      "up": 927,
      "Ġwould": 928,
      "ving": 929,
      "Ġcor": 930,
      "other": 931,
      "iod": 932,
      "ĠOn": 933,
      "Ġ186": 934,
      "Ġtak": 935,
      "ried": 936,
      "oun": 937,
      "ants": 938,
      "Ġeff": 939,
      "ium": 940,
      "Ġsystem": 941,
      "Ġ13": 942,
      "ĠEngland": 943,
      "Ġlife": 944,
      "ep": 945,
      "Ġop": 946,
      "eld": 947,
      "Ġnumber": 948,
      "Ġmem": 949,
      "Ġmain": 950,
      "Ġsuccess": 951,
      "Ġdiv": 952,
      "rench": 953,
      "clud": 954,
      "Ġwhile": 955,
      "Ġsim": 956,
      "Ġold": 957,
      "Ġpers": 958,
      "ute": 959,
      "ale": 960,
      "oint": 961,
      "Ġwell": 962,
      "Ġbefore": 963,
      "Ġhand": 964,
      "und": 965,
      "Ġmust": 966,
      "ists": 967,
      "Ġ10": 968,
      "ĠPar": 969,
      "{\\": 970,
      "pend": 971,
      "ĠInd": 972,
      "cy": 973,
      "ble": 974,
      "ron": 975,
      "Ġauth": 976,
      "io": 977,
      "ases": 978,
      "Ġser": 979,
      "rist": 980,
      "'s": 981,
      "ĠRom": 982,
      "ĠGerm": 983,
      ".)": 984,
      "Ġserv": 985,
      "ĠFrench": 986,
      "Ġfe": 987,
      "16": 988,
      "ĠJoh": 989,
      "ĠUn": 990,
      "air": 991,
      "ness": 992,
      "Ġbro": 993,
      "Ġeach": 994,
      "Ġ-": 995,
      "Ġcharact": 996,
      "Ġ+": 997,
      "Ġconf": 998,
      "ss": 999,
      "urg": 1000,
      "Ġboth": 1001,
      "Ġdiffere": 1002,
      "Ġ=": 1003,
      "Ġwater": 1004,
      "Ġadm": 1005,
      "ĠNew": 1006,
      "Ġremain": 1007,
      "Ġca": 1008,
      "sh": 1009,
      "Ġcity": 1010,
      "Ġhimself": 1011,
      "Ġes": 1012,
      "Ġlater": 1013,
      "man": 1014,
      "Ġbel": 1015,
      "Ġte": 1016,
      "ided": 1017,
      "Ġgiven": 1018,
      "ouse": 1019,
      "Ġcertain": 1020,
      "ceed": 1021,
      "Ġshould": 1022,
      "Ġown": 1023,
      "Ġperiod": 1024,
      "ctions": 1025,
      "Ġterm": 1026,
      "Ġsecond": 1027,
      "Ġarm": 1028,
      "xt": 1029,
      "ob": 1030,
      "Ġ185": 1031,
      "ax": 1032,
      "Ġev": 1033,
      "Ġmet": 1034,
      "ved": 1035,
      "Ġshe": 1036,
      "ret": 1037,
      "lu": 1038,
      "Ġcontin": 1039,
      "Ġplace": 1040,
      "ĠThere": 1041,
      "Ġdisc": 1042,
      "ĠPh": 1043,
      "Ġdire": 1044,
      "ament": 1045,
      "Ġpublic": 1046,
      "Ġstill": 1047,
      "Ġeven": 1048,
      "Â°": 1049,
      "Ġimportant": 1050,
      "Ġtem": 1051,
      "Ġduring": 1052,
      "ene": 1053,
      "ave": 1054,
      "par": 1055,
      "Ġ&": 1056,
      "Ġauthor": 1057,
      "Ġfact": 1058,
      "Ġport": 1059,
      "Ġless": 1060,
      "Ġuse": 1061,
      "Ġpower": 1062,
      "Ġschool": 1063,
      "Ġrepres": 1064,
      "ĠJohn": 1065,
      "ays": 1066,
      "Ġequ": 1067,
      "yl": 1068,
      "ches": 1069,
      "Ġ19": 1070,
      "Ġpri": 1071,
      "ides": 1072,
      "ock": 1073,
      "Ġson": 1074,
      "Ġwar": 1075,
      "ark": 1076,
      "Ġcolle": 1077,
      "Ġcharacter": 1078,
      "yle": 1079,
      "ĠGree": 1080,
      "ĠâĪ": 1081,
      "Ġpop": 1082,
      "Ġadd": 1083,
      "Ġbl": 1084,
      "omm": 1085,
      "Ġfar": 1086,
      "Ġamong": 1087,
      "Ġdeath": 1088,
      "Ġhigh": 1089,
      "ged": 1090,
      "Ġ9": 1091,
      "ĠSc": 1092,
      "Ġgra": 1093,
      "Ġinv": 1094,
      "Ġi": 1095,
      "Ġland": 1096,
      "Ġpresent": 1097,
      "ural": 1098,
      "Ġnorth": 1099,
      "ick": 1100,
      "Ġcase": 1101,
      "ared": 1102,
      "Ġbr": 1103,
      "rod": 1104,
      "ield": 1105,
      "ics": 1106,
      "ĠCon": 1107,
      "ident": 1108,
      "15": 1109,
      "nce": 1110,
      "Ġright": 1111,
      "Ġworks": 1112,
      "Ġrest": 1113,
      "Ġins": 1114,
      "read": 1115,
      "ym": 1116,
      "Ġfin": 1117,
      "ĠLondon": 1118,
      "Ġpract": 1119,
      "Ġconsider": 1120,
      "ĠZ": 1121,
      "Ġsouth": 1122,
      "Ġcommon": 1123,
      "Ġcontain": 1124,
      "veral": 1125,
      "Ġ184": 1126,
      "ages": 1127,
      "ĠBritish": 1128,
      "ley": 1129,
      "Ġlast": 1130,
      "190": 1131,
      "Ġearly": 1132,
      "pla": 1133,
      "ired": 1134,
      "Ġgovernment": 1135,
      "ĠCol": 1136,
      "Ġstr": 1137,
      "Ġir": 1138,
      "Ġcomple": 1139,
      "ĠFrance": 1140,
      "tend": 1141,
      "ĠChrist": 1142,
      "ĠPro": 1143,
      "Ġ[": 1144,
      "ĠAmeric": 1145,
      "rict": 1146,
      "Ġsubject": 1147,
      "Ġstud": 1148,
      "Ġorder": 1149,
      "ention": 1150,
      "raph": 1151,
      "Ġwithout": 1152,
      "Ġprob": 1153,
      "Ġunt": 1154,
      "Ġrece": 1155,
      "me": 1156,
      "Ġz": 1157,
      "ting": 1158,
      "ges": 1159,
      "Ġaff": 1160,
      "Ġpublished": 1161,
      "ves": 1162,
      "ety": 1163,
      "Ġrepresent": 1164,
      "irc": 1165,
      "ither": 1166,
      "Ġdied": 1167,
      "ann": 1168,
      "ull": 1169,
      "Ġpur": 1170,
      "Ġcountry": 1171,
      "Ġprop": 1172,
      "Ġshow": 1173,
      "Ġinclud": 1174,
      "ird": 1175,
      "bers": 1176,
      "Ġcap": 1177,
      "Ġwhole": 1178,
      "_{": 1179,
      "ĠRoman": 1180,
      "velop": 1181,
      "Ġfore": 1182,
      "ĠEd": 1183,
      "Ġder": 1184,
      "Ġfour": 1185,
      "ĠChar": 1186,
      "Ġspec": 1187,
      "ĠFor": 1188,
      "uro": 1189,
      "Ġresult": 1190,
      "ued": 1191,
      "Ġprodu": 1192,
      "Ġcro": 1193,
      "cially": 1194,
      "cient": 1195,
      "erest": 1196,
      "ational": 1197,
      "Ġseveral": 1198,
      "Ġclass": 1199,
      "Ġ/": 1200,
      "ishop": 1201,
      "que": 1202,
      "Ġhaving": 1203,
      "Ġbod": 1204,
      "Ġ183": 1205,
      "pect": 1206,
      "Ġadv": 1207,
      "Ġword": 1208,
      "ames": 1209,
      "Ġgood": 1210,
      "ivers": 1211,
      "Ġabove": 1212,
      "ission": 1213,
      "itions": 1214,
      "atic": 1215,
      "hes": 1216,
      "ange": 1217,
      "ected": 1218,
      "Ġuntil": 1219,
      "Ġvarious": 1220,
      "Ġinde": 1221,
      "ank": 1222,
      "ĠSir": 1223,
      "ased": 1224,
      "Ġregard": 1225,
      "ps": 1226,
      "most": 1227,
      "Ġsol": 1228,
      "Ġriver": 1229,
      "Ġinterest": 1230,
      "Ġhistory": 1231,
      "Ġ]": 1232,
      "see": 1233,
      "Ġthus": 1234,
      "ĠIs": 1235,
      "omet": 1236,
      "Ġtook": 1237,
      "ives": 1238,
      "Ġcur": 1239,
      "Ġlim": 1240,
      "ert": 1241,
      "Ġreturn": 1242,
      "ĠHist": 1243,
      "Ġdesc": 1244,
      "Ġlike": 1245,
      "hem": 1246,
      "Ġred": 1247,
      "ised": 1248,
      "Ġopp": 1249,
      "Ġdevelop": 1250,
      "Ġestab": 1251,
      "ple": 1252,
      "ĠThey": 1253,
      "illi": 1254,
      "iew": 1255,
      "Ġcould": 1256,
      "eng": 1257,
      "Ġline": 1258,
      "urope": 1259,
      "Ġlatter": 1260,
      "ĠItal": 1261,
      "Ġdu": 1262,
      "}}": 1263,
      "Ġoffic": 1264,
      "ning": 1265,
      "gin": 1266,
      "ĠÂ": 1267,
      "Ġdra": 1268,
      "Ġcirc": 1269,
      "ĠâĪĴ": 1270,
      "gy": 1271,
      "ately": 1272,
      "Ġseem": 1273,
      "Ġtaken": 1274,
      "Ġnat": 1275,
      "ior": 1276,
      "Ġmen": 1277,
      "ĠâĨ": 1278,
      "be": 1279,
      "ane": 1280,
      "Ġobs": 1281,
      "Ġopen": 1282,
      "ital": 1283,
      "Ġproper": 1284,
      "Ġhead": 1285,
      "here": 1286,
      "Ġ11": 1287,
      "sequ": 1288,
      "Ġlittle": 1289,
      "cil": 1290,
      "ison": 1291,
      "Ġrail": 1292,
      "thod": 1293,
      "co": 1294,
      "use": 1295,
      "Ġfew": 1296,
      "Ġleft": 1297,
      "Ġinflu": 1298,
      "ording": 1299,
      "ision": 1300,
      "rew": 1301,
      "Ġevery": 1302,
      "ograph": 1303,
      "Ġposition": 1304,
      "ense": 1305,
      "Ġside": 1306,
      "Ġrev": 1307,
      "Ġincre": 1308,
      "uted": 1309,
      "Ġsee": 1310,
      "ically": 1311,
      "aster": 1312,
      "Ġdifferent": 1313,
      "Ġforms": 1314,
      "Ġchurch": 1315,
      "Ġlead": 1316,
      "ung": 1317,
      "get": 1318,
      "ulation": 1319,
      "ĠEurope": 1320,
      "ause": 1321,
      "ĠÏ": 1322,
      "ĠâĨĳ": 1323,
      "ries": 1324,
      "Ġwhose": 1325,
      "ĠGe": 1326,
      "omp": 1327,
      "ĠHen": 1328,
      "Ġ0": 1329,
      "Ġborn": 1330,
      "ĠSee": 1331,
      "ĠSh": 1332,
      "ances": 1333,
      "ĠBe": 1334,
      "Ġ{\\": 1335,
      "ĠAb": 1336,
      "Ġste": 1337,
      "The": 1338,
      "ues": 1339,
      "ript": 1340,
      "ured": 1341,
      "mon": 1342,
      "Ġsum": 1343,
      "Ġappoint": 1344,
      "ĠQ": 1345,
      "ploy": 1346,
      "gg": 1347,
      "189": 1348,
      "uf": 1349,
      "pecially": 1350,
      "ram": 1351,
      "Ġfre": 1352,
      "Ġoften": 1353,
      "10": 1354,
      "imes": 1355,
      "Ġtreat": 1356,
      "ways": 1357,
      "Ġanother": 1358,
      "ien": 1359,
      "ets": 1360,
      "Ġdown": 1361,
      "Ġleg": 1362,
      "por": 1363,
      "ner": 1364,
      "Ġdid": 1365,
      "br": 1366,
      "to": 1367,
      "yd": 1368,
      "Ġsaid": 1369,
      "ĠGreek": 1370,
      "mb": 1371,
      "Ġgenerally": 1372,
      "Ġpossess": 1373,
      "iii": 1374,
      "ĠPr": 1375,
      "Ġemploy": 1376,
      "Ġheld": 1377,
      "ash": 1378,
      "Ġexcept": 1379,
      "Ġdi": 1380,
      "less": 1381,
      "alt": 1382,
      "Ġappl": 1383,
      "ople": 1384,
      "ient": 1385,
      "Ġpat": 1386,
      "med": 1387,
      "Ġformed": 1388,
      "Ġwhom": 1389,
      "Ġstre": 1390,
      "Ġbuild": 1391,
      "Ġway": 1392,
      "Ġexist": 1393,
      "Ġcases": 1394,
      "Ġalmost": 1395,
      "idd": 1396,
      "Ġbook": 1397,
      "Ġcoun": 1398,
      "Ġcourt": 1399,
      "Ġlight": 1400,
      "oph": 1401,
      "Ġke": 1402,
      "Ġliter": 1403,
      "erous": 1404,
      "Ġnecess": 1405,
      "Ġmeans": 1406,
      "inary": 1407,
      "ination": 1408,
      "Ġobtained": 1409,
      "Ġmodern": 1410,
      "rought": 1411,
      "ĠCar": 1412,
      "az": 1413,
      "Ġprof": 1414,
      "pr": 1415,
      "Ġformer": 1416,
      "ĠOr": 1417,
      "Ġprincipal": 1418,
      "Ġperson": 1419,
      "ĠThese": 1420,
      "Ġespecially": 1421,
      "Ġmil": 1422,
      "hip": 1423,
      "na": 1424,
      "form": 1425,
      "wh": 1426,
      "Ġmark": 1427,
      "oub": 1428,
      "Ġeffect": 1429,
      "Î¹": 1430,
      "Ġbar": 1431,
      "ours": 1432,
      "Ġprobably": 1433,
      "Ġsl": 1434,
      "Ġpolit": 1435,
      "yn": 1436,
      "idence": 1437,
      "ilar": 1438,
      "ility": 1439,
      "Ġdel": 1440,
      "ached": 1441,
      "val": 1442,
      "Ġ182": 1443,
      "alf": 1444,
      "Ġseries": 1445,
      "Ġru": 1446,
      "ĠScot": 1447,
      "mber": 1448,
      "Ġbest": 1449,
      "Ġsent": 1450,
      "ration": 1451,
      "els": 1452,
      "Ġfr": 1453,
      "19": 1454,
      "ĠMe": 1455,
      "Ġsuff": 1456,
      "Ġacid": 1457,
      "Ġver": 1458,
      "Ġfamily": 1459,
      "osp": 1460,
      "ery": 1461,
      "aking": 1462,
      "ĠHenry": 1463,
      "ĠSo": 1464,
      "Ġfig": 1465,
      "Ġrelig": 1466,
      "ĠCharles": 1467,
      "Ġsepar": 1468,
      "Ġpartic": 1469,
      "Ġaccount": 1470,
      "ĠParis": 1471,
      "burg": 1472,
      "Ġorgan": 1473,
      "ina": 1474,
      "Ġfur": 1475,
      "188": 1476,
      "angu": 1477,
      "Ġelect": 1478,
      "Ġview": 1479,
      "Ġbody": 1480,
      "ified": 1481,
      "Ġrequ": 1482,
      "ĠGerman": 1483,
      "Ġabs": 1484,
      "Ġtrib": 1485,
      "Ġarch": 1486,
      "Ġread": 1487,
      "ology": 1488,
      "ĠBo": 1489,
      "Ġearli": 1490,
      "Ġconstit": 1491,
      "rum": 1492,
      "ilt": 1493,
      "Ġprom": 1494,
      "Ġparts": 1495,
      "Ġloc": 1496,
      "used": 1497,
      "Ġshort": 1498,
      "ason": 1499,
      "Ġmed": 1500,
      "Ġothers": 1501,
      "ford": 1502,
      "Ġty": 1503,
      "ĠChurch": 1504,
      "Ġstand": 1505,
      "Ġconc": 1506,
      "ĠÂ£": 1507,
      "lex": 1508,
      "con": 1509,
      "Î¿": 1510,
      "Ġbrought": 1511,
      "bert": 1512,
      "Ġoccup": 1513,
      "illiam": 1514,
      "Ġeduc": 1515,
      "rop": 1516,
      "Ġtimes": 1517,
      "une": 1518,
      "Ġwhat": 1519,
      "of": 1520,
      "ĠFrom": 1521,
      "Ġtre": 1522,
      "Ġcla": 1523,
      "Ġfav": 1524,
      "ĠIi": 1525,
      "Ġintrod": 1526,
      "Ġkind": 1527,
      "14": 1528,
      "lin": 1529,
      "isc": 1530,
      "ites": 1531,
      "empt": 1532,
      "augh": 1533,
      "Ġpurp": 1534,
      "lands": 1535,
      "ĠWilliam": 1536,
      "Ġlet": 1537,
      "Ġwithin": 1538,
      "Ġoccur": 1539,
      "arch": 1540,
      "ĠCa": 1541,
      "Ġmag": 1542,
      "ĠPhil": 1543,
      "Ġinfluence": 1544,
      "Ġstat": 1545,
      "Ġappear": 1546,
      "ĠUnited": 1547,
      "Ġfollowing": 1548,
      "Ġsea": 1549,
      "inal": 1550,
      "Ġvari": 1551,
      "ometimes": 1552,
      "ĠAfter": 1553,
      "though": 1554,
      "Ġmethod": 1555,
      "cul": 1556,
      "ĠSch": 1557,
      "Î±": 1558,
      "ize": 1559,
      "Ġfather": 1560,
      "Ġafterwards": 1561,
      "Ġsk": 1562,
      "Ġmer": 1563,
      "Ġconsiderable": 1564,
      "Ġvalue": 1565,
      "Ġtemper": 1566,
      "Ġfree": 1567,
      "ĠNe": 1568,
      "ham": 1569,
      "Ġ20": 1570,
      "Ġeas": 1571,
      "Ġeither": 1572,
      "yed": 1573,
      "Ġeng": 1574,
      "Ġreceived": 1575,
      "ogn": 1576,
      "Ġbelong": 1577,
      "ĠAug": 1578,
      "Ġclose": 1579,
      "ĠWhen": 1580,
      "Ġstrong": 1581,
      "Ġdev": 1582,
      "12": 1583,
      "ole": 1584,
      "ĠIf": 1585,
      "Ġsince": 1586,
      "ĠPe": 1587,
      "ĠBy": 1588,
      "Ġcoast": 1589,
      "Ġprocess": 1590,
      "ufact": 1591,
      "Ġcr": 1592,
      "Ġgrou": 1593,
      "ĠRuss": 1594,
      "dis": 1595,
      "Ġsimilar": 1596,
      "ĠLord": 1597,
      "reg": 1598,
      "ices": 1599,
      "Ġlangu": 1600,
      "Ġcourse": 1601,
      "overed": 1602,
      "itary": 1603,
      "Ġancient": 1604,
      "Ġcle": 1605,
      "lor": 1606,
      "ister": 1607,
      "itted": 1608,
      "Ġaction": 1609,
      "Ġjust": 1610,
      "Ġobject": 1611,
      "ude": 1612,
      "estern": 1613,
      "ĠAust": 1614,
      "Ġund": 1615,
      "Ġsil": 1616,
      "ger": 1617,
      "Ġtit": 1618,
      "Ġpriv": 1619,
      "alls": 1620,
      "Ġdistrict": 1621,
      "Ġusually": 1622,
      "Ġconn": 1623,
      "Ġunivers": 1624,
      "ster": 1625,
      "Ġquest": 1626,
      "Ġsurf": 1627,
      "aj": 1628,
      "lo": 1629,
      "Ġspecial": 1630,
      "ling": 1631,
      "Ġarmy": 1632,
      "ountain": 1633,
      "let": 1634,
      "Ġpost": 1635,
      "ator": 1636,
      "ĠLat": 1637,
      "Ġitself": 1638,
      "ality": 1639,
      "ca": 1640,
      "bour": 1641,
      "by": 1642,
      "term": 1643,
      "ivil": 1644,
      "men": 1645,
      "ales": 1646,
      "Ġmater": 1647,
      "ĠGreat": 1648,
      "Ġback": 1649,
      "Ġcomplete": 1650,
      "Ġcame": 1651,
      "aries": 1652,
      "Ġtrade": 1653,
      "displa": 1654,
      "Ġmake": 1655,
      "ystyle": 1656,
      "Ġobserv": 1657,
      "displaystyle": 1658,
      "Ġhere": 1659,
      "Ġexpress": 1660,
      "ĠLou": 1661,
      "Ġmanufact": 1662,
      "Ġiron": 1663,
      "ciety": 1664,
      "af": 1665,
      "Ġday": 1666,
      "ats": 1667,
      "Ġbishop": 1668,
      "50": 1669,
      "Ġhistor": 1670,
      "ological": 1671,
      "ĠWh": 1672,
      "Ġcommand": 1673,
      "ribed": 1674,
      "olution": 1675,
      "eneral": 1676,
      "Ġsometimes": 1677,
      "icult": 1678,
      "Ġground": 1679,
      "dom": 1680,
      "idge": 1681,
      "inist": 1682,
      "Ġaccording": 1683,
      "eb": 1684,
      "wing": 1685,
      "Ġgu": 1686,
      "Ġvis": 1687,
      "187": 1688,
      "Ġjud": 1689,
      "ining": 1690,
      "Ġyou": 1691,
      "lished": 1692,
      "Ġep": 1693,
      "Ġtherefore": 1694,
      "Ġextend": 1695,
      "ĠAugust": 1696,
      "Ġdue": 1697,
      "Ġcounty": 1698,
      "13": 1699,
      "Ġmus": 1700,
      "unic": 1701,
      "Ġwor": 1702,
      "not": 1703,
      "Ġla": 1704,
      "ĠNorth": 1705,
      "ĠStates": 1706,
      "pond": 1707,
      "ards": 1708,
      "attle": 1709,
      "ik": 1710,
      "Ġpain": 1711,
      "mer": 1712,
      "Ġonce": 1713,
      "liament": 1714,
      "Ġappointed": 1715,
      "ruct": 1716,
      "Ġsuper": 1717,
      "Ġbecome": 1718,
      "ĠBar": 1719,
      "ively": 1720,
      "Ġfri": 1721,
      "rent": 1722,
      "ingu": 1723,
      "Ġcarried": 1724,
      "Ġwest": 1725,
      "Ġmention": 1726,
      "ĠYork": 1727,
      "Ġill": 1728,
      "Ġsing": 1729,
      "Ġrespect": 1730,
      "omin": 1731,
      "Ġide": 1732,
      "Ġ180": 1733,
      "Ġter": 1734,
      "Ġdistin": 1735,
      "Ġdifficult": 1736,
      "Ġsoon": 1737,
      "Ġfrequ": 1738,
      "Ġcomb": 1739,
      "Ġnever": 1740,
      "Ġcre": 1741,
      "orts": 1742,
      "ec": 1743,
      "aps": 1744,
      "Ġhig": 1745,
      "ened": 1746,
      "Ġlo": 1747,
      "Ġalways": 1748,
      "ĠAd": 1749,
      "pper": 1750,
      "ĠSouth": 1751,
      "illa": 1752,
      "ĠLa": 1753,
      "Ġdirect": 1754,
      "Ġgave": 1755,
      "ox": 1756,
      "Ġcare": 1757,
      "Ġdet": 1758,
      "Ġpeople": 1759,
      "ĠChristian": 1760,
      ".;": 1761,
      "Ġfine": 1762,
      "ria": 1763,
      "ceeded": 1764,
      "Ġfun": 1765,
      "ĠOf": 1766,
      "iddle": 1767,
      "ring": 1768,
      "ĠRome": 1769,
      "ruction": 1770,
      "ength": 1771,
      "Ġann": 1772,
      "bon": 1773,
      "Ġforce": 1774,
      "Ġsuc": 1775,
      "Ġdest": 1776,
      "Ġfollowed": 1777,
      "Ġtill": 1778,
      "Ġsit": 1779,
      "Ġexper": 1780,
      "Ġmat": 1781,
      "Ġet": 1782,
      "ĠPers": 1783,
      "ille": 1784,
      "Ġnearly": 1785,
      "Ġmight": 1786,
      "Ġage": 1787,
      "ots": 1788,
      "ĠAmerican": 1789,
      "Ġexamp": 1790,
      "Ġoriginal": 1791,
      "Ġturn": 1792,
      "Ġoper": 1793,
      "istic": 1794,
      "ĠTo": 1795,
      "Ġsign": 1796,
      "asion": 1797,
      "ĠAnt": 1798,
      "Ġmeas": 1799,
      "Ġproduced": 1800,
      "Ġrecogn": 1801,
      "gen": 1802,
      "Ġgl": 1803,
      "Ġhouse": 1804,
      "Ġdeg": 1805,
      "Ġchild": 1806,
      "Ġsubst": 1807,
      "Ġpassed": 1808,
      "Ġimportance": 1809,
      "Ġestablished": 1810,
      "Ġmaterial": 1811,
      "Ġpoet": 1812,
      "Ġgreater": 1813,
      "Ġel": 1814,
      "Ġstates": 1815,
      "son": 1816,
      "Ġant": 1817,
      "arent": 1818,
      "Ġhalf": 1819,
      "ement": 1820,
      "ization": 1821,
      "Ġsix": 1822,
      "ĠPo": 1823,
      "Ġdeterm": 1824,
      "Ġfounded": 1825,
      "iar": 1826,
      "Ġknow": 1827,
      "respond": 1828,
      "Ġnumerous": 1829,
      "ĠWe": 1830,
      "Ġtake": 1831,
      "orther": 1832,
      "ime": 1833,
      "rab": 1834,
      "Ġdisp": 1835,
      "Ġeast": 1836,
      "ixed": 1837,
      "ills": 1838,
      "Ġgrad": 1839,
      "alth": 1840,
      "ĠFig": 1841,
      "Ġattempt": 1842,
      "ĠAf": 1843,
      "ĠX": 1844,
      "Ġge": 1845,
      "Ġtransl": 1846,
      "Ġsou": 1847,
      "Ġpress": 1848,
      "Ġnatural": 1849,
      "Ġmass": 1850,
      "Ġrailway": 1851,
      "Ġcentre": 1852,
      "Ġsurface": 1853,
      "ising": 1854,
      "Ġfurther": 1855,
      "ald": 1856,
      "ĠWar": 1857,
      "akes": 1858,
      "Ġadop": 1859,
      "Ġ179": 1860,
      "semb": 1861,
      "Ġparticular": 1862,
      "ĠBr": 1863,
      "anish": 1864,
      "soci": 1865,
      "Ġled": 1866,
      "rag": 1867,
      "Ġlength": 1868,
      "Ġservice": 1869,
      "Ġgive": 1870,
      "ipp": 1871,
      "ones": 1872,
      "Ġspir": 1873,
      "Ġneg": 1874,
      "att": 1875,
      "Ġsupport": 1876,
      "ĠBer": 1877,
      "186": 1878,
      "Ġemployed": 1879,
      "Ġcolon": 1880,
      "Ġparliament": 1881,
      "orthern": 1882,
      "Ġartic": 1883,
      "lack": 1884,
      "Ġpolitical": 1885,
      "Ġmembers": 1886,
      "Ġfriend": 1887,
      "Ġconsist": 1888,
      "Ġspecies": 1889,
      "Ġoffice": 1890,
      "Ġbas": 1891,
      "cts": 1892,
      "Ġbuilt": 1893,
      "Ġcouncil": 1894,
      "ms": 1895,
      "Ġtoget": 1896,
      "Ġtogether": 1897,
      "Ġindust": 1898,
      "ĠAnd": 1899,
      "ĠWest": 1900,
      "ready": 1901,
      "Ġprofess": 1902,
      "Ġfind": 1903,
      "Ġreal": 1904,
      "omen": 1905,
      "oted": 1906,
      "iment": 1907,
      "Ġadminist": 1908,
      "der": 1909,
      "Ġlower": 1910,
      "inc": 1911,
      "ying": 1912,
      "Ġce": 1913,
      "Ġbre": 1914,
      "Ġemper": 1915,
      "uous": 1916,
      "Ġtot": 1917,
      "ĠLouis": 1918,
      "Ġmove": 1919,
      "Ġseems": 1920,
      "Ġworld": 1921,
      "reme": 1922,
      "Ġanim": 1923,
      "Ġtitle": 1924,
      "Ġfort": 1925,
      "Ġbegan": 1926,
      "ĠHistory": 1927,
      "rown": 1928,
      "Ġbran": 1929,
      "Ġcontro": 1930,
      "Ġcop": 1931,
      "Ġamount": 1932,
      "pire": 1933,
      "Ġve": 1934,
      "nex": 1935,
      "Ġdoes": 1936,
      "Ġhard": 1937,
      "olic": 1938,
      "ĠJu": 1939,
      "Ġphil": 1940,
      "ler": 1941,
      "ises": 1942,
      "uary": 1943,
      "alle": 1944,
      "ounded": 1945,
      "Ġput": 1946,
      "Ġflow": 1947,
      "Ġtoo": 1948,
      "thern": 1949,
      "imate": 1950,
      "medi": 1951,
      "Ġfavour": 1952,
      "Ġcorrespond": 1953,
      "Ġ30": 1954,
      "Ġprot": 1955,
      "acy": 1956,
      "aul": 1957,
      "Ġfront": 1958,
      "Ġcal": 1959,
      "Ġtrad": 1960,
      "Ġarea": 1961,
      "Ġdays": 1962,
      "Ġlocal": 1963,
      "Ġemb": 1964,
      "Ġprovince": 1965,
      "Ġgrow": 1966,
      "Ġhum": 1967,
      "erred": 1968,
      "Ġdoub": 1969,
      "utions": 1970,
      "ĠMay": 1971,
      "Ġmot": 1972,
      "king": 1973,
      "ĠComm": 1974,
      "selves": 1975,
      "ls": 1976,
      "pid": 1977,
      "ĠHer": 1978,
      "iction": 1979,
      "ĠThus": 1980,
      "ĠPop": 1981,
      "Ġalready": 1982,
      "kn": 1983,
      "Ġvolum": 1984,
      "Ġentire": 1985,
      "Ġappears": 1986,
      "Ġwritten": 1987,
      "ĠGeor": 1988,
      "ĠKing": 1989,
      "Ġcontains": 1990,
      "Ġmean": 1991,
      "Ġpopular": 1992,
      "Ġforeign": 1993,
      "ĠGu": 1994,
      "Ġalong": 1995,
      "ĠMan": 1996,
      "oses": 1997,
      "ency": 1998,
      "Ġbrother": 1999,
      "ops": 2000,
      "Ġpen": 2001,
      "Ġfull": 2002,
      "ĠPort": 2003,
      "Ġdistingu": 2004,
      "Ġbegin": 2005,
      "ĠSw": 2006,
      "Ġtowards": 2007,
      "Ġplaced": 2008,
      "Î½": 2009,
      "ĠPer": 2010,
      "Ġsat": 2011,
      "Ġsym": 2012,
      "Ġpopulation": 2013,
      "amed": 2014,
      "cript": 2015,
      "lect": 2016,
      "aut": 2017,
      "Ġcapital": 2018,
      "Ġcast": 2019,
      "Ġnav": 2020,
      "Ġcommer": 2021,
      "Ġprev": 2022,
      "Ġindepend": 2023,
      "ĠEl": 2024,
      "Ġyoung": 2025,
      "ths": 2026,
      "Ġnecessary": 2027,
      "Ġlines": 2028,
      "Ġvols": 2029,
      "Ġtri": 2030,
      "abit": 2031,
      "20": 2032,
      "Ġnature": 2033,
      "Ġsitu": 2034,
      "Ġcolour": 2035,
      "yr": 2036,
      "ĠTur": 2037,
      "Ġ'": 2038,
      "Ġcult": 2039,
      "Ġthemselves": 2040,
      "iving": 2041,
      "Ġdevelopment": 2042,
      "ica": 2043,
      "Ġpossible": 2044,
      "Ġfive": 2045,
      "ze": 2046,
      "Ġlow": 2047,
      "Ġsac": 2048,
      "Ġfamous": 2049,
      "Ġten": 2050,
      "vere": 2051,
      "Ġallow": 2052,
      "ĠCo": 2053,
      "de": 2054,
      "ĠItaly": 2055,
      "ĠRo": 2056,
      "uns": 2057,
      "ences": 2058,
      "Ġhar": 2059,
      "ĠIii": 2060,
      "ĠCan": 2061,
      "ibr": 2062,
      "Ġ25": 2063,
      "anges": 2064,
      "Ġclaim": 2065,
      "Ġarran": 2066,
      "erence": 2067,
      "oved": 2068,
      "Ġgo": 2069,
      "Ġmountain": 2070,
      "ering": 2071,
      "ories": 2072,
      "Ġpoints": 2073,
      "amm": 2074,
      "Ġcivil": 2075,
      "...": 2076,
      "orough": 2077,
      "Ġmere": 2078,
      "Ġreign": 2079,
      "Ġemperor": 2080,
      "ĠCl": 2081,
      "ĠMr": 2082,
      "Ġremark": 2083,
      "ta": 2084,
      "ĠThom": 2085,
      "Ġ178": 2086,
      "Ġ\"": 2087,
      "Ġmiddle": 2088,
      "Ġair": 2089,
      "lic": 2090,
      "ĠAmerica": 2091,
      "Ġcrit": 2092,
      "Ġtemperature": 2093,
      "Ġapplied": 2094,
      "Ġden": 2095,
      "ĠGermany": 2096,
      "ĠIndia": 2097,
      "ips": 2098,
      "ĠAfric": 2099,
      "Ġrule": 2100,
      "Ġchiefly": 2101,
      "ĠColle": 2102,
      "yal": 2103,
      "Ġparty": 2104,
      "ĠJames": 2105,
      "Ġduke": 2106,
      "Ġmentioned": 2107,
      "Îµ": 2108,
      "30": 2109,
      "Ġsense": 2110,
      "ns": 2111,
      "aring": 2112,
      "Ġdaugh": 2113,
      "Ġquant": 2114,
      "for": 2115,
      "Ġattack": 2116,
      "ĠSpain": 2117,
      "40": 2118,
      "Ġalthough": 2119,
      "ĠIts": 2120,
      "eral": 2121,
      "Ġquestion": 2122,
      "Ġacqu": 2123,
      "haps": 2124,
      "ex": 2125,
      "ote": 2126,
      "Ġseen": 2127,
      "Ġextens": 2128,
      "Ġgroup": 2129,
      "Ġbecause": 2130,
      "Ġwide": 2131,
      "amb": 2132,
      "Ġcontinued": 2133,
      "Ġlanguage": 2134,
      "ye": 2135,
      "rie": 2136,
      "Ġnext": 2137,
      "Ġreligious": 2138,
      "reen": 2139,
      "Ġwood": 2140,
      "ĠEx": 2141,
      "unt": 2142,
      "oms": 2143,
      "Ġsucceeded": 2144,
      "ĠJan": 2145,
      "ĠWith": 2146,
      "Ġcapt": 2147,
      "London": 2148,
      "Ġconditions": 2149,
      "eds": 2150,
      "uction": 2151,
      "ĠAlex": 2152,
      "Ġdepart": 2153,
      "Ġevidence": 2154,
      "Ġregarded": 2155,
      "Ġmilitary": 2156,
      "Ġfa": 2157,
      "Ġdem": 2158,
      "Ġdate": 2159,
      "Ġcat": 2160,
      "itude": 2161,
      "rian": 2162,
      "Ġrather": 2163,
      "ĠQu": 2164,
      "Ġhands": 2165,
      "Ġmagn": 2166,
      "Ġmatter": 2167,
      "ĠAll": 2168,
      "Ġpow": 2169,
      "Ġthird": 2170,
      "emy": 2171,
      "osoph": 2172,
      "Ġcut": 2173,
      "Ġtend": 2174,
      "Ġnar": 2175,
      "uct": 2176,
      "Ġiss": 2177,
      "Ġdesign": 2178,
      "illed": 2179,
      "ulph": 2180,
      "Ġordinary": 2181,
      "iqu": 2182,
      "Ġrapid": 2183,
      "Ġbur": 2184,
      "Ġnorthern": 2185,
      "Ġconnected": 2186,
      "Ġmember": 2187,
      "Ġfall": 2188,
      "Ġang": 2189,
      "Ġregion": 2190,
      "Ġdescribed": 2191,
      "rote": 2192,
      "Ġcentral": 2193,
      "ĠLatin": 2194,
      "Ġappro": 2195,
      "Ġhyd": 2196,
      "ĠCath": 2197,
      "Ġbecom": 2198,
      "Ġclear": 2199,
      "ĠCal": 2200,
      "Ġaccept": 2201,
      "tic": 2202,
      "ese": 2203,
      "Ġbelow": 2204,
      "Ġprim": 2205,
      "clus": 2206,
      "Ġpal": 2207,
      "gypt": 2208,
      "Ġaddition": 2209,
      "Ġer": 2210,
      "inite": 2211,
      "Ġshown": 2212,
      "185": 2213,
      "Ġinh": 2214,
      "arn": 2215,
      "Ġphys": 2216,
      "Ġreturned": 2217,
      "Ġroyal": 2218,
      "Ġremained": 2219,
      "Ġdut": 2220,
      "Ġrecord": 2221,
      "Ġcondition": 2222,
      "Ġhold": 2223,
      "cks": 2224,
      "ula": 2225,
      "Ġii": 2226,
      "ĠMarch": 2227,
      "Ġrul": 2228,
      "riage": 2229,
      "Ġinstit": 2230,
      "Ġwent": 2231,
      "ata": 2232,
      "Ġwhite": 2233,
      "Ġess": 2234,
      "Ġstyle": 2235,
      "Ġportion": 2236,
      "ember": 2237,
      "Ġround": 2238,
      "Ġgrant": 2239,
      "sequently": 2240,
      "Ġearlier": 2241,
      "Ġnative": 2242,
      "ailed": 2243,
      "itive": 2244,
      "ĠÂ·": 2245,
      "gr": 2246,
      "Ġinstrum": 2247,
      "vention": 2248,
      "Ġremains": 2249,
      "ested": 2250,
      "uck": 2251,
      "ha": 2252,
      "Ġalt": 2253,
      "ellow": 2254,
      "Ġ\\": 2255,
      "Ġax": 2256,
      "Ġleast": 2257,
      "fect": 2258,
      "urb": 2259,
      "ĠConst": 2260,
      "Ġbattle": 2261,
      "ĠDr": 2262,
      "Ġsett": 2263,
      "gar": 2264,
      "rand": 2265,
      "Ġleav": 2266,
      "Ġappeared": 2267,
      "oot": 2268,
      "Ġsw": 2269,
      "ĠGod": 2270,
      "Ġcross": 2271,
      "Ġquar": 2272,
      "Ġ1900": 2273,
      "Ġtrue": 2274,
      "oyal": 2275,
      "Ġstri": 2276,
      ".),": 2277,
      "hing": 2278,
      "cend": 2279,
      "Ġexc": 2280,
      "rd": 2281,
      "ĠAmong": 2282,
      "ification": 2283,
      "ĠAlexand": 2284,
      "ledge": 2285,
      "Ġgives": 2286,
      "Ġdoubt": 2287,
      "Ġliterature": 2288,
      "Ġsouthern": 2289,
      "ĠJuly": 2290,
      "gress": 2291,
      "Ġsq": 2292,
      "Ġsecret": 2293,
      "eth": 2294,
      "ires": 2295,
      "Ġsal": 2296,
      "ĠEgypt": 2297,
      "ari": 2298,
      "Ġconsists": 2299,
      "cell": 2300,
      "Ġdoct": 2301,
      "ĠSpanish": 2302,
      "ĠDuring": 2303,
      "Ġcannot": 2304,
      "Ġnational": 2305,
      "ĠHar": 2306,
      "Ġassoci": 2307,
      "Ġoccasion": 2308,
      "Ġgen": 2309,
      "erc": 2310,
      "Ġsla": 2311,
      "lem": 2312,
      "Ġwrote": 2313,
      "ublic": 2314,
      "aper": 2315,
      "Ġimpro": 2316,
      "Ġ22": 2317,
      "Ġschools": 2318,
      "den": 2319,
      "Ġdivided": 2320,
      "ross": 2321,
      "Ġproperty": 2322,
      "omb": 2323,
      "11": 2324,
      "Ġpot": 2325,
      "Ġcompar": 2326,
      "ney": 2327,
      "ĠAct": 2328,
      "ivid": 2329,
      "Ġlab": 2330,
      "airs": 2331,
      "ĠGeorge": 2332,
      "Ġwords": 2333,
      "Ġox": 2334,
      "Ġspirit": 2335,
      "ĠCollege": 2336,
      "Ġjur": 2337,
      "Ġexec": 2338,
      "Ġjo": 2339,
      "Ġextent": 2340,
      "Ġintroduced": 2341,
      "Ġyet": 2342,
      "Ġadopted": 2343,
      "ÏĤ": 2344,
      "oured": 2345,
      "Ġconnex": 2346,
      "ĠNap": 2347,
      "60": 2348,
      "aff": 2349,
      "Ġsold": 2350,
      "Ġfurn": 2351,
      "Ġsugg": 2352,
      "Ġdaughter": 2353,
      "ĠEast": 2354,
      "ĠEm": 2355,
      "Ġedition": 2356,
      "Ġgrand": 2357,
      "pril": 2358,
      "Ġauthority": 2359,
      "Ġbeginning": 2360,
      "iast": 2361,
      "oid": 2362,
      "icient": 2363,
      "Ġxx": 2364,
      "Ġlay": 2365,
      "Ġperhaps": 2366,
      "essel": 2367,
      "ani": 2368,
      "Ġtotal": 2369,
      "Ġshall": 2370,
      "een": 2371,
      "Ïģ": 2372,
      "Ġneigh": 2373,
      "Ġcome": 2374,
      "Ġentered": 2375,
      "ĠOct": 2376,
      "Ġpeace": 2377,
      "Ġexample": 2378,
      "apt": 2379,
      "Ġ177": 2380,
      "25": 2381,
      "Ġplan": 2382,
      "ĠJanuary": 2383,
      "Ġreason": 2384,
      "ische": 2385,
      "Ġ24": 2386,
      "184": 2387,
      "iously": 2388,
      "useum": 2389,
      "ĠSociety": 2390,
      "ĠPl": 2391,
      "ĠRev": 2392,
      "rated": 2393,
      "Ġisland": 2394,
      "Ġlargely": 2395,
      "Ġtheory": 2396,
      "Ġimmedi": 2397,
      "ma": 2398,
      "Ġ$": 2399,
      "ĠSept": 2400,
      "ĠMon": 2401,
      "Ġeducation": 2402,
      "ched": 2403,
      "uries": 2404,
      "Ġincluding": 2405,
      "Ġrepresented": 2406,
      "Ġsingle": 2407,
      "Ġconstitution": 2408,
      "Ġpurpose": 2409,
      "Ġ1905": 2410,
      "oly": 2411,
      "Ġearl": 2412,
      "Ġdirection": 2413,
      "Ġcommission": 2414,
      "Ġterrit": 2415,
      "Ġcause": 2416,
      "Ġdepend": 2417,
      "ems": 2418,
      "Ġtype": 2419,
      "Ġremarkable": 2420,
      "Ġpict": 2421,
      "ĠNo": 2422,
      "hib": 2423,
      "leg": 2424,
      "Ġmarried": 2425,
      "Ġstudy": 2426,
      "Ġour": 2427,
      "Ġhon": 2428,
      "ought": 2429,
      "iter": 2430,
      "Ġfield": 2431,
      "ils": 2432,
      "ored": 2433,
      "ĠIv": 2434,
      "Ġpast": 2435,
      "enty": 2436,
      "Ġproport": 2437,
      "Ġdistinct": 2438,
      "ival": 2439,
      "Ġindic": 2440,
      "Ġpartly": 2441,
      "ially": 2442,
      "ĠSte": 2443,
      "Ġuniversity": 2444,
      "Ġche": 2445,
      "ĠPal": 2446,
      "ĠThomas": 2447,
      "Ġvi": 2448,
      "Ġcontaining": 2449,
      "Ġchange": 2450,
      "ccles": 2451,
      "ography": 2452,
      "anc": 2453,
      "ott": 2454,
      "isions": 2455,
      "ĠAc": 2456,
      "ĠNove": 2457,
      "ober": 2458,
      "atory": 2459,
      "Ġpure": 2460,
      "ĠLi": 2461,
      "ĠJune": 2462,
      "ĠEdward": 2463,
      "iness": 2464,
      "iers": 2465,
      "Ġmaster": 2466,
      "isl": 2467,
      "Ġdefe": 2468,
      "Ġhome": 2469,
      "Ġimper": 2470,
      "ributed": 2471,
      "Ġhor": 2472,
      "Ġ23": 2473,
      "aching": 2474,
      "Ġtowns": 2475,
      "Ġcrown": 2476,
      "Ġcust": 2477,
      "Ġpay": 2478,
      "Ġupper": 2479,
      "Ġestablish": 2480,
      "Ġconnexion": 2481,
      "Ġbuildings": 2482,
      "oney": 2483,
      "ope": 2484,
      "cent": 2485,
      "Ġpreserv": 2486,
      "oura": 2487,
      "ony": 2488,
      "ained": 2489,
      "Ġwind": 2490,
      "Ġpersons": 2491,
      "bor": 2492,
      "ĠApril": 2493,
      "Ġwife": 2494,
      "Ġfire": 2495,
      "Ġincreased": 2496,
      "aris": 2497,
      "igation": 2498,
      "Ġequal": 2499,
      "Ġwhether": 2500,
      "ouses": 2501,
      "ishing": 2502,
      "Ġearth": 2503,
      "ajor": 2504,
      "Ġsour": 2505,
      "Ġbound": 2506,
      "Ġsulph": 2507,
      "Ġpractice": 2508,
      "ternal": 2509,
      "Ġdistinguished": 2510,
      "ĠPol": 2511,
      "Ġbuilding": 2512,
      "Ġwat": 2513,
      "Ġdeep": 2514,
      "Ġcry": 2515,
      "Ġvessel": 2516,
      "Ġexped": 2517,
      "Ġprovin": 2518,
      "Ġfac": 2519,
      "known": 2520,
      "ights": 2521,
      "Ġknowledge": 2522,
      "ĠCor": 2523,
      "cember": 2524,
      "Ġpie": 2525,
      "Ġgold": 2526,
      "ĠScotland": 2527,
      "itz": 2528,
      "ĠAg": 2529,
      "uses": 2530,
      "ĠItalian": 2531,
      "Ġmeet": 2532,
      "Ġbeaut": 2533,
      "Ġfrequently": 2534,
      "Ġrequired": 2535,
      "Ġassum": 2536,
      "Ġletters": 2537,
      "Ġbank": 2538,
      "183": 2539,
      "ricts": 2540,
      "Ġprint": 2541,
      "Ġdivision": 2542,
      "Ġentirely": 2543,
      "Ġplay": 2544,
      "ĠMah": 2545,
      "Ġav": 2546,
      "ĠHouse": 2547,
      "icy": 2548,
      "Ġheav": 2549,
      "Ġwestern": 2550,
      "Ġlost": 2551,
      "ĠAp": 2552,
      "Ġ27": 2553,
      "Ġrecognized": 2554,
      "Ġmaking": 2555,
      "Ġextreme": 2556,
      "Ġcurrent": 2557,
      "Ġdone": 2558,
      "oral": 2559,
      "ams": 2560,
      "Ġchildren": 2561,
      "ĠArab": 2562,
      "Ġ28": 2563,
      "elled": 2564,
      "ĠRep": 2565,
      "ĠShe": 2566,
      "Ġunc": 2567,
      "^{": 2568,
      "Ġsqu": 2569,
      "Ġcenturies": 2570,
      "Ġbooks": 2571,
      "Ġpp": 2572,
      "Ġdistricts": 2573,
      "ection": 2574,
      "ument": 2575,
      "Ġrange": 2576,
      "ken": 2577,
      "Ġbus": 2578,
      "utes": 2579,
      "ara": 2580,
      "well": 2581,
      "Ġcit": 2582,
      "ĠOctober": 2583,
      "onic": 2584,
      "Ġvilla": 2585,
      "Ġoccupied": 2586,
      "Ġdri": 2587,
      "ĠCast": 2588,
      "Ġimm": 2589,
      "ended": 2590,
      "Ġere": 2591,
      "Ġdise": 2592,
      "esides": 2593,
      "ee": 2594,
      "Ġtro": 2595,
      "Ġprivate": 2596,
      "Ġmarked": 2597,
      "Ġassist": 2598,
      "Ġnamed": 2599,
      "ĠRich": 2600,
      "ĠMed": 2601,
      "Ġdistance": 2602,
      "ĠDecember": 2603,
      "wer": 2604,
      "lying": 2605,
      "su": 2606,
      "Ġheat": 2607,
      "ĠRh": 2608,
      "ĠSal": 2609,
      "ĠMag": 2610,
      "ourn": 2611,
      "Ġneighbour": 2612,
      "Ġdegree": 2613,
      "ĠNovember": 2614,
      "Ġmach": 2615,
      "Ġsuccessful": 2616,
      "Ġconstant": 2617,
      "Ġdoctr": 2618,
      "ique": 2619,
      "Ġtwenty": 2620,
      "Ġelected": 2621,
      "where": 2622,
      "ead": 2623,
      "ĠFeb": 2624,
      "itable": 2625,
      "Ġdeal": 2626,
      "ĠGl": 2627,
      "Ġkingdom": 2628,
      "Ġterms": 2629,
      "Ġprovided": 2630,
      "Ġrise": 2631,
      "what": 2632,
      "ricult": 2633,
      "Ġthought": 2634,
      "ĠSeptember": 2635,
      "Ġderived": 2636,
      "Ġfixed": 2637,
      "ruary": 2638,
      "rad": 2639,
      "Ġserved": 2640,
      "Ġaut": 2641,
      "Ġhigher": 2642,
      "ĠBritain": 2643,
      "Ġliterary": 2644,
      "Ġthroughout": 2645,
      "Ġpecul": 2646,
      "Ġindivid": 2647,
      "fig": 2648,
      "sec": 2649,
      "Ġdecl": 2650,
      "27": 2651,
      "Ġofficial": 2652,
      "Ġpap": 2653,
      "ĠTe": 2654,
      "Ġreform": 2655,
      "ĠAfrica": 2656,
      "rat": 2657,
      "nes": 2658,
      "cience": 2659,
      "Ġobtain": 2660,
      "Ġchap": 2661,
      "cclesiast": 2662,
      "ĠOx": 2663,
      "28": 2664,
      "oir": 2665,
      "Ġsay": 2666,
      "olved": 2667,
      "uable": 2668,
      "Ġblood": 2669,
      "Ġphilosoph": 2670,
      "Ġpeculiar": 2671,
      "Ġresults": 2672,
      "Ġstruct": 2673,
      "ption": 2674,
      "ux": 2675,
      "inent": 2676,
      "Ġsup": 2677,
      "ĠMont": 2678,
      "ests": 2679,
      "Ġdepos": 2680,
      "Ġseparate": 2681,
      "Ġconver": 2682,
      "Ġpowers": 2683,
      "hel": 2684,
      "ros": 2685,
      "Ġut": 2686,
      "ink": 2687,
      "ĠCatholic": 2688,
      "Ġreached": 2689,
      "ĠSome": 2690,
      "Ġplaces": 2691,
      "Ġlord": 2692,
      "thing": 2693,
      "bury": 2694,
      "Ġ26": 2695,
      "Ġsituated": 2696,
      "ells": 2697,
      "Ġlegisl": 2698,
      "Ġfunction": 2699,
      "Ġcamp": 2700,
      "ience": 2701,
      "Ġpolicy": 2702,
      "Ġsun": 2703,
      "bur": 2704,
      "Ġsand": 2705,
      "bo": 2706,
      "bs": 2707,
      "Ġneed": 2708,
      "conom": 2709,
      "Ġrocks": 2710,
      "ĠPaul": 2711,
      "Ġnumbers": 2712,
      "imin": 2713,
      "Ġregular": 2714,
      "hest": 2715,
      "Ġcarry": 2716,
      "ĠFebruary": 2717,
      "rem": 2718,
      "work": 2719,
      "Ġwin": 2720,
      "ĠIre": 2721,
      "Ġcollection": 2722,
      "Ġvon": 2723,
      "Ġsomewhat": 2724,
      "Ġdiss": 2725,
      ".).": 2726,
      "ville": 2727,
      "berg": 2728,
      "ean": 2729,
      "ino": 2730,
      "isf": 2731,
      "Ġsolution": 2732,
      "Ġmovement": 2733,
      "Ġcircum": 2734,
      "ington": 2735,
      "Ġforest": 2736,
      "Ġdeb": 2737,
      "Ġlaws": 2738,
      "ana": 2739,
      "vi": 2740,
      "Ġplate": 2741,
      "Ġlie": 2742,
      "ode": 2743,
      "atively": 2744,
      "aged": 2745,
      "go": 2746,
      "Ġconqu": 2747,
      "rif": 2748,
      "ressed": 2749,
      "erve": 2750,
      "Ġconsidered": 2751,
      "ĠRoyal": 2752,
      "Ġmanner": 2753,
      "Ġeastern": 2754,
      "Ġpressure": 2755,
      "Ġmainly": 2756,
      "Ġdeveloped": 2757,
      "Ġearliest": 2758,
      "Ġinhabit": 2759,
      "Ġbranch": 2760,
      "itt": 2761,
      "Ġever": 2762,
      "Ġcharge": 2763,
      "ĠMor": 2764,
      "Ġcler": 2765,
      "och": 2766,
      "ĠBel": 2767,
      "Ġ40": 2768,
      "Ġple": 2769,
      "rs": 2770,
      "Ġsurr": 2771,
      "Ġblack": 2772,
      "Ġlaid": 2773,
      "ĠâĢĿ": 2774,
      "Ġproportion": 2775,
      "Ġvict": 2776,
      "ÏĦ": 2777,
      "rey": 2778,
      "acher": 2779,
      "Ġopin": 2780,
      ":-": 2781,
      "Ġsettle": 2782,
      "Ġowing": 2783,
      "arily": 2784,
      "ĠTr": 2785,
      "ship": 2786,
      "Ġstreng": 2787,
      "Ġadded": 2788,
      "24": 2789,
      "Ġstone": 2790,
      "ena": 2791,
      "ĠSu": 2792,
      "ables": 2793,
      "Ġraised": 2794,
      "uel": 2795,
      "Ġpra": 2796,
      "Ġnor": 2797,
      "ĠCam": 2798,
      "atures": 2799,
      "ĠIreland": 2800,
      "Ġident": 2801,
      "like": 2802,
      "shire": 2803,
      "umb": 2804,
      "Ġsize": 2805,
      "otton": 2806,
      "Ġrich": 2807,
      "Paris": 2808,
      "Ġaver": 2809,
      "Ġcountries": 2810,
      "rac": 2811,
      "Ġprep": 2812,
      "Ġchem": 2813,
      "Ġlands": 2814,
      "ĠIr": 2815,
      "Ġvaluable": 2816,
      "ĠIndian": 2817,
      "Ġcele": 2818,
      "26": 2819,
      "Ġattention": 2820,
      "Ġsettled": 2821,
      "Ġdestro": 2822,
      "Ġpaper": 2823,
      "Ġcryst": 2824,
      "Ġindeed": 2825,
      "Ġbird": 2826,
      "23": 2827,
      "esch": 2828,
      "Ġ21": 2829,
      "Ġoriginally": 2830,
      "hood": 2831,
      "Ġparalle": 2832,
      "ĠAng": 2833,
      "Ġwid": 2834,
      "Ġquite": 2835,
      "Ġaccomp": 2836,
      "Ġmonths": 2837,
      "Ġkept": 2838,
      "Ġadministration": 2839,
      "Ġbelie": 2840,
      "olute": 2841,
      "ai": 2842,
      "ania": 2843,
      "rest": 2844,
      "oria": 2845,
      "Ġexerc": 2846,
      "Ġeight": 2847,
      "ĠJew": 2848,
      "ĠVal": 2849,
      "Ġrun": 2850,
      "Ġhydro": 2851,
      "urches": 2852,
      "rick": 2853,
      "Ġvers": 2854,
      "Ġbeh": 2855,
      "Ġremoved": 2856,
      "Ġpersonal": 2857,
      "Ġhosp": 2858,
      "ĠMin": 2859,
      "Ġ176": 2860,
      "teen": 2861,
      "Ġelectric": 2862,
      "Ġable": 2863,
      "ĠGeneral": 2864,
      "arian": 2865,
      "Ġfru": 2866,
      "ouble": 2867,
      "Ġcommun": 2868,
      "wo": 2869,
      "Ġmoney": 2870,
      "ĠMac": 2871,
      "Ġstra": 2872,
      "Ġsimple": 2873,
      "Ġfif": 2874,
      "Ġjuris": 2875,
      "ores": 2876,
      "Ġbeg": 2877,
      "ĠFranc": 2878,
      "Ġsupposed": 2879,
      "Ġhuman": 2880,
      "Ġcelebr": 2881,
      "Ġforces": 2882,
      "ously": 2883,
      "ession": 2884,
      "Ġfinally": 2885,
      "yp": 2886,
      "ĠWal": 2887,
      "Ġnothing": 2888,
      "ĠMil": 2889,
      "ĠFred": 2890,
      "Ġpractically": 2891,
      "80": 2892,
      "Ġaway": 2893,
      "inity": 2894,
      "ĠJer": 2895,
      "Ġmarriage": 2896,
      "Ġvalley": 2897,
      "Ġmajor": 2898,
      "Ġecclesiast": 2899,
      "ĠMad": 2900,
      "Ġprince": 2901,
      "ails": 2902,
      "Ġexistence": 2903,
      "ĠNor": 2904,
      "yond": 2905,
      "Ġwalls": 2906,
      "Ġcultiv": 2907,
      "sp": 2908,
      "ĠEuropean": 2909,
      "21": 2910,
      "Ġmouth": 2911,
      "Ġexpl": 2912,
      "Ġhistorical": 2913,
      "Ġhel": 2914,
      "Ġindependent": 2915,
      "Ġplant": 2916,
      "Ġcreated": 2917,
      "itation": 2918,
      "Ġlies": 2919,
      "Ġtext": 2920,
      "ĠOld": 2921,
      "Ġwool": 2922,
      "ential": 2923,
      "Ġrelations": 2924,
      "Ġillust": 2925,
      "Ġprinciple": 2926,
      "ĠPen": 2927,
      "Ġpref": 2928,
      "Ġgovernor": 2929,
      "Ġidea": 2930,
      "Ġprevent": 2931,
      "Ġmetal": 2932,
      "Ġgradually": 2933,
      "ĠPruss": 2934,
      "chan": 2935,
      "Ġbene": 2936,
      "Ġ100": 2937,
      "Ġthick": 2938,
      "ands": 2939,
      "ĠRussia": 2940,
      "ids": 2941,
      "elt": 2942,
      "Ġempire": 2943,
      "Ġinstance": 2944,
      "ental": 2945,
      "Ġheight": 2946,
      "osing": 2947,
      "ĠOne": 2948,
      "igned": 2949,
      "orship": 2950,
      "Ġcarbon": 2951,
      "ibrary": 2952,
      "ĠSam": 2953,
      "Ġminister": 2954,
      "Ġgreatly": 2955,
      "Ġschol": 2956,
      "ĠComp": 2957,
      "Ġsha": 2958,
      "Ġsus": 2959,
      "Ġnames": 2960,
      "ulated": 2961,
      "Ġgreatest": 2962,
      "29": 2963,
      "Ġtax": 2964,
      "Ġapparent": 2965,
      "Ġweight": 2966,
      "Ġ50": 2967,
      "anks": 2968,
      "Ġ29": 2969,
      "Ġarrange": 2970,
      "70": 2971,
      "field": 2972,
      "side": 2973,
      "ĠHere": 2974,
      "hens": 2975,
      "Ġincrease": 2976,
      "Ġpurposes": 2977,
      "Ġseat": 2978,
      "elf": 2979,
      "ici": 2980,
      "Ġ1901": 2981,
      "Ġtroops": 2982,
      "Ġparallel": 2983,
      "ĠMal": 2984,
      "aint": 2985,
      "Ġyield": 2986,
      "Ġextra": 2987,
      "ĠFl": 2988,
      "iful": 2989,
      "Ġformerly": 2990,
      "Ġconsequ": 2991,
      "Ġconcern": 2992,
      "ĠHol": 2993,
      "uments": 2994,
      "Ġroad": 2995,
      "Ġliber": 2996,
      "Ġallowed": 2997,
      "Ġproved": 2998,
      "vell": 2999,
      "45": 3000,
      "rate": 3001,
      "Ġcost": 3002,
      "Ġfres": 3003,
      "Ġdiscovered": 3004,
      "35": 3005,
      "Ġapplic": 3006,
      "Ġappearance": 3007,
      "ĠRussian": 3008,
      "fort": 3009,
      "ĠCent": 3010,
      "Ġinvest": 3011,
      "oration": 3012,
      "ĠLaw": 3013,
      "Ġ1906": 3014,
      "Ġdepartment": 3015,
      "ĠOxford": 3016,
      "ĠMary": 3017,
      "Ġprogress": 3018,
      "Ġattached": 3019,
      "Ġmerely": 3020,
      "ĠFrederic": 3021,
      "Ġreb": 3022,
      "ibli": 3023,
      "Ġdescend": 3024,
      "Ġdecla": 3025,
      "Ġsubjects": 3026,
      "aces": 3027,
      "west": 3028,
      "Ġlarger": 3029,
      "Ġcontem": 3030,
      "Ġnarrow": 3031,
      "ias": 3032,
      "ĠAcc": 3033,
      "za": 3034,
      "Ïħ": 3035,
      "Ġmother": 3036,
      "Ġshows": 3037,
      "Ġinteresting": 3038,
      "urs": 3039,
      "Ġrock": 3040,
      "atives": 3041,
      "Ġslight": 3042,
      "va": 3043,
      "ube": 3044,
      "Ġpresident": 3045,
      "Ġmanufacture": 3046,
      "Ġanal": 3047,
      "ĠEp": 3048,
      "iform": 3049,
      "ceeding": 3050,
      "Ġfair": 3051,
      "Ġbecomes": 3052,
      "rical": 3053,
      "ishes": 3054,
      "amber": 3055,
      "general": 3056,
      "Ġliqu": 3057,
      "Ġcorresponding": 3058,
      "astern": 3059,
      "Ġeconom": 3060,
      "Ġcomposed": 3061,
      "Ġ1907": 3062,
      "22": 3063,
      "ocks": 3064,
      "Ġalone": 3065,
      "ounds": 3066,
      "Ġwriters": 3067,
      "rison": 3068,
      "Ġenc": 3069,
      "Ġaxis": 3070,
      "action": 3071,
      "ĠProt": 3072,
      "hire": 3073,
      "ĠNot": 3074,
      "Ġrivers": 3075,
      "ĠOther": 3076,
      "Ġfollows": 3077,
      "Ġfamil": 3078,
      "ĠBay": 3079,
      "Ġpossession": 3080,
      "ĠFer": 3081,
      "ĠPersian": 3082,
      "Ġful": 3083,
      "Ġadj": 3084,
      "astic": 3085,
      "ĠLake": 3086,
      "Ġbetter": 3087,
      "Ġcommercial": 3088,
      "Ġincluded": 3089,
      "Ġbeyond": 3090,
      "Ġchurches": 3091,
      "Ġfoot": 3092,
      "Ġtribes": 3093,
      "Ġener": 3094,
      "itte": 3095,
      "Ġdial": 3096,
      "utch": 3097,
      "orted": 3098,
      "het": 3099,
      "Ġcomposition": 3100,
      "Ġterritory": 3101,
      "oll": 3102,
      "Ġarticle": 3103,
      "ĠGr": 3104,
      "Ġcourts": 3105,
      "Ġfood": 3106,
      "Ġmeasure": 3107,
      "ĠRobert": 3108,
      "Ġlog": 3109,
      "ĠVir": 3110,
      "ped": 3111,
      "Î·": 3112,
      "180": 3113,
      "Ġrank": 3114,
      "ĠScott": 3115,
      "zig": 3116,
      "Ġ_{": 3117,
      "ĠInst": 3118,
      "Ġagricult": 3119,
      "Ġauthorities": 3120,
      "Ġmind": 3121,
      "Ġdefinite": 3122,
      "asing": 3123,
      "Ġeld": 3124,
      "text": 3125,
      "ĠAlexander": 3126,
      "Ġvolume": 3127,
      "Ġwit": 3128,
      "Ġrare": 3129,
      "line": 3130,
      "ĠKh": 3131,
      "Ġcaused": 3132,
      "Ġexcell": 3133,
      "Ġsens": 3134,
      "Ġedited": 3135,
      "lav": 3136,
      "Ġship": 3137,
      "wise": 3138,
      "ĠJac": 3139,
      "Ġexception": 3140,
      "zo": 3141,
      "ormal": 3142,
      "Ch": 3143,
      "Ġperfect": 3144,
      "Ġleading": 3145,
      "Ġinhabitants": 3146,
      "lied": 3147,
      "min": 3148,
      "Ġhouses": 3149,
      "Ġattend": 3150,
      "Ġexam": 3151,
      "eries": 3152,
      "Ġpreserved": 3153,
      "Ġlat": 3154,
      "iles": 3155,
      "Ġstage": 3156,
      "ression": 3157,
      "iting": 3158,
      "Ġperform": 3159,
      "Ġ175": 3160,
      "75": 3161,
      "85": 3162,
      "rel": 3163,
      "ugh": 3164,
      "Ġ1904": 3165,
      "Ġproduce": 3166,
      "Ġreligion": 3167,
      "Ġiv": 3168,
      "Ġcovered": 3169,
      "Ġrad": 3170,
      "ĠMa": 3171,
      "Ġtyp": 3172,
      "itor": 3173,
      "Ġcommunic": 3174,
      "Ġdrawn": 3175,
      "bridge": 3176,
      "Ġexpedition": 3177,
      "Ġresist": 3178,
      "ĠPres": 3179,
      "Ġiii": 3180,
      "Ġadvant": 3181,
      "undred": 3182,
      "lected": 3183,
      "Ġoil": 3184,
      "ĠSm": 3185,
      "ichte": 3186,
      "ĠZe": 3187,
      "ĠCom": 3188,
      "ady": 3189,
      "ĠFrederick": 3190,
      "Ġcover": 3191,
      "verse": 3192,
      "Ġcharacteristic": 3193,
      "ĠEar": 3194,
      "Ġclasses": 3195,
      "Ġdetermined": 3196,
      "ero": 3197,
      "Ġnon": 3198,
      "Ġanimals": 3199,
      "uls": 3200,
      "Ġmethods": 3201,
      "ĠBur": 3202,
      "Ġtaking": 3203,
      "Ġkeep": 3204,
      "ĠConstant": 3205,
      "alk": 3206,
      "Ġmy": 3207,
      "Ġdom": 3208,
      "Ġhighest": 3209,
      "aign": 3210,
      "Ġprison": 3211,
      "Ġelement": 3212,
      "Ġopened": 3213,
      "Ġchanges": 3214,
      "Ġextended": 3215,
      "Ġrate": 3216,
      "Ġsteam": 3217,
      "Ġabsolute": 3218,
      "can": 3219,
      "ĠMem": 3220,
      "Ġwriter": 3221,
      "1901": 3222,
      "Ġ1890": 3223,
      "bishop": 3224,
      "Ġproducts": 3225,
      "Ġtradition": 3226,
      "Ġgranted": 3227,
      "ĠRichard": 3228,
      "bit": 3229,
      "Ġcotton": 3230,
      "set": 3231,
      "ĠMore": 3232,
      "izing": 3233,
      "Ġtreatment": 3234,
      "Ġecclesiastical": 3235,
      "Ïĥ": 3236,
      "Ġmom": 3237,
      "Ġagre": 3238,
      "ademy": 3239,
      "ĠÎ¸": 3240,
      "Ġcontrol": 3241,
      "Ġdisease": 3242,
      "anced": 3243,
      "Ġdram": 3244,
      "1900": 3245,
      "ĠSan": 3246,
      "95": 3247,
      "ructed": 3248,
      "Ġaccepted": 3249,
      "hedral": 3250,
      "nces": 3251,
      "Ġfell": 3252,
      "Ġ1899": 3253,
      "gment": 3254,
      "east": 3255,
      "Ġforming": 3256,
      "Ġrend": 3257,
      "Ġgun": 3258,
      "oire": 3259,
      "ĠSy": 3260,
      "Ġseven": 3261,
      "mat": 3262,
      "lement": 3263,
      "Ġloss": 3264,
      "36": 3265,
      "Ġcoal": 3266,
      "Ġelev": 3267,
      "ĠGra": 3268,
      "Ġexact": 3269,
      "ĠQue": 3270,
      "Ġtreaty": 3271,
      "ĠLife": 3272,
      "ability": 3273,
      "Ġspring": 3274,
      "ĠVen": 3275,
      "46": 3276,
      "Ġtransf": 3277,
      "Ġdiscuss": 3278,
      "Ġproduct": 3279,
      "ĠSim": 3280,
      "Ġrecent": 3281,
      "Ġprepared": 3282,
      "Ġtest": 3283,
      "aria": 3284,
      "omer": 3285,
      "Ġconstruction": 3286,
      "Ġfigures": 3287,
      "iding": 3288,
      "Ġextensive": 3289,
      "rative": 3290,
      "Ġbroad": 3291,
      "Ġdifference": 3292,
      "oe": 3293,
      "onia": 3294,
      "Ġliving": 3295,
      "Ġactive": 3296,
      "ico": 3297,
      "ĠPhilip": 3298,
      "ĠDie": 3299,
      "Ġlonger": 3300,
      "Ġimmediately": 3301,
      "uff": 3302,
      "inet": 3303,
      "Ġadmir": 3304,
      "Ġsite": 3305,
      "Ġreduced": 3306,
      "Ġhealth": 3307,
      "Ġobl": 3308,
      "Ġorders": 3309,
      "ask": 3310,
      "Ġsection": 3311,
      "antic": 3312,
      "ipzig": 3313,
      "Ġpresence": 3314,
      "ds": 3315,
      "umn": 3316,
      "43": 3317,
      "gest": 3318,
      "ĠDav": 3319,
      "ĠArch": 3320,
      "Ġviol": 3321,
      "aded": 3322,
      "fully": 3323,
      "pic": 3324,
      "Ġqueen": 3325,
      "Ġrevol": 3326,
      "ini": 3327,
      "Ġscience": 3328,
      "ronic": 3329,
      "unicip": 3330,
      "Ġmotion": 3331,
      "Ġproject": 3332,
      "Ġexpla": 3333,
      "eg": 3334,
      "Ġfem": 3335,
      "oul": 3336,
      "Ġsteel": 3337,
      "Ġbusiness": 3338,
      "iments": 3339,
      "Ġelse": 3340,
      "Ġindustry": 3341,
      "inn": 3342,
      "Ġthr": 3343,
      "Ġplain": 3344,
      "diction": 3345,
      "âĢľ": 3346,
      "utation": 3347,
      "eties": 3348,
      "ĠÎ±": 3349,
      "Ġgiving": 3350,
      "Ġaverage": 3351,
      "ĠFrancis": 3352,
      "Ġsides": 3353,
      "88": 3354,
      "Ġfund": 3355,
      "Ġleaves": 3356,
      "Ġbring": 3357,
      "Ġpoor": 3358,
      "ĠAsia": 3359,
      "Ġglass": 3360,
      "Ġvessels": 3361,
      "Ġinclude": 3362,
      "Ġprovinces": 3363,
      "iance": 3364,
      "Ġinstrument": 3365,
      "atus": 3366,
      "Ġarri": 3367,
      "Ġcircumst": 3368,
      "racted": 3369,
      "ĠMiss": 3370,
      "Ġjoined": 3371,
      "Ġconv": 3372,
      "Ġsolid": 3373,
      "Ġmechan": 3374,
      "osite": 3375,
      "ĠMo": 3376,
      "istry": 3377,
      "Ġformation": 3378,
      "Ġperman": 3379,
      "Ġrights": 3380,
      "Ġpred": 3381,
      "stand": 3382,
      "ĠCong": 3383,
      "ĠBl": 3384,
      "Ġsociety": 3385,
      "Ġindividual": 3386,
      "ĠProtest": 3387,
      "Ġsummer": 3388,
      "Ġdevoted": 3389,
      "ada": 3390,
      "Ġofficers": 3391,
      "porary": 3392,
      "ĠPortug": 3393,
      "Ġquantity": 3394,
      "Ġsurv": 3395,
      "Ġconduct": 3396,
      "Ġstart": 3397,
      "Ġsubsequently": 3398,
      "ĠDel": 3399,
      "Ġerected": 3400,
      "Ġlevel": 3401,
      "Ġsocial": 3402,
      "Ġplane": 3403,
      "Ġactual": 3404,
      "chn": 3405,
      "Ġenter": 3406,
      "cientific": 3407,
      "cious": 3408,
      "ĠUnder": 3409,
      "37": 3410,
      "oman": 3411,
      "Ġstep": 3412,
      "imately": 3413,
      "ĠHam": 3414,
      "Ġlate": 3415,
      "ether": 3416,
      "ĠJose": 3417,
      "Ġaffairs": 3418,
      "Ġ{": 3419,
      "Ġthir": 3420,
      "usion": 3421,
      "Ġ60": 3422,
      "Ġmaintained": 3423,
      "Ġfle": 3424,
      "Ġdang": 3425,
      "ivity": 3426,
      "Ġboard": 3427,
      "Ġprinted": 3428,
      "Ġcritic": 3429,
      "ĠTrans": 3430,
      "Ġlived": 3431,
      "labor": 3432,
      "Ġrelation": 3433,
      "Ġrevolution": 3434,
      "Ġstructure": 3435,
      "Ġdry": 3436,
      "Ġfaith": 3437,
      "gl": 3438,
      "Ġwomen": 3439,
      "Ġcities": 3440,
      "Ġdark": 3441,
      "Ġacres": 3442,
      "Ġcorn": 3443,
      "Ġpreced": 3444,
      "Ġ1903": 3445,
      "Ġsmaller": 3446,
      "Ġcelebrated": 3447,
      "tical": 3448,
      "Ġsan": 3449,
      "Ġresp": 3450,
      "Ġdescript": 3451,
      "Ġgod": 3452,
      "Ġ1897": 3453,
      "Ġopposition": 3454,
      "ĠBohem": 3455,
      "ixt": 3456,
      "Ġstudied": 3457,
      "rid": 3458,
      "stone": 3459,
      "aving": 3460,
      "Ġperm": 3461,
      "ension": 3462,
      "Ġpictures": 3463,
      "Ġsatisf": 3464,
      "Ġduties": 3465,
      "Ġchlor": 3466,
      "Ġgrowth": 3467,
      "47": 3468,
      "with": 3469,
      "Ġ35": 3470,
      "Ġprinciples": 3471,
      "called": 3472,
      "Ġ1902": 3473,
      "Ġcollege": 3474,
      "Ġobserved": 3475,
      "ging": 3476,
      "sk": 3477,
      "Ġtable": 3478,
      "Ġmarket": 3479,
      "oned": 3480,
      "Ġpassing": 3481,
      "Ġdispla": 3482,
      "burgh": 3483,
      "48": 3484,
      "Ġislands": 3485,
      "char": 3486,
      "Ġtranslation": 3487,
      "Ġinstead": 3488,
      "ming": 3489,
      "Ġpaid": 3490,
      "Ġhills": 3491,
      "Ġvir": 3492,
      "ague": 3493,
      "Ġrot": 3494,
      "Ġ1898": 3495,
      "Ġexhib": 3496,
      "ucing": 3497,
      "ĠÎ¼": 3498,
      "axim": 3499,
      "overy": 3500,
      "Ġbord": 3501,
      "sembly": 3502,
      "Ġsecretary": 3503,
      "Ġtop": 3504,
      "ĠGesch": 3505,
      "icial": 3506,
      "ĠTheir": 3507,
      "new": 3508,
      "Ġweak": 3509,
      "Ġwinter": 3510,
      "Ġdestroyed": 3511,
      "Ġworked": 3512,
      "Ġvary": 3513,
      "Ġprote": 3514,
      "anged": 3515,
      "Ġshowed": 3516,
      "orial": 3517,
      "Ġpractical": 3518,
      "Ġdeclared": 3519,
      "met": 3520,
      "Ġsays": 3521,
      "itect": 3522,
      "Ġhundred": 3523,
      "65": 3524,
      "Ġroll": 3525,
      "ĠBerlin": 3526,
      "din": 3527,
      "Ġcav": 3528,
      "Ġjurisdiction": 3529,
      "ona": 3530,
      "Ġsalt": 3531,
      "ago": 3532,
      "Ġentit": 3533,
      "Ġ1896": 3534,
      "Ġarticles": 3535,
      "33": 3536,
      "yer": 3537,
      "idae": 3538,
      "Ġcampaign": 3539,
      "now": 3540,
      "Ġproble": 3541,
      "ĠVict": 3542,
      "Ġinform": 3543,
      "Î»": 3544,
      "ician": 3545,
      "Ġannual": 3546,
      "Ġmunicip": 3547,
      "vey": 3548,
      "Ġcorre": 3549,
      "Ġvariety": 3550,
      "irth": 3551,
      "Ġasc": 3552,
      "Ġmo": 3553,
      "98": 3554,
      "Ġinj": 3555,
      "ras": 3556,
      "Ġbase": 3557,
      "Ġincor": 3558,
      "Ġdomin": 3559,
      "uten": 3560,
      "ĠCat": 3561,
      "arsh": 3562,
      "Ġimposs": 3563,
      "ĠSea": 3564,
      "Ġstrength": 3565,
      "eff": 3566,
      "Ġwall": 3567,
      "Ġspeak": 3568,
      "Ġletter": 3569,
      "Ġmoment": 3570,
      "osen": 3571,
      "ĠDutch": 3572,
      "Ġtakes": 3573,
      "ĠNapole": 3574,
      "Ġfresh": 3575,
      "ourt": 3576,
      "ception": 3577,
      "Ġvillage": 3578,
      "cing": 3579,
      "Ġscale": 3580,
      "Ġhost": 3581,
      "uts": 3582,
      "Ġusual": 3583,
      "Ġthings": 3584,
      "Ġlibrary": 3585,
      "ĠCount": 3586,
      "âĢĿ;": 3587,
      "ators": 3588,
      "ĠMass": 3589,
      "Ġappeal": 3590,
      "Ġvolumes": 3591,
      "96": 3592,
      "ĠAustria": 3593,
      "Ġimperial": 3594,
      "Ġsevere": 3595,
      "Ġfib": 3596,
      "Ġbeautiful": 3597,
      "Ġpros": 3598,
      "appe": 3599,
      "Ġdoctrine": 3600,
      "Ġult": 3601,
      "Ġsovere": 3602,
      "ĠVer": 3603,
      "Ġ1908": 3604,
      "ounced": 3605,
      "Ġsumm": 3606,
      "Ġopinion": 3607,
      "Ġcompany": 3608,
      "Ġsupported": 3609,
      "Ġstation": 3610,
      "Ġ1895": 3611,
      "ĠCr": 3612,
      "Ġdouble": 3613,
      "Ġelements": 3614,
      "ĠMart": 3615,
      "Ġaccompan": 3616,
      "wick": 3617,
      "Ġslow": 3618,
      "Ġqual": 3619,
      "port": 3620,
      "ĠCla": 3621,
      "ĠFrank": 3622,
      "Ġwritings": 3623,
      "iation": 3624,
      "97": 3625,
      "ais": 3626,
      "fe": 3627,
      "Ġoccurs": 3628,
      "Ġantiqu": 3629,
      "Ġkinds": 3630,
      "Ġsilver": 3631,
      "Ġprofessor": 3632,
      "Ġcontained": 3633,
      "Ġchance": 3634,
      "ĠUnivers": 3635,
      "Ġacross": 3636,
      "ĠMany": 3637,
      "ett": 3638,
      "Ġbodies": 3639,
      "Ġturned": 3640,
      "Ġparticularly": 3641,
      "ĠEliz": 3642,
      "Ġkings": 3643,
      "Ġsufficient": 3644,
      "Ġcere": 3645,
      "Ġcontr": 3646,
      "quis": 3647,
      "aped": 3648,
      "Ġpoems": 3649,
      "Ġolder": 3650,
      "Ġcontinuous": 3651,
      "Ġcompleted": 3652,
      "Ġwriting": 3653,
      "Ġmeaning": 3654,
      "38": 3655,
      "lies": 3656,
      "Ġsuccession": 3657,
      "Ġissued": 3658,
      "Ġast": 3659,
      "Ġmineral": 3660,
      "Ġpowerful": 3661,
      "ĠPrince": 3662,
      "Ġanimal": 3663,
      "Ġresemb": 3664,
      "ols": 3665,
      "ĠBra": 3666,
      "ĠIrish": 3667,
      "Ġmajority": 3668,
      "Ġgas": 3669,
      "rugg": 3670,
      "Ġsons": 3671,
      "ĠTra": 3672,
      "ĠDes": 3673,
      "Ġacts": 3674,
      "ĠMuseum": 3675,
      "Ġdifficulty": 3676,
      "Ġcitiz": 3677,
      "ror": 3678,
      "Ġsupply": 3679,
      "94": 3680,
      "worth": 3681,
      "Ġdemand": 3682,
      "Ġscientific": 3683,
      "ĠEn": 3684,
      "abeth": 3685,
      "uit": 3686,
      "Ġbased": 3687,
      "Ġengine": 3688,
      "Ġfail": 3689,
      "Ġmission": 3690,
      "ĠTem": 3691,
      "ĠIm": 3692,
      "gend": 3693,
      "ects": 3694,
      "Ġ170": 3695,
      "Ġlargest": 3696,
      "ua": 3697,
      "Ġcommerce": 3698,
      "Ġhence": 3699,
      "usted": 3700,
      "Ġprepar": 3701,
      "ĠPeter": 3702,
      "Ġmountains": 3703,
      "Ġlegal": 3704,
      "Ġclosely": 3705,
      "Ġeye": 3706,
      "tery": 3707,
      "osph": 3708,
      "Ġ1880": 3709,
      "Ġmis": 3710,
      "Ġstory": 3711,
      "Ġsoil": 3712,
      "Ġrom": 3713,
      "Ġentitled": 3714,
      "rupt": 3715,
      "Ġplants": 3716,
      "Ġgroups": 3717,
      "Ġphilosophy": 3718,
      "Ġbra": 3719,
      "Ġbor": 3720,
      "Ġpet": 3721,
      "Ġrepe": 3722,
      "Ġfruit": 3723,
      "ĠMer": 3724,
      "Ġoutside": 3725,
      "ylind": 3726,
      "Ġassociated": 3727,
      "Ġburn": 3728,
      "omy": 3729,
      "cia": 3730,
      "Le": 3731,
      "app": 3732,
      "ĠTwo": 3733,
      "elve": 3734,
      "onian": 3735,
      "ĠWil": 3736,
      "erior": 3737,
      "Ġpup": 3738,
      "Ġrefused": 3739,
      "iet": 3740,
      "ibility": 3741,
      "Ġrapidly": 3742,
      "Ġyellow": 3743,
      "uk": 3744,
      "Ġsem": 3745,
      "Ġself": 3746,
      "Ġrese": 3747,
      "Ġproduction": 3748,
      "Ġimpossible": 3749,
      "Ġpron": 3750,
      "Ġmill": 3751,
      "ogue": 3752,
      "Ġspread": 3753,
      "ĠIsland": 3754,
      "uge": 3755,
      "Ġmult": 3756,
      "Ê½": 3757,
      "Ġphen": 3758,
      "Ġscar": 3759,
      "Ġvisited": 3760,
      "inian": 3761,
      "Ġenough": 3762,
      "Ġ1870": 3763,
      "Ġexpression": 3764,
      "Ġsaf": 3765,
      "Ġsilk": 3766,
      "Ġmatters": 3767,
      "Ġwaters": 3768,
      "Ġheavy": 3769,
      "itution": 3770,
      "ĠSax": 3771,
      "Ġcathedral": 3772,
      "Ġdefeated": 3773,
      "bro": 3774,
      "Ġ160": 3775,
      "Ġimprove": 3776,
      "ĠElizabeth": 3777,
      "Ġproceed": 3778,
      "ĠAnn": 3779,
      "era": 3780,
      "Ġpun": 3781,
      "ech": 3782,
      "umber": 3783,
      "34": 3784,
      "Ġcylind": 3785,
      "Ġdoc": 3786,
      "urd": 3787,
      "Ġseq": 3788,
      "Ġ31": 3789,
      "ittee": 3790,
      "Ġwhol": 3791,
      "ĠArt": 3792,
      "Ġopposite": 3793,
      "Ġhonour": 3794,
      "ĠSi": 3795,
      "Ġstrict": 3796,
      "Ġarg": 3797,
      "Ġgoods": 3798,
      "Ġcustom": 3799,
      "col": 3800,
      "isters": 3801,
      "Ġnit": 3802,
      "ipl": 3803,
      "Ġcauses": 3804,
      "Ġstandard": 3805,
      "ĠVirgin": 3806,
      "66": 3807,
      "ĠJust": 3808,
      "Ġconsisting": 3809,
      "99": 3810,
      "bra": 3811,
      "acity": 3812,
      "Ġages": 3813,
      "Ġspent": 3814,
      "Ġborough": 3815,
      "arm": 3816,
      "Ġreven": 3817,
      "Ġstrugg": 3818,
      "road": 3819,
      "Ġarchitect": 3820,
      "Ġsettlement": 3821,
      "Ġenergy": 3822,
      "ĠPat": 3823,
      "ribution": 3824,
      "Ġbelonging": 3825,
      "band": 3826,
      "uce": 3827,
      "inus": 3828,
      "Ġface": 3829,
      "Ġevent": 3830,
      "Ġinterior": 3831,
      "Ġeducated": 3832,
      "Ġmusic": 3833,
      "iary": 3834,
      "usal": 3835,
      "ĠEmpire": 3836,
      "Ġtreated": 3837,
      "Ġproc": 3838,
      "Ġlist": 3839,
      "Ġabund": 3840,
      "Ġinterp": 3841,
      "Ġvic": 3842,
      "Ġsource": 3843,
      "ĠJoseph": 3844,
      "55": 3845,
      "ĠTurk": 3846,
      "cle": 3847,
      "Ġlic": 3848,
      "Ġgall": 3849,
      "Ġworking": 3850,
      "Ġarchbishop": 3851,
      "rial": 3852,
      "ĠWales": 3853,
      "oked": 3854,
      "Ġlanguages": 3855,
      "Ġviews": 3856,
      "Ġthin": 3857,
      "Ġgained": 3858,
      "racts": 3859,
      "ĠAccording": 3860,
      "Ġhot": 3861,
      "44": 3862,
      "ĠMat": 3863,
      "ĠStre": 3864,
      "Ġbirds": 3865,
      "Ġfrequent": 3866,
      "Ġquantities": 3867,
      "Ġcircumstances": 3868,
      "Ġsen": 3869,
      "ĠSwed": 3870,
      "urally": 3871,
      "Ġnovel": 3872,
      "Ġdates": 3873,
      "Ġeasily": 3874,
      "ĠNapoleon": 3875,
      "len": 3876,
      "Ġbi": 3877,
      "Ġenj": 3878,
      "Ġrestored": 3879,
      "Ġprotect": 3880,
      "unction": 3881,
      "bre": 3882,
      "Ġships": 3883,
      "Ġ1885": 3884,
      "Ġincorpor": 3885,
      "Ġnotice": 3886,
      "Ġ1892": 3887,
      "lar": 3888,
      "Î¼": 3889,
      "raction": 3890,
      "Ġlimited": 3891,
      "Ġaccur": 3892,
      "Ġsod": 3893,
      "ades": 3894,
      "Ġ1891": 3895,
      "Ïī": 3896,
      "Ġsche": 3897,
      "Ġtemple": 3898,
      "oric": 3899,
      "ush": 3900,
      "Ġobjects": 3901,
      "Ġsuperior": 3902,
      "Ġintroduction": 3903,
      "87": 3904,
      "sy": 3905,
      "Ġign": 3906,
      "Ġsin": 3907,
      "ĠJes": 3908,
      "Ġelabor": 3909,
      "Ġfigure": 3910,
      "Ġbul": 3911,
      "Ġded": 3912,
      "Ġduty": 3913,
      "oke": 3914,
      "Ġcard": 3915,
      "Ġuniform": 3916,
      "ienna": 3917,
      "Ġsquare": 3918,
      "Ġadvantage": 3919,
      "Ġfut": 3920,
      "umin": 3921,
      "Ġreference": 3922,
      "Ġconstructed": 3923,
      "Ġaccompanied": 3924,
      "orph": 3925,
      "Ġprivile": 3926,
      "sey": 3927,
      "Ġamb": 3928,
      "ĠÎ»": 3929,
      "Ġprotection": 3930,
      "39": 3931,
      "itan": 3932,
      "ĠAnother": 3933,
      "Ġcollected": 3934,
      "ek": 3935,
      "Ġpath": 3936,
      "Ġbranches": 3937,
      "mosp": 3938,
      "Ġsubm": 3939,
      "Ġcomparatively": 3940,
      "ply": 3941,
      "ulf": 3942,
      "Ġpassage": 3943,
      "ĠÏĢ": 3944,
      "Ġarrangement": 3945,
      "Ġhom": 3946,
      "Ġarms": 3947,
      "cape": 3948,
      "Ġdimin": 3949,
      "Ġbasis": 3950,
      "uv": 3951,
      "Ġcommonly": 3952,
      "Ġbesides": 3953,
      "Ġdyn": 3954,
      "Ġconven": 3955,
      "ĠHence": 3956,
      "Ġspite": 3957,
      "Ġdistinction": 3958,
      "Ġfrontier": 3959,
      "Ġconsequence": 3960,
      "Ġtou": 3961,
      "Ġfunctions": 3962,
      "rief": 3963,
      "enn": 3964,
      "Ġcred": 3965,
      "Ġfight": 3966,
      "ĠMet": 3967,
      "Ġrace": 3968,
      "ĠAcademy": 3969,
      "Ġaband": 3970,
      "Ġflour": 3971,
      "iplom": 3972,
      "rich": 3973,
      "Ġsie": 3974,
      "aste": 3975,
      "32": 3976,
      "Ġorn": 3977,
      "odes": 3978,
      "Ġtravell": 3979,
      "Ġafford": 3980,
      "ographical": 3981,
      "Ġrespectively": 3982,
      "Ġwild": 3983,
      "Ġinvent": 3984,
      "Ġserious": 3985,
      "ĠCentral": 3986,
      "ris": 3987,
      "Ġnormal": 3988,
      "ĠScottish": 3989,
      "Ġcastle": 3990,
      "Ġneighbourhood": 3991,
      "Ġshape": 3992,
      "Ġgame": 3993,
      "ĠAbout": 3994,
      "Ġdiscip": 3995,
      "Ġseparated": 3996,
      "water": 3997,
      "Ġaid": 3998,
      "ĠLy": 3999,
      "Ġpope": 4000,
      "Ġrepla": 4001,
      "sequent": 4002,
      "Ġacquired": 4003,
      "ĠQueen": 4004,
      "Ġreally": 4005,
      "In": 4006,
      "ĠMos": 4007,
      "Ġadmitted": 4008,
      "Ġfinal": 4009,
      "Ġchemical": 4010,
      "67": 4011,
      "Ġgreen": 4012,
      "owed": 4013,
      "Ġ1893": 4014,
      "Ġsulphur": 4015,
      "41": 4016,
      "42": 4017,
      "Ġtranslated": 4018,
      "Ġexcellent": 4019,
      "ĠBas": 4020,
      "aches": 4021,
      "Ġ1894": 4022,
      "Ġengaged": 4023,
      "Ġharbour": 4024,
      "sc": 4025,
      "Ġcall": 4026,
      "ischen": 4027,
      "92": 4028,
      "day": 4029,
      "Ġbirth": 4030,
      "eder": 4031,
      "Ġball": 4032,
      "ĠSuch": 4033,
      "Ġrising": 4034,
      "Ġjoint": 4035,
      "Ġwealth": 4036,
      "Ġcold": 4037,
      "Ġsubstance": 4038,
      "Ġapparently": 4039,
      "Ġcompan": 4040,
      "Ġplayed": 4041,
      "Ġ167": 4042,
      "Ġbreak": 4043,
      "Ġfish": 4044,
      "Ġsyn": 4045,
      "Ġdead": 4046,
      "Ġfeel": 4047,
      "ĠAustral": 4048,
      "Ġatmosp": 4049,
      "ibly": 4050,
      "Ġexamples": 4051,
      "Ġtendency": 4052,
      "Îº": 4053,
      "asc": 4054,
      "ilst": 4055,
      "Ġconclus": 4056,
      "Ġchamber": 4057,
      "....": 4058,
      "Ġcopper": 4059,
      "Ġadapt": 4060,
      "ĠAlb": 4061,
      "rees": 4062,
      "Ġfrag": 4063,
      "ĠLes": 4064,
      "Ġspace": 4065,
      "Ġhospital": 4066,
      "Ġfully": 4067,
      "Ġ1889": 4068,
      "Ġfert": 4069,
      "ĠThat": 4070,
      "Ġestim": 4071,
      "Ġhighly": 4072,
      "ĠEdin": 4073,
      "Ġbenef": 4074,
      "rm": 4075,
      "rates": 4076,
      "iled": 4077,
      "ains": 4078,
      "Ġmaintain": 4079,
      "Ġorganization": 4080,
      "Ġpoetry": 4081,
      "oes": 4082,
      "ĠGreen": 4083,
      "Ġenemy": 4084,
      "Ġdefence": 4085,
      "ĠÂ§": 4086,
      "Ġfreed": 4087,
      "Î¿ÏĤ": 4088,
      "ĠCape": 4089,
      "Ġrelief": 4090,
      "Ġ1888": 4091,
      "isher": 4092,
      "Ġdischar": 4093,
      "Ġ150": 4094,
      "vin": 4095,
      "ĦĶ": 4096,
      "erted": 4097,
      "Ġquestions": 4098,
      "Ġdirectly": 4099,
      "St": 4100,
      "Ġly": 4101,
      "Ġinit": 4102,
      "ulations": 4103,
      "Ġcareer": 4104,
      "ola": 4105,
      "ama": 4106,
      "Ġfacts": 4107,
      "Ġoperations": 4108,
      "pected": 4109,
      "Ġquality": 4110,
      "Ġlabour": 4111,
      "Ġcompletely": 4112,
      "inate": 4113,
      "Ġlake": 4114,
      "opes": 4115,
      "Ġdiscovery": 4116,
      "Ġprominent": 4117,
      "ĠPersia": 4118,
      "Ġnerv": 4119,
      "Ġlearn": 4120,
      "ĠUniversity": 4121,
      "imens": 4122,
      "Ġrain": 4123,
      "Ġexperience": 4124,
      "Ġfriends": 4125,
      "ĠThough": 4126,
      "31": 4127,
      "Ġsaw": 4128,
      "Ġdisappe": 4129,
      "ĠGeschichte": 4130,
      "ora": 4131,
      "Ġhus": 4132,
      "ĠGal": 4133,
      "Ġreferred": 4134,
      "tt": 4135,
      "Ġreputation": 4136,
      "ĠLiber": 4137,
      "Ġsound": 4138,
      "orus": 4139,
      "Ġchosen": 4140,
      "Ġapplication": 4141,
      "ĠHall": 4142,
      "Ġsubsequent": 4143,
      "Ġfoundation": 4144,
      "Ġbroken": 4145,
      "Ġpresented": 4146,
      "Ġexisting": 4147,
      "off": 4148,
      "pir": 4149,
      "Ġcells": 4150,
      "Ġforward": 4151,
      "aph": 4152,
      "amental": 4153,
      "Ġinstitutions": 4154,
      "iture": 4155,
      "Ġ45": 4156,
      "Ġenjoy": 4157,
      "inct": 4158,
      "law": 4159,
      "ĠâĦĶ": 4160,
      "Ġpalace": 4161,
      "gu": 4162,
      "Ġforced": 4163,
      "ĠGi": 4164,
      "acific": 4165,
      "ommed": 4166,
      "ournal": 4167,
      "Ġwant": 4168,
      "ĠCity": 4169,
      "ĠCons": 4170,
      "ĠMus": 4171,
      "mann": 4172,
      "Ġpieces": 4173,
      "Ġmakes": 4174,
      "Ġdr": 4175,
      "Ġretained": 4176,
      "Ġprobable": 4177,
      "Ġadvance": 4178,
      "ĠCambridge": 4179,
      "ĠProtestant": 4180,
      "antry": 4181,
      "Ġportra": 4182,
      "Ġpermanent": 4183,
      "Ġmunicipal": 4184,
      "cles": 4185,
      "Ġoffered": 4186,
      "Ġ1887": 4187,
      "Ġadvanced": 4188,
      "Ġwine": 4189,
      "ĠJud": 4190,
      "ĠÎµ": 4191,
      "Ġflat": 4192,
      "ĠEdinburgh": 4193,
      "86": 4194,
      "ule": 4195,
      "Ġrespons": 4196,
      "cher": 4197,
      "Ġpasses": 4198,
      "49": 4199,
      "uz": 4200,
      "ĠJul": 4201,
      "iver": 4202,
      "Ġbegun": 4203,
      "utenant": 4204,
      "yes": 4205,
      "Ġmov": 4206,
      "Ġdiplom": 4207,
      "enth": 4208,
      "ows": 4209,
      "ĠDem": 4210,
      "Ġ36": 4211,
      "Ġprec": 4212,
      "rence": 4213,
      "Ġstands": 4214,
      "aught": 4215,
      "Ġmerc": 4216,
      "Ġhoriz": 4217,
      "ura": 4218,
      "illing": 4219,
      "Ġvisit": 4220,
      "Ġda": 4221,
      "emn": 4222,
      "ift": 4223,
      "Ġservices": 4224,
      "Ġcertainly": 4225,
      "Ġinscript": 4226,
      "Ġtrees": 4227,
      "Ġideas": 4228,
      "Ġpiece": 4229,
      "Ġliquid": 4230,
      "Ġrendered": 4231,
      "Ġlive": 4232,
      "Ġbell": 4233,
      "Ġvast": 4234,
      "rance": 4235,
      "Ġorganized": 4236,
      "Ġvel": 4237,
      "Ġguns": 4238,
      "ulpt": 4239,
      "udes": 4240,
      "Ġnob": 4241,
      "Ġsuggest": 4242,
      "ĠMahommed": 4243,
      "bed": 4244,
      "onn": 4245,
      "Ġtwelve": 4246,
      "Ġ1882": 4247,
      "Ġangle": 4248,
      "Ġelsewhere": 4249,
      "ĠEastern": 4250,
      "ĠVi": 4251,
      "Ġgramm": 4252,
      "ĠLand": 4253,
      "ify": 4254,
      "Ġcircle": 4255,
      "Ġfat": 4256,
      "Ġhapp": 4257,
      "Ġunknown": 4258,
      "Ġ1881": 4259,
      "ĠGreece": 4260,
      "Ġmerch": 4261,
      "ĠNic": 4262,
      "Ġlect": 4263,
      "Ġsovereign": 4264,
      "from": 4265,
      "kes": 4266,
      "Ġtons": 4267,
      "Ġcanal": 4268,
      "Ġ1884": 4269,
      "Ġuseful": 4270,
      "Ġexpressed": 4271,
      "ĠCompany": 4272,
      "Ġlove": 4273,
      "rap": 4274,
      "Ġabol": 4275,
      "ĠReform": 4276,
      "Ġdescrib": 4277,
      "Ġmaterials": 4278,
      "mark": 4279,
      "atre": 4280,
      "Ġprofession": 4281,
      "Ġveget": 4282,
      "iced": 4283,
      "range": 4284,
      "Ġelection": 4285,
      "annel": 4286,
      "ĠPope": 4287,
      "Ġthrone": 4288,
      "89": 4289,
      "ste": 4290,
      "chester": 4291,
      "Ġ1909": 4292,
      "ĠSchool": 4293,
      "Ġcombined": 4294,
      "Ġfeatures": 4295,
      "Ġabsence": 4296,
      "Ġinformation": 4297,
      "gent": 4298,
      "ening": 4299,
      "Ġdia": 4300,
      "ĠDan": 4301,
      "Ġarranged": 4302,
      "pro": 4303,
      "Ġmuseum": 4304,
      "Ġhardly": 4305,
      "Ġsacrif": 4306,
      "Ġinternal": 4307,
      "Ġstated": 4308,
      "Ġwidely": 4309,
      "Ġhelp": 4310,
      "ker": 4311,
      "Ġdecided": 4312,
      "Ġflo": 4313,
      "Ġconfir": 4314,
      "Ġdetails": 4315,
      "Ġnaturally": 4316,
      "84": 4317,
      "hold": 4318,
      "irs": 4319,
      "ylv": 4320,
      "point": 4321,
      "Ġhyp": 4322,
      "ĠLet": 4323,
      "Ġresidence": 4324,
      "aux": 4325,
      "orous": 4326,
      "Ġparties": 4327,
      "Ġregions": 4328,
      "enc": 4329,
      "Ġmel": 4330,
      "}+": 4331,
      "Ġmoral": 4332,
      "Ġ165": 4333,
      "ĠProf": 4334,
      "cope": 4335,
      "Ġoperation": 4336,
      "bar": 4337,
      "Ġmale": 4338,
      "Ġattacked": 4339,
      "Ġessential": 4340,
      "Ġleaving": 4341,
      "Ġestablishment": 4342,
      "Ġheart": 4343,
      "ĠWestern": 4344,
      "Ġbishops": 4345,
      "Ġclergy": 4346,
      "Ġq": 4347,
      "eles": 4348,
      "Ġblue": 4349,
      "Ġfuture": 4350,
      "right": 4351,
      "wood": 4352,
      "enes": 4353,
      "pet": 4354,
      "ĠHung": 4355,
      "Ġexcess": 4356,
      "Ġinterests": 4357,
      "Ġrules": 4358,
      "Ġtiss": 4359,
      "apan": 4360,
      "Ġconfined": 4361,
      "Ġcens": 4362,
      "Ġ1886": 4363,
      "Ġmonaster": 4364,
      "Ġmathem": 4365,
      "Ġdam": 4366,
      "ĠBlack": 4367,
      "Ġbehind": 4368,
      "ĠFlore": 4369,
      "Ġmort": 4370,
      "Ġthorough": 4371,
      "rael": 4372,
      "ĠNorm": 4373,
      "Ġlegend": 4374,
      "Ġpatri": 4375,
      "Ġsuggested": 4376,
      "ĠHigh": 4377,
      "Ġkilled": 4378,
      "inese": 4379,
      "Ġskin": 4380,
      "eal": 4381,
      "Ġwon": 4382,
      "Ġparent": 4383,
      "Ġotherwise": 4384,
      "izes": 4385,
      "chen": 4386,
      "part": 4387,
      "Ġsecured": 4388,
      "Ġdraw": 4389,
      "}\\": 4390,
      "Ġrailways": 4391,
      "Ġmeasures": 4392,
      "rig": 4393,
      "Ġstriking": 4394,
      "Ġvirt": 4395,
      "Ġwholly": 4396,
      "orum": 4397,
      "Ġrecon": 4398,
      "leys": 4399,
      "ilities": 4400,
      "Ġintended": 4401,
      "Ġunless": 4402,
      "Ġ1883": 4403,
      "Ġphenomen": 4404,
      "Ġlimit": 4405,
      "Ġphysical": 4406,
      "Ġdebt": 4407,
      "mar": 4408,
      "ching": 4409,
      "Ġstim": 4410,
      "llor": 4411,
      "Ġcool": 4412,
      "Ġ1876": 4413,
      "gra": 4414,
      "Ġwhilst": 4415,
      "ĠBab": 4416,
      "Ġencl": 4417,
      "Ġdepth": 4418,
      "ixture": 4419,
      "cean": 4420,
      "etic": 4421,
      "ĠRevolution": 4422,
      "Ġcrystall": 4423,
      "Ġthirty": 4424,
      "Ġcompet": 4425,
      "Ġtechn": 4426,
      "Ġevents": 4427,
      "Ġoccasionally": 4428,
      "rol": 4429,
      "acks": 4430,
      "illiant": 4431,
      "greg": 4432,
      "enced": 4433,
      "rog": 4434,
      "Ġpoem": 4435,
      "Ġdesp": 4436,
      "ĠAlthough": 4437,
      "Ġclassical": 4438,
      "Ġstars": 4439,
      "Ġopening": 4440,
      "Ġjustice": 4441,
      "ĠSoc": 4442,
      "Ġvictory": 4443,
      "Ġhusband": 4444,
      "uke": 4445,
      "Ġ(âĢľ": 4446,
      "ĠPacific": 4447,
      "Ġexclus": 4448,
      "Ġagricultural": 4449,
      "Ġwitness": 4450,
      "93": 4451,
      "Ġcy": 4452,
      "aled": 4453,
      "ella": 4454,
      "Ġdeposits": 4455,
      "kal": 4456,
      "Ġdivine": 4457,
      "Ġassumed": 4458,
      "Ġpurch": 4459,
      "Ġpublication": 4460,
      "Ġexperiment": 4461,
      "Ġcontrovers": 4462,
      "Ġvig": 4463,
      "ieval": 4464,
      "Ġsculpt": 4465,
      "Ġbelieved": 4466,
      "Ġcand": 4467,
      "Ġbear": 4468,
      "Ġbrilliant": 4469,
      "arther": 4470,
      "Ġfleet": 4471,
      "ike": 4472,
      "adel": 4473,
      "ĠEr": 4474,
      "Ġminor": 4475,
      "Ġdiame": 4476,
      "Ġdescription": 4477,
      "path": 4478,
      "Ġswe": 4479,
      "Ġshell": 4480,
      "Ġverse": 4481,
      "Ġmanufactures": 4482,
      "ante": 4483,
      "Ġapart": 4484,
      "Ġabsor": 4485,
      "Ġfer": 4486,
      "ĠFin": 4487,
      "Ġeditions": 4488,
      "Ġlimits": 4489,
      "Ġextraord": 4490,
      "ĠTest": 4491,
      "Ġaltern": 4492,
      "Ġteacher": 4493,
      "ĠConstantin": 4494,
      "Ġans": 4495,
      "Ġshowing": 4496,
      "ĠStreet": 4497,
      "ala": 4498,
      "Ġhol": 4499,
      "istics": 4500,
      "ĠDavid": 4501,
      "erent": 4502,
      "Ġundert": 4503,
      "Ġprocesses": 4504,
      "Ġcitizens": 4505,
      "Ġdie": 4506,
      "ading": 4507,
      "ĠNational": 4508,
      "Ġmostly": 4509,
      "Ġportions": 4510,
      "Ġleader": 4511,
      "Ġissue": 4512,
      "Ġsugar": 4513,
      "ĠDer": 4514,
      "Ġ155": 4515,
      "Ġconcent": 4516,
      "77": 4517,
      "Ġbad": 4518,
      "Ġneut": 4519,
      "Ġopposed": 4520,
      "Ġdro": 4521,
      "irst": 4522,
      "ortun": 4523,
      "Ġcontact": 4524,
      "iscop": 4525,
      "Ġincorporated": 4526,
      "Ġhall": 4527,
      "Ġcompr": 4528,
      "Ġesc": 4529,
      "Ġsymb": 4530,
      "ĠSmith": 4531,
      "asure": 4532,
      "Ġsud": 4533,
      "essor": 4534,
      "ĠKar": 4535,
      "Ġestates": 4536,
      "Ġefforts": 4537,
      "cluded": 4538,
      "Ġregards": 4539,
      "ĠCont": 4540,
      "enses": 4541,
      "Ġeffected": 4542,
      "Ġgar": 4543,
      "ĠMich": 4544,
      "ounding": 4545,
      "82": 4546,
      "da": 4547,
      "equ": 4548,
      "Ġconce": 4549,
      "Ġcloth": 4550,
      "Ġincreasing": 4551,
      "Ġreadily": 4552,
      "ĠJacob": 4553,
      "Ġstruggle": 4554,
      "Ġprimitive": 4555,
      "Ġfailed": 4556,
      "rose": 4557,
      "olf": 4558,
      "ĠBen": 4559,
      "ifications": 4560,
      "Ġboundary": 4561,
      "ĠGreeks": 4562,
      "which": 4563,
      "Ġwars": 4564,
      "otion": 4565,
      "Ġcharter": 4566,
      "Ġsecure": 4567,
      "Ġsources": 4568,
      "gans": 4569,
      "ĠPla": 4570,
      "Ġmoder": 4571,
      "ĠUnion": 4572,
      "Ġstrongly": 4573,
      "ares": 4574,
      "ancy": 4575,
      "Ġgard": 4576,
      "Ġgrown": 4577,
      "ĠAthens": 4578,
      "Ġdivisions": 4579,
      "ĠConf": 4580,
      "Ġmal": 4581,
      "Ġretain": 4582,
      "ĠÏĥ": 4583,
      "Ġbecoming": 4584,
      "itute": 4585,
      "Ġnotes": 4586,
      "Ġneither": 4587,
      "elling": 4588,
      "Ġimprison": 4589,
      "Ġsimpl": 4590,
      "Ġmedic": 4591,
      "Ġhorse": 4592,
      "ĠGall": 4593,
      "Ġ1848": 4594,
      "ĠFr": 4595,
      "Ġouter": 4596,
      "ĠÎ´": 4597,
      "Ġphosph": 4598,
      "Ġperiods": 4599,
      "Ġproposed": 4600,
      "ĠConstantinople": 4601,
      "ĠSic": 4602,
      "Ġobservations": 4603,
      "Ġhours": 4604,
      "ĠDen": 4605,
      "ĠNat": 4606,
      "Ġcompelled": 4607,
      "Ġwhence": 4608,
      "Ġequally": 4609,
      "Ġparliamentary": 4610,
      "ourable": 4611,
      "ĠRepublic": 4612,
      "tes": 4613,
      "ĠVienna": 4614,
      "Ġobv": 4615,
      "Ġmonth": 4616,
      "Ġleave": 4617,
      "1905": 4618,
      "ĠÏĦ": 4619,
      "ĠHolland": 4620,
      "Ġtransferred": 4621,
      "83": 4622,
      "Ġ}": 4623,
      "quar": 4624,
      "ĠReg": 4625,
      "Ġeffects": 4626,
      "Ġmeeting": 4627,
      "Ġbeds": 4628,
      "itch": 4629,
      "ĠSince": 4630,
      "Ġpriest": 4631,
      "bey": 4632,
      "Ġleaders": 4633,
      "Ġappointment": 4634,
      "Ġmachine": 4635,
      "itting": 4636,
      "imed": 4637,
      "ĠMel": 4638,
      "Ġshore": 4639,
      "Ġunion": 4640,
      "Ġgran": 4641,
      "Ġcomes": 4642,
      "Ġcolony": 4643,
      "Ġsurrounded": 4644,
      "ĠChinese": 4645,
      "ĠArm": 4646,
      "Ġaffected": 4647,
      "ĠWhile": 4648,
      "ĠTurkish": 4649,
      "athe": 4650,
      "othe": 4651,
      "Ġclosed": 4652,
      "xx": 4653,
      "Ġsav": 4654,
      "Ġhabit": 4655,
      "lend": 4656,
      "ĠServ": 4657,
      "ĠCourt": 4658,
      "estic": 4659,
      "ulum": 4660,
      "Ġcanon": 4661,
      "Ġ1874": 4662,
      "Ġtraining": 4663,
      "Ġfourth": 4664,
      "ropol": 4665,
      "oirs": 4666,
      "house": 4667,
      "ĠBre": 4668,
      "Ġattain": 4669,
      "ĠEs": 4670,
      "acco": 4671,
      "iana": 4672,
      "iph": 4673,
      "ois": 4674,
      "Ġsight": 4675,
      "Ġcontract": 4676,
      "insula": 4677,
      "standing": 4678,
      "uated": 4679,
      "Ġpric": 4680,
      "oston": 4681,
      "ĠRomans": 4682,
      "ĠMex": 4683,
      "Ġmultip": 4684,
      "Ġsudden": 4685,
      "Ġthous": 4686,
      "ĠHow": 4687,
      "Ġfeature": 4688,
      "Ġpreviously": 4689,
      "Ġsought": 4690,
      "oln": 4691,
      "ĠBibli": 4692,
      "Ġstock": 4693,
      "Ġ80": 4694,
      "Ġcontinu": 4695,
      "Ġdriven": 4696,
      "ederal": 4697,
      "aken": 4698,
      "Ġaccord": 4699,
      "Ġvolunt": 4700,
      "Ġsuccessor": 4701,
      "Ġresistance": 4702,
      "Ġfilled": 4703,
      "ĠHell": 4704,
      "Ġretired": 4705,
      "Ġsecondary": 4706,
      "Ġspecific": 4707,
      "Ġpossessed": 4708,
      "Ġbelonged": 4709,
      "Ġfavourite": 4710,
      "coh": 4711,
      "eness": 4712,
      "Ġindustries": 4713,
      "76": 4714,
      "91": 4715,
      "Ber": 4716,
      "ĠSur": 4717,
      "orthy": 4718,
      "Ġparish": 4719,
      "regular": 4720,
      "Ġinvestig": 4721,
      "Ġbrief": 4722,
      "Ġinn": 4723,
      "arp": 4724,
      "ĠCivil": 4725,
      "Ġvent": 4726,
      "Ġnote": 4727,
      "ensity": 4728,
      "Ġwithd": 4729,
      "ĠRed": 4730,
      "Ġ1878": 4731,
      "Ġ1868": 4732,
      "Ġvertical": 4733,
      "Ġbott": 4734,
      "ĠChe": 4735,
      "ĠBoth": 4736,
      "Ġclimate": 4737,
      "Ġofficer": 4738,
      "Ġcriticism": 4739,
      "iated": 4740,
      "ratic": 4741,
      "Ġsurre": 4742,
      "Ġ1875": 4743,
      "Ġ1860": 4744,
      "ĠIslands": 4745,
      "Ġsuffered": 4746,
      "Ġmedieval": 4747,
      "Ġprevious": 4748,
      "aus": 4749,
      "Ġfran": 4750,
      "Ġget": 4751,
      "Ġimag": 4752,
      "Ġescape": 4753,
      "ctic": 4754,
      "ĠBern": 4755,
      "Ġruns": 4756,
      "iae": 4757,
      "ĠVol": 4758,
      "Ġactually": 4759,
      "Ġbelief": 4760,
      "Ġguard": 4761,
      "Ġcultivated": 4762,
      "81": 4763,
      "ĠState": 4764,
      "Ġ1877": 4765,
      "Ġdirected": 4766,
      "Ġreceive": 4767,
      "ios": 4768,
      "ersed": 4769,
      "ĠJapan": 4770,
      "ocity": 4771,
      "Ġfirm": 4772,
      "win": 4773,
      "Ġinqu": 4774,
      "Ġreaction": 4775,
      "ĠTheod": 4776,
      "Ġinstruction": 4777,
      "Ġrif": 4778,
      "Ġende": 4779,
      "ĠAtl": 4780,
      "ashington": 4781,
      "byter": 4782,
      "otes": 4783,
      "Ġrepublic": 4784,
      "ĠYe": 4785,
      "Ġsimply": 4786,
      "Ġjudgment": 4787,
      "Ġquarter": 4788,
      "Ġseason": 4789,
      "atever": 4790,
      "Ġhorizont": 4791,
      "\\\\": 4792,
      "ĠBesides": 4793,
      "Ġ1871": 4794,
      "Ġcarrying": 4795,
      "ano": 4796,
      "asons": 4797,
      "ĠCorn": 4798,
      "itic": 4799,
      "Ġfellow": 4800,
      "Ġmaxim": 4801,
      "Ġattained": 4802,
      "atio": 4803,
      "Ġnight": 4804,
      "ĠBi": 4805,
      "Ġviz": 4806,
      "Ġunited": 4807,
      "Ġcommittee": 4808,
      "Ġartific": 4809,
      "Ġirregular": 4810,
      "Ġfelt": 4811,
      "Ġmic": 4812,
      "ĠEv": 4813,
      "uces": 4814,
      "while": 4815,
      "ighth": 4816,
      "Ġunf": 4817,
      "lers": 4818,
      "Ġpos": 4819,
      "Ġ70": 4820,
      "asty": 4821,
      "Ġshare": 4822,
      "Ġconsum": 4823,
      "Ġspecially": 4824,
      "Ġactivity": 4825,
      "Ġmor": 4826,
      "Ġreserv": 4827,
      "Ġcolours": 4828,
      "Ġ166": 4829,
      "Ġminute": 4830,
      "Ġbelongs": 4831,
      "Ġmonarch": 4832,
      "Ġindependence": 4833,
      "Ġfemale": 4834,
      "ĠGar": 4835,
      "ysis": 4836,
      "Ġbron": 4837,
      "ĠGoth": 4838,
      "orical": 4839,
      "ĠRum": 4840,
      "Ġ200": 4841,
      "Ġsubs": 4842,
      "Ġstream": 4843,
      "ylvania": 4844,
      "ault": 4845,
      "Ġcab": 4846,
      "Ġdiameter": 4847,
      "Ġattributed": 4848,
      "Ġvalleys": 4849,
      "Ġ1866": 4850,
      "Ġrequire": 4851,
      "Ġprosper": 4852,
      "Ġstudies": 4853,
      "icular": 4854,
      "Ġtomb": 4855,
      "iling": 4856,
      "Ġvan": 4857,
      "Ġincludes": 4858,
      "Ġtob": 4859,
      "lets": 4860,
      "Ġbearing": 4861,
      "ĠSant": 4862,
      "Ġ32": 4863,
      "Ġtruth": 4864,
      "Ġprovision": 4865,
      "Ġbright": 4866,
      "Ġdifficulties": 4867,
      "Ġprimary": 4868,
      "Ġelevation": 4869,
      "Ġcorrect": 4870,
      "Ġextraordinary": 4871,
      "Ġtower": 4872,
      "Ġlear": 4873,
      "Ġprecip": 4874,
      "Ġexposed": 4875,
      "Ġjudge": 4876,
      "picuous": 4877,
      "hist": 4878,
      "Ġfarther": 4879,
      "Ġexceeding": 4880,
      "Ġ1867": 4881,
      "Ġcaptured": 4882,
      "ĠBelg": 4883,
      "phe": 4884,
      "icate": 4885,
      "ĠHeb": 4886,
      "Ġspr": 4887,
      "Ġenorm": 4888,
      "Ġ1861": 4889,
      "Ġbrown": 4890,
      "Ġteaching": 4891,
      "Ġextremely": 4892,
      "Ġendeav": 4893,
      "zant": 4894,
      "Ġfla": 4895,
      "Ġnone": 4896,
      "ads": 4897,
      "Ġconvention": 4898,
      "Ġcompared": 4899,
      "Ġdisturb": 4900,
      "Ġ1865": 4901,
      "Leipzig": 4902,
      "Ġcell": 4903,
      "ĠPre": 4904,
      "Ġnoted": 4905,
      "Ġ37": 4906,
      "Ġ1850": 4907,
      "Ġnegot": 4908,
      "Ġclearly": 4909,
      "Ġabundant": 4910,
      "asters": 4911,
      "Ġmixed": 4912,
      "Ġnom": 4913,
      "rix": 4914,
      "Ġprinces": 4915,
      "Ġlimest": 4916,
      "Ġburied": 4917,
      "ĠPrussia": 4918,
      "Ġconcerned": 4919,
      "Ġfreedom": 4920,
      "Ġcapacity": 4921,
      "Ġcritical": 4922,
      "Ġwire": 4923,
      "edy": 4924,
      "terior": 4925,
      "ĠRel": 4926,
      "Ġvolcan": 4927,
      "Ġ1879": 4928,
      "Ġblind": 4929,
      "Ġtube": 4930,
      "asm": 4931,
      "ĠGer": 4932,
      "Ġjour": 4933,
      "oks": 4934,
      "incoln": 4935,
      "rant": 4936,
      "aratus": 4937,
      "Ġrh": 4938,
      "Ġcattle": 4939,
      "Ġpul": 4940,
      "ented": 4941,
      "ĠChina": 4942,
      "Ġministry": 4943,
      "Ġrepresentative": 4944,
      "Ġtribe": 4945,
      "Ġcolonies": 4946,
      "ev": 4947,
      "Ġcou": 4948,
      "ĠCoun": 4949,
      "Ġchronic": 4950,
      "Ġimmediate": 4951,
      "Ġrunning": 4952,
      "pus": 4953,
      "Ġice": 4954,
      "Ġplates": 4955,
      "Ġdifferences": 4956,
      "aneous": 4957,
      "Ġtrial": 4958,
      "Ġclaimed": 4959,
      "quarters": 4960,
      "ael": 4961,
      "yth": 4962,
      "Ġgent": 4963,
      "Ġforth": 4964,
      "ashion": 4965,
      "hand": 4966,
      "ked": 4967,
      "Ġtried": 4968,
      "Ġhero": 4969,
      "Ġconj": 4970,
      "Ġstar": 4971,
      "Ġrises": 4972,
      "Ġcontrib": 4973,
      "Ġtribut": 4974,
      "Ġflowers": 4975,
      "Ġrecords": 4976,
      "Ġdog": 4977,
      "ĠBet": 4978,
      "Ġobsc": 4979,
      "Ġpainter": 4980,
      "Ġsiege": 4981,
      "Ġbed": 4982,
      "Ġrect": 4983,
      "ĠBible": 4984,
      "ĠHoly": 4985,
      "Ġtrust": 4986,
      "Ġrevenue": 4987,
      "mond": 4988,
      "reci": 4989,
      "Ġalkal": 4990,
      "Ġremov": 4991,
      "ÆĴ": 4992,
      "ĠCamp": 4993,
      "ody": 4994,
      "Ġsacred": 4995,
      "Ġscholars": 4996,
      "ĠVirginia": 4997,
      "Ġscheme": 4998,
      "oice": 4999,
      "Ġboy": 5000,
      "1890": 5001,
      "Ġrose": 5002,
      "Ġflu": 5003,
      "Ġgrav": 5004,
      "Ġconnect": 5005,
      "Ġneutral": 5006,
      "Ġunit": 5007,
      "Ġ|": 5008,
      "Ġgro": 5009,
      "Ġexternal": 5010,
      "Ġremaining": 5011,
      "Ġvarieties": 5012,
      "Ġuniversal": 5013,
      "Ġinstruments": 5014,
      "Ġscarce": 5015,
      "after": 5016,
      "bl": 5017,
      "vals": 5018,
      "Ġestate": 5019,
      "Ġ1873": 5020,
      "Ġexecuted": 5021,
      "Ġfamilies": 5022,
      "See": 5023,
      "Ġdign": 5024,
      "ĠBu": 5025,
      "Ġstreets": 5026,
      "ĠAustrian": 5027,
      "Ġavail": 5028,
      "Ġplateau": 5029,
      "inth": 5030,
      "ogether": 5031,
      "1906": 5032,
      "uese": 5033,
      "Ġforests": 5034,
      "jection": 5035,
      "Ġnation": 5036,
      "ilian": 5037,
      "using": 5038,
      "ĠLincoln": 5039,
      "agement": 5040,
      "Ġliable": 5041,
      "Ġstatement": 5042,
      "Ġneighbouring": 5043,
      "ĠJews": 5044,
      "Ġexplan": 5045,
      "bered": 5046,
      "ita": 5047,
      "ĠBav": 5048,
      "ĠPap": 5049,
      "ĠThen": 5050,
      "ĠBul": 5051,
      "ander": 5052,
      "Ġrival": 5053,
      "ĠAlbert": 5054,
      "ĠCastle": 5055,
      "},": 5056,
      "organ": 5057,
      "Ġallied": 5058,
      "Ġcontributed": 5059,
      "Ġsupplied": 5060,
      "Ġcondemn": 5061,
      "Ġ1869": 5062,
      "Ġbroke": 5063,
      "Ġextending": 5064,
      "Ġyounger": 5065,
      "ĠJewish": 5066,
      "ĠPet": 5067,
      "ĠEven": 5068,
      "Ġtimber": 5069,
      "sch": 5070,
      "Ġsle": 5071,
      "Ġrough": 5072,
      "Ġthence": 5073,
      "Ġexisted": 5074,
      "Ġruins": 5075,
      "Ġrepeated": 5076,
      "lain": 5077,
      "usalem": 5078,
      "viii": 5079,
      "ĠTri": 5080,
      "ray": 5081,
      "Ġ1864": 5082,
      "Ġnegro": 5083,
      "Ġnavy": 5084,
      "Ġexecution": 5085,
      "born": 5086,
      "Ġach": 5087,
      "Ġcord": 5088,
      "Ġmyst": 5089,
      "Ġmixture": 5090,
      "ucle": 5091,
      "Ġcapable": 5092,
      "Ġcurious": 5093,
      "Ġcommunity": 5094,
      "rous": 5095,
      "Ġfought": 5096,
      "Ġchanged": 5097,
      "ranean": 5098,
      "Ġapprox": 5099,
      "Ġpurely": 5100,
      "fall": 5101,
      "Ġmut": 5102,
      "Ġquick": 5103,
      "Ġcustoms": 5104,
      "Ġfast": 5105,
      "ĠCy": 5106,
      "ĠMss": 5107,
      "ĠPark": 5108,
      "Ġcombination": 5109,
      "Ġcontemporary": 5110,
      "Ġestimated": 5111,
      "oud": 5112,
      "Ġconspicuous": 5113,
      "Ġvaries": 5114,
      "Ġcollections": 5115,
      "Ġstreams": 5116,
      "ĠMun": 5117,
      "Ġinher": 5118,
      "Ġincl": 5119,
      "Ġsex": 5120,
      "Ġtermed": 5121,
      "Ġstood": 5122,
      "Ġenab": 5123,
      "Ġnatives": 5124,
      "ĠPortuguese": 5125,
      "Ġfal": 5126,
      "Ġprol": 5127,
      "Ġprose": 5128,
      "Ġarbit": 5129,
      "ĠChristianity": 5130,
      "Ġnavig": 5131,
      "Ġtobacco": 5132,
      "isp": 5133,
      "lection": 5134,
      "opher": 5135,
      "Ġ1872": 5136,
      "Ġsuccessive": 5137,
      "}}_{": 5138,
      "olk": 5139,
      "erson": 5140,
      "Ġatmosphere": 5141,
      "ĠSen": 5142,
      "ĠMur": 5143,
      "Ġdecre": 5144,
      "Ġsystems": 5145,
      "Ġnaval": 5146,
      "Ġconquest": 5147,
      "Ġpunish": 5148,
      "Ġmines": 5149,
      "ĠSav": 5150,
      "ĠBro": 5151,
      "ĠArist": 5152,
      "Ġattempts": 5153,
      "Ġabandoned": 5154,
      "com": 5155,
      "rong": 5156,
      "Ġbal": 5157,
      "ims": 5158,
      "ĠHel": 5159,
      "ĠNav": 5160,
      "Ġscrew": 5161,
      "Ġends": 5162,
      "Ġequival": 5163,
      "Ġlieutenant": 5164,
      "ught": 5165,
      "Ġpair": 5166,
      "Ġmid": 5167,
      "ounted": 5168,
      "ĠUpper": 5169,
      "Ġspeech": 5170,
      "Ġpapers": 5171,
      "Ġmathemat": 5172,
      "Ġinner": 5173,
      "Ġhill": 5174,
      "iminal": 5175,
      "Ġorgans": 5176,
      "Ġcollect": 5177,
      "Ġdrawing": 5178,
      "Ġexperiments": 5179,
      "Ġultimately": 5180,
      "Ġ1000": 5181,
      "ĠColon": 5182,
      "Ġexercised": 5183,
      "Ġelaborate": 5184,
      "ĠCouncil": 5185,
      "Ġsister": 5186,
      "Ġmir": 5187,
      "ailing": 5188,
      "ussel": 5189,
      "ĠGovern": 5190,
      "Ġrelative": 5191,
      "Ġ1862": 5192,
      "Ġmiles": 5193,
      "akespe": 5194,
      "oa": 5195,
      "itals": 5196,
      "alty": 5197,
      "asp": 5198,
      "Ġconception": 5199,
      "Ġalcoh": 5200,
      "ellig": 5201,
      "Ġ1857": 5202,
      "Ġceremon": 5203,
      "72": 5204,
      "Ġow": 5205,
      "Ġbread": 5206,
      "Ġpy": 5207,
      "ĠPrussian": 5208,
      "ĠVictoria": 5209,
      "Ġchancellor": 5210,
      "ĠHebrew": 5211,
      "uber": 5212,
      "ĠSar": 5213,
      "ĠSou": 5214,
      "ĠStud": 5215,
      "Ġskill": 5216,
      "Ġoblig": 5217,
      "Ġproblem": 5218,
      "Ġbill": 5219,
      "Ġeth": 5220,
      "change": 5221,
      "Ġsuitable": 5222,
      "Ġengra": 5223,
      "Ġsoldiers": 5224,
      "ĠBohemia": 5225,
      "ka": 5226,
      "Ġens": 5227,
      "Ġtheology": 5228,
      "iry": 5229,
      "ulus": 5230,
      "ĠMountain": 5231,
      "place": 5232,
      "cest": 5233,
      "Ġnomin": 5234,
      "Ġconvers": 5235,
      "ĠWel": 5236,
      "ĠOh": 5237,
      "Ġresigned": 5238,
      "Ġentrance": 5239,
      "Ġrepresents": 5240,
      "Ġeasy": 5241,
      "ĠByzant": 5242,
      "Ġaround": 5243,
      "Ġ33": 5244,
      "Ġapparatus": 5245,
      "Ġgrowing": 5246,
      "Ġdealing": 5247,
      "Ġbottom": 5248,
      "onym": 5249,
      "Ġfalls": 5250,
      "Ġles": 5251,
      "ĠSil": 5252,
      "ĠMod": 5253,
      "ĠWork": 5254,
      "ĠIndians": 5255,
      "Ġinvolved": 5256,
      "pie": 5257,
      "Ġpend": 5258,
      "Ġforb": 5259,
      "ĠFort": 5260,
      "uble": 5261,
      "ĠShakespe": 5262,
      "Ġinstitution": 5263,
      "ĠJerusalem": 5264,
      "oon": 5265,
      "ĠÏĨ": 5266,
      "ĠBaron": 5267,
      "ĠProfessor": 5268,
      "78": 5269,
      "ties": 5270,
      "inery": 5271,
      "Ġbes": 5272,
      "orter": 5273,
      "Ġdil": 5274,
      "Ġroot": 5275,
      "Ġlegislation": 5276,
      "ĠHind": 5277,
      "ocal": 5278,
      "Ġreprod": 5279,
      "ĠAthen": 5280,
      "Ġpicture": 5281,
      "itated": 5282,
      "Ġduc": 5283,
      "ĠPass": 5284,
      "ĠLong": 5285,
      "Ġcomment": 5286,
      "ometer": 5287,
      "Ġvalues": 5288,
      "Ġpatron": 5289,
      "ĠFlorence": 5290,
      "ĠTestament": 5291,
      "New": 5292,
      "sen": 5293,
      "sex": 5294,
      "Ġstop": 5295,
      "umph": 5296,
      "ĠLit": 5297,
      "ĠViii": 5298,
      "hus": 5299,
      "kin": 5300,
      "enburg": 5301,
      "Ġcru": 5302,
      "Ġreach": 5303,
      "that": 5304,
      "ĠWy": 5305,
      "Ġrig": 5306,
      "Ġaccess": 5307,
      "Ġoffices": 5308,
      "ĠFore": 5309,
      "oper": 5310,
      "Ġring": 5311,
      "Ġarrest": 5312,
      "oken": 5313,
      "Ġspect": 5314,
      "Ġcharacters": 5315,
      "Ġemployment": 5316,
      "ĠAfrican": 5317,
      "Ġstraight": 5318,
      "gue": 5319,
      "ĠOff": 5320,
      "ternational": 5321,
      "Ġ1851": 5322,
      "Ġrepresentatives": 5323,
      "Ġslightly": 5324,
      "Ġrarely": 5325,
      "lim": 5326,
      "tion": 5327,
      "add": 5328,
      "Ġranges": 5329,
      "Ġinferior": 5330,
      "Ġrecorded": 5331,
      "iciently": 5332,
      "wich": 5333,
      "ador": 5334,
      "ourse": 5335,
      "Ġenfor": 5336,
      "Ġadvoc": 5337,
      "ĠEarly": 5338,
      "Î³": 5339,
      "ements": 5340,
      "175": 5341,
      "Ġserve": 5342,
      "Ġcrus": 5343,
      "Ġmasses": 5344,
      "Ġsupreme": 5345,
      "Ġpossibly": 5346,
      "Ġ1840": 5347,
      "minster": 5348,
      "Ġfeeling": 5349,
      "Ġeyes": 5350,
      "ĠSlav": 5351,
      "ĠBon": 5352,
      "ourage": 5353,
      "Ġteles": 5354,
      "Ġstones": 5355,
      "Ġproperly": 5356,
      "Ġhorizontal": 5357,
      ",\"": 5358,
      "agn": 5359,
      "Ġacted": 5360,
      "Ġbanks": 5361,
      "Ġfil": 5362,
      "Ġstret": 5363,
      "ĠSec": 5364,
      "Ġcorpor": 5365,
      "ĠKingdom": 5366,
      "gram": 5367,
      "Ġrender": 5368,
      "ĠHill": 5369,
      "udd": 5370,
      "Ġnoble": 5371,
      "Ġenlar": 5372,
      "Ġassigned": 5373,
      "Ġbeauty": 5374,
      "Ġfairly": 5375,
      "ĠAtlantic": 5376,
      "ĠNov": 5377,
      "Ġvelocity": 5378,
      "ume": 5379,
      "Ġdistribution": 5380,
      "Ġmedical": 5381,
      "Ġdefeat": 5382,
      "dinand": 5383,
      "ĠBol": 5384,
      "Ġsevent": 5385,
      "aves": 5386,
      "ĠKent": 5387,
      "Ġfinest": 5388,
      "Ġcrossed": 5389,
      "icated": 5390,
      "Ġthread": 5391,
      "umer": 5392,
      "acon": 5393,
      "Ġquart": 5394,
      "Ġextends": 5395,
      "Ġclaims": 5396,
      "ĠRhine": 5397,
      "Ġdomestic": 5398,
      "Ġlearned": 5399,
      "then": 5400,
      "Ġlying": 5401,
      "ato": 5402,
      "ellect": 5403,
      "ĠGrand": 5404,
      "ierre": 5405,
      "Ġpolitics": 5406,
      "Ġharmon": 5407,
      "Ġexamination": 5408,
      "ĠVenice": 5409,
      "Ġvarying": 5410,
      "under": 5411,
      "ĠApp": 5412,
      "Ġvac": 5413,
      "Ġsubd": 5414,
      "isms": 5415,
      "Ġ1858": 5416,
      "Ġnecessarily": 5417,
      "zen": 5418,
      "Ġtheore": 5419,
      "ĠCe": 5420,
      "Ġcentres": 5421,
      "Ġmonument": 5422,
      "Ġconsiderably": 5423,
      "Ġopportun": 5424,
      "Ġbit": 5425,
      "ĠDon": 5426,
      "Ġmanif": 5427,
      "Ġextrem": 5428,
      "Ġindustrial": 5429,
      "Ġpayment": 5430,
      "Ġbore": 5431,
      "ĠGen": 5432,
      "Ġprove": 5433,
      "ĠOri": 5434,
      "Ġacting": 5435,
      "Ġxxx": 5436,
      "Ġeldest": 5437,
      "Ġarose": 5438,
      "Ġmoved": 5439,
      "Ġconsequently": 5440,
      "ĠLiter": 5441,
      "ĠWashington": 5442,
      "ĠDar": 5443,
      "Ġcounties": 5444,
      "Ġpointed": 5445,
      "Ġcondu": 5446,
      "Ġmovements": 5447,
      "Ġfamiliar": 5448,
      "ĠFerdinand": 5449,
      "Ġastron": 5450,
      "iber": 5451,
      "zi": 5452,
      "Ġreve": 5453,
      "ĠCre": 5454,
      "ĠDi": 5455,
      "athers": 5456,
      "Ġoldest": 5457,
      "Ġdiscover": 5458,
      "Ġpossesses": 5459,
      "Ġtypes": 5460,
      "Ġnine": 5461,
      "âĢĿ),": 5462,
      "Ġ34": 5463,
      "Ġ1863": 5464,
      "Ġgenus": 5465,
      "Ġreplaced": 5466,
      "Ġavailable": 5467,
      "ÏĢ": 5468,
      "ĠSem": 5469,
      "isted": 5470,
      "pped": 5471,
      "Ġplays": 5472,
      "ĠAss": 5473,
      "Ġsituation": 5474,
      "Ġfundamental": 5475,
      "ĠCongress": 5476,
      "Ġsend": 5477,
      "Ġ1830": 5478,
      "Ġnecessity": 5479,
      "Ġstanding": 5480,
      "ĠCapt": 5481,
      "ĠTurks": 5482,
      "71": 5483,
      "ĠAst": 5484,
      "ĠMs": 5485,
      "ĠWor": 5486,
      "anging": 5487,
      "Ġvaried": 5488,
      "Ġmodified": 5489,
      "Ġ1859": 5490,
      "Ġequivalent": 5491,
      "68": 5492,
      "74": 5493,
      "Ġheated": 5494,
      "Ġammon": 5495,
      "Ġcontrast": 5496,
      "500": 5497,
      "four": 5498,
      "inations": 5499,
      "Ġcart": 5500,
      "Ġthing": 5501,
      "Ġtreatise": 5502,
      "Ġfertile": 5503,
      "ĠÃ": 5504,
      "Ġproof": 5505,
      "unn": 5506,
      "ĠKe": 5507,
      "ĠInde": 5508,
      ",-": 5509,
      ".);": 5510,
      "Ġworship": 5511,
      "ĠSol": 5512,
      "ĠLu": 5513,
      "Ġcounter": 5514,
      "Ġcommunication": 5515,
      "Ġpositive": 5516,
      "Ġenormous": 5517,
      "eter": 5518,
      "mir": 5519,
      "Ġdecomp": 5520,
      "Ġcomplex": 5521,
      "Ġstudents": 5522,
      "vii": 5523,
      "ĠSand": 5524,
      "ĠCap": 5525,
      "ĠEt": 5526,
      "ĠWin": 5527,
      "Ġborder": 5528,
      "uther": 5529,
      "umns": 5530,
      "Ġanything": 5531,
      "Ġbridge": 5532,
      "Ġfinan": 5533,
      "ĠWhite": 5534,
      "Ġsingular": 5535,
      "Ġfailure": 5536,
      "79": 5537,
      "Ġho": 5538,
      "Ġhy": 5539,
      "ĠVii": 5540,
      "cedure": 5541,
      "Ġarrived": 5542,
      "Ġfashion": 5543,
      "ulate": 5544,
      "aine": 5545,
      "Ġsoft": 5546,
      "Ġmeant": 5547,
      "Ġheadquarters": 5548,
      "thodox": 5549,
      "Ġholding": 5550,
      "ĠMinor": 5551,
      "ĠAustralia": 5552,
      "Ġwhatever": 5553,
      "ĠHa": 5554,
      "ocratic": 5555,
      "Ġwarm": 5556,
      "Ġspiritual": 5557,
      "Ġmechanical": 5558,
      "Ġassembly": 5559,
      "ĠFur": 5560,
      "aker": 5561,
      "rang": 5562,
      "Ġsole": 5563,
      "Ġreport": 5564,
      "Ġ1855": 5565,
      "ĠIsrael": 5566,
      "Ġdepends": 5567,
      "Ġcement": 5568,
      "ĠHor": 5569,
      "inted": 5570,
      "Ġcontinent": 5571,
      "ĠPrin": 5572,
      "Berlin": 5573,
      "mouth": 5574,
      "aland": 5575,
      "ĠHo": 5576,
      "ĠKn": 5577,
      "Ġdefend": 5578,
      "Ġmachinery": 5579,
      "Ġeconomic": 5580,
      "Ġachie": 5581,
      "Ġtherm": 5582,
      "rea": 5583,
      "Ġbibli": 5584,
      "amin": 5585,
      "ĠMost": 5586,
      "illes": 5587,
      "illery": 5588,
      "ĠJean": 5589,
      "Ġintellect": 5590,
      "Ġimage": 5591,
      "ĠCarol": 5592,
      "know": 5593,
      "Ġaltogether": 5594,
      "Ġconverted": 5595,
      "frac": 5596,
      "Ġisol": 5597,
      "Ġheating": 5598,
      "Ġ55": 5599,
      "Ġprovisions": 5600,
      "Ġministers": 5601,
      "Ġsubstances": 5602,
      "ĠCanada": 5603,
      "phen": 5604,
      "iger": 5605,
      "Ġconve": 5606,
      "Ġcolumns": 5607,
      "Ġdefined": 5608,
      "ĠChristians": 5609,
      "Ġrepresenting": 5610,
      "Ġready": 5611,
      "Ġforty": 5612,
      "una": 5613,
      "Ġcorps": 5614,
      "ungen": 5615,
      "oubted": 5616,
      "Ġcrystals": 5617,
      "enz": 5618,
      "ston": 5619,
      "amph": 5620,
      "emies": 5621,
      "lled": 5622,
      "Ġ1854": 5623,
      "Ġbasin": 5624,
      "ÎµÎ¹": 5625,
      "Ġextension": 5626,
      "Ġhydrogen": 5627,
      "Ġagreement": 5628,
      "don": 5629,
      "Ġtaste": 5630,
      "uting": 5631,
      "ider": 5632,
      "Ġwheat": 5633,
      "ensive": 5634,
      "ultan": 5635,
      "theless": 5636,
      "Ġ1847": 5637,
      "Ġoppon": 5638,
      "Ġcircuit": 5639,
      "ĠWestminster": 5640,
      "Ġsale": 5641,
      "ĠFe": 5642,
      "key": 5643,
      "Ġfeud": 5644,
      "ĠBefore": 5645,
      "Ġexplained": 5646,
      "rh": 5647,
      "Ġlakes": 5648,
      "olas": 5649,
      "Ġinteg": 5650,
      "Ġordered": 5651,
      "Ġinterf": 5652,
      "64": 5653,
      "lict": 5654,
      "erals": 5655,
      "Ġduch": 5656,
      "Ġattracted": 5657,
      "ĠPoly": 5658,
      "Ġscarcely": 5659,
      "Ġneare": 5660,
      "Ġ1852": 5661,
      "Ġsympath": 5662,
      "ĠShakespeare": 5663,
      "itate": 5664,
      "alry": 5665,
      "uration": 5666,
      "ĠGulf": 5667,
      "Ġexha": 5668,
      "aks": 5669,
      "Ġrecomm": 5670,
      "ĠPresbyter": 5671,
      "iate": 5672,
      "Ġtract": 5673,
      "Ġbot": 5674,
      "Ġthreat": 5675,
      "ĠPra": 5676,
      "ĠFa": 5677,
      "Ġsomething": 5678,
      "Ġscene": 5679,
      "Ġgrain": 5680,
      "Ġmonastery": 5681,
      "uals": 5682,
      "Ġsnow": 5683,
      "entially": 5684,
      "Ġinvol": 5685,
      "ĠCaes": 5686,
      "Ġpapal": 5687,
      "Ġversion": 5688,
      "head": 5689,
      "Ġcos": 5690,
      "Ġlin": 5691,
      "ĠCard": 5692,
      "ĠHan": 5693,
      "osis": 5694,
      "oda": 5695,
      "Ġcarefully": 5696,
      "Ġsalts": 5697,
      "Ġimproved": 5698,
      "Ġexercise": 5699,
      "ĠSk": 5700,
      "aments": 5701,
      "eres": 5702,
      "ĠGold": 5703,
      "Ġrub": 5704,
      "ords": 5705,
      "Ġcylinder": 5706,
      "Ġfighting": 5707,
      "Ġgrammar": 5708,
      "ĠBabyl": 5709,
      "level": 5710,
      "ĠSub": 5711,
      "1904": 5712,
      "Ġmedicine": 5713,
      "ĠHellen": 5714,
      "come": 5715,
      "Ġegg": 5716,
      "Ġdesired": 5717,
      "Ġenthus": 5718,
      "Ġinvasion": 5719,
      "Ġseemed": 5720,
      "Ġrotation": 5721,
      "Ġdocuments": 5722,
      "Th": 5723,
      "pop": 5724,
      "Ġ90": 5725,
      "Ġbears": 5726,
      "ĠSer": 5727,
      "Ġones": 5728,
      "osa": 5729,
      "assium": 5730,
      "ĠÎº": 5731,
      "Ġqualities": 5732,
      "Ġdynasty": 5733,
      "iscopal": 5734,
      "Î´": 5735,
      "Ġ1853": 5736,
      "Ġtechnical": 5737,
      "ba": 5738,
      "Ġmist": 5739,
      "iring": 5740,
      "Ġvap": 5741,
      "aven": 5742,
      "phal": 5743,
      "Ġmarks": 5744,
      "Ġtrace": 5745,
      "Ġtree": 5746,
      "ĠCro": 5747,
      "idges": 5748,
      "Ġsheep": 5749,
      "Ġaccounts": 5750,
      "Ġadministrative": 5751,
      "ĠCommons": 5752,
      "Ġartificial": 5753,
      "ĠBishop": 5754,
      "Ġstages": 5755,
      "Ġalter": 5756,
      "Ġexists": 5757,
      "ques": 5758,
      "agon": 5759,
      "Ġtransform": 5760,
      "Ġid": 5761,
      "Ġsy": 5762,
      "ĠTer": 5763,
      "othes": 5764,
      "ĠBa": 5765,
      "ĠBal": 5766,
      "ĠPel": 5767,
      "Ġalliance": 5768,
      "Ġfounder": 5769,
      "Ġbrig": 5770,
      "ropri": 5771,
      "Ġceased": 5772,
      "Ġculture": 5773,
      "Ġprivileges": 5774,
      "Ġways": 5775,
      "ĠSpe": 5776,
      "Ġancest": 5777,
      "ĠGreg": 5778,
      "ĠWater": 5779,
      "Ġpoets": 5780,
      "angel": 5781,
      "Î±Î¹": 5782,
      "Ġgrounds": 5783,
      "Ġmusical": 5784,
      "Ġcultivation": 5785,
      "ĠÆĴ": 5786,
      "Ġsave": 5787,
      "Ġcra": 5788,
      "Ġnerve": 5789,
      "Ġren": 5790,
      "resses": 5791,
      "Ġprincipally": 5792,
      "Ġsodium": 5793,
      "eding": 5794,
      "itudes": 5795,
      "Ġpig": 5796,
      "asant": 5797,
      "Ġspeed": 5798,
      "Ġsecular": 5799,
      "Ġinfantry": 5800,
      "Ġbrick": 5801,
      "Ġthrown": 5802,
      "ĠEach": 5803,
      "Ġshr": 5804,
      "Ġsufficiently": 5805,
      "ĠNaples": 5806,
      "Ġuncertain": 5807,
      "Ġphenomena": 5808,
      "Ġhour": 5809,
      "ĠPart": 5810,
      "Ġrays": 5811,
      "ĠHistoire": 5812,
      "Ġcontroversy": 5813,
      "adelph": 5814,
      "Ġsprings": 5815,
      "Ġgravity": 5816,
      "oli": 5817,
      "ĠFre": 5818,
      "Ġeducational": 5819,
      "ĠAgain": 5820,
      "riv": 5821,
      "Ġunity": 5822,
      "Ġtwice": 5823,
      "Ġamongst": 5824,
      "Ġoccupation": 5825,
      "Ġundoubted": 5826,
      "nsylvania": 5827,
      "Ġfibres": 5828,
      "Ġbatt": 5829,
      "Ġ1845": 5830,
      "Ġlime": 5831,
      "ĠÏī": 5832,
      "Ġeffective": 5833,
      "Ġprovincial": 5834,
      "Ġsurrounding": 5835,
      "stood": 5836,
      "ĠLim": 5837,
      "Ġdecor": 5838,
      "Ġsignific": 5839,
      "Ġmagnific": 5840,
      "inage": 5841,
      "ĠCur": 5842,
      "Ġdemon": 5843,
      "ĠFirst": 5844,
      "Ġadvent": 5845,
      "Ġoxy": 5846,
      "Ġenabled": 5847,
      "Ġthrow": 5848,
      "utive": 5849,
      "ĠBurg": 5850,
      "ĠLuc": 5851,
      "Ġwheel": 5852,
      "Ġ300": 5853,
      "Ġcomplic": 5854,
      "Ġappreci": 5855,
      "ĠAssoci": 5856,
      "Ġverte": 5857,
      "ĠBook": 5858,
      "Ġessentially": 5859,
      "Ġtypical": 5860,
      "Ġconclusion": 5861,
      "anian": 5862,
      "ules": 5863,
      "ette": 5864,
      "Ġprohib": 5865,
      "Ġhair": 5866,
      "Ġmanus": 5867,
      "ĠStra": 5868,
      "Ġenact": 5869,
      "Ġmining": 5870,
      "Ġblock": 5871,
      "ĠPeters": 5872,
      "ĠEgyptian": 5873,
      "Ġcompanies": 5874,
      "ĠLower": 5875,
      "ongs": 5876,
      "Ġtraces": 5877,
      "Ġpattern": 5878,
      "Ġcommander": 5879,
      "itzer": 5880,
      "Ġelder": 5881,
      "iations": 5882,
      "Ġfest": 5883,
      "ĠUr": 5884,
      "Ġdefin": 5885,
      "Ġpainted": 5886,
      "Ġdegrees": 5887,
      "Ġchloride": 5888,
      "Ġpronounced": 5889,
      "ulating": 5890,
      "unk": 5891,
      "actory": 5892,
      "Ġspoken": 5893,
      "Ġcharged": 5894,
      "Ġ1849": 5895,
      "Ġflows": 5896,
      "61": 5897,
      "leans": 5898,
      "ĠCop": 5899,
      "erences": 5900,
      "iah": 5901,
      "ĠAssembly": 5902,
      "Ġlikely": 5903,
      "Ġheads": 5904,
      "Ġacids": 5905,
      "Ġattempted": 5906,
      "Ġfragments": 5907,
      "ĠEss": 5908,
      "Ġchain": 5909,
      "Ġunsu": 5910,
      "Ġcolumn": 5911,
      "Ġ120": 5912,
      "Ġsoldier": 5913,
      "Ġmaximum": 5914,
      "Ġbronze": 5915,
      "Ġinse": 5916,
      "Ġrele": 5917,
      "ldots": 5918,
      "Ġinterval": 5919,
      "ĠMean": 5920,
      "ĠBoard": 5921,
      "Ġcriminal": 5922,
      "Ġoxid": 5923,
      "ĠPennsylvania": 5924,
      "Ġconducted": 5925,
      "hyd": 5926,
      "Ġrenew": 5927,
      "ĠCle": 5928,
      "ĠInt": 5929,
      "Ġstorm": 5930,
      "Ġannex": 5931,
      "Ġliberty": 5932,
      "Ġpupil": 5933,
      "63": 5934,
      "69": 5935,
      "Ġwoman": 5936,
      "Ġdealt": 5937,
      "ump": 5938,
      "Ġrefuge": 5939,
      "Ġ1856": 5940,
      "Ġprocedure": 5941,
      "irect": 5942,
      "Ġpractised": 5943,
      "Ġconvenient": 5944,
      "Ġtort": 5945,
      "Ġsort": 5946,
      "Ġped": 5947,
      "Ġhem": 5948,
      "ĠKir": 5949,
      "Ġoccurred": 5950,
      "iterranean": 5951,
      "Ġdanger": 5952,
      "Ġresponsible": 5953,
      "Ġcant": 5954,
      "Ġinvention": 5955,
      "Ġvoy": 5956,
      "ĠDom": 5957,
      "ĠJournal": 5958,
      "Ġprem": 5959,
      "Ġdeput": 5960,
      "Ġautumn": 5961,
      "Ġhab": 5962,
      "Ġlack": 5963,
      "Ġris": 5964,
      "Ġrow": 5965,
      "aeus": 5966,
      "Ġtravers": 5967,
      "Ġtraced": 5968,
      "Ġsigned": 5969,
      "urban": 5970,
      "Ġassistance": 5971,
      "ĠCatal": 5972,
      "Ġnervous": 5973,
      "})": 5974,
      "avia": 5975,
      "Ġmemory": 5976,
      "Ġ1837": 5977,
      "Ġconsisted": 5978,
      "Ġindicated": 5979,
      "^{\\": 5980,
      "ses": 5981,
      "Ġdwell": 5982,
      "terly": 5983,
      "third": 5984,
      "ifying": 5985,
      "Ġprovide": 5986,
      "Ġscholar": 5987,
      "Ġstrictly": 5988,
      "do": 5989,
      "gon": 5990,
      "Ġurg": 5991,
      "utt": 5992,
      "ĠMount": 5993,
      "ĠPan": 5994,
      "Ġyouth": 5995,
      "Ġports": 5996,
      "Ġgrace": 5997,
      "Ġproperties": 5998,
      "Ġdialect": 5999,
      "Ġlearning": 6000,
      "Ġexplanation": 6001,
      "62": 6002,
      "Ġdre": 6003,
      "utor": 6004,
      "Ġidentical": 6005,
      "Ġfoss": 6006,
      "Ġuns": 6007,
      "ĠÎ²": 6008,
      "Ġwrite": 6009,
      "Ġdescent": 6010,
      "Ġcommanded": 6011,
      "Ġjudges": 6012,
      "Ġcalcul": 6013,
      "Ġofficials": 6014,
      "Ġconfirmed": 6015,
      "car": 6016,
      "Ġom": 6017,
      "ĠGh": 6018,
      "Ġexpans": 6019,
      "Ġdelive": 6020,
      "Ġfurnished": 6021,
      "Ġimmense": 6022,
      "Ġtheatre": 6023,
      "cha": 6024,
      "Ġareas": 6025,
      "ĠRob": 6026,
      "Ġconsent": 6027,
      "Ġraces": 6028,
      "Ġ500": 6029,
      "ĠMark": 6030,
      "Ġteeth": 6031,
      "Ġmetals": 6032,
      "Ġaffect": 6033,
      "ĠMediterranean": 6034,
      "umberland": 6035,
      "Ġtaught": 6036,
      "Ġhop": 6037,
      "illy": 6038,
      "ĠNewton": 6039,
      "Ġ1842": 6040,
      "}}\\": 6041,
      "Ġframe": 6042,
      "Ġattended": 6043,
      "gs": 6044,
      "urity": 6045,
      "ĠBeng": 6046,
      "ĠÎ£": 6047,
      "Ġpriests": 6048,
      "attered": 6049,
      "encies": 6050,
      "dam": 6051,
      "heim": 6052,
      "Ġchannel": 6053,
      "uthor": 6054,
      "Ġnamely": 6055,
      "Ġpolar": 6056,
      "ĠMaria": 6057,
      "Ġfeet": 6058,
      "ĠJohann": 6059,
      "Ġgenius": 6060,
      "Ġfifty": 6061,
      "adelphia": 6062,
      "}{\\": 6063,
      "Ġbow": 6064,
      "Ġexpend": 6065,
      "Ġintellig": 6066,
      "Ġmode": 6067,
      "1902": 6068,
      "Ġdestruction": 6069,
      "Ġcabinet": 6070,
      "Ġnucle": 6071,
      "Ġcoming": 6072,
      "Ġfollowers": 6073,
      "ĠMartin": 6074,
      "ĠÊ½": 6075,
      "cht": 6076,
      "ĠBoston": 6077,
      "ĠLanc": 6078,
      "Ġseized": 6079,
      "Ġordin": 6080,
      "ĠArmen": 6081,
      "ĠEduc": 6082,
      "Ġanalog": 6083,
      "Ġstarted": 6084,
      "cer": 6085,
      "iner": 6086,
      "Ġbay": 6087,
      "ĠLow": 6088,
      "ĠDor": 6089,
      "Ġresid": 6090,
      "ĠCaptain": 6091,
      "actions": 6092,
      "Ġblow": 6093,
      "ĠSat": 6094,
      "ĠHaving": 6095,
      "pton": 6096,
      "anda": 6097,
      "Ġsoci": 6098,
      "Ġrecently": 6099,
      "Ġrelating": 6100,
      "cluding": 6101,
      "Ġbaron": 6102,
      "Ġstatue": 6103,
      "Ġideal": 6104,
      "ipped": 6105,
      "Ġcapture": 6106,
      "Ġfinancial": 6107,
      "mes": 6108,
      "wers": 6109,
      "Ġore": 6110,
      "ĠHosp": 6111,
      "ĠMen": 6112,
      "rium": 6113,
      "Ġstaff": 6114,
      "oser": 6115,
      "170": 6116,
      "Ġangles": 6117,
      "Ġthickness": 6118,
      "ĠWelsh": 6119,
      "Ġmarsh": 6120,
      "ida": 6121,
      "Ġ38": 6122,
      "Ġinfinite": 6123,
      "Ġdesigned": 6124,
      "Ġdangerous": 6125,
      "Ġcavalry": 6126,
      ",,": 6127,
      "vol": 6128,
      "Ġrear": 6129,
      "cel": 6130,
      "Ġaspect": 6131,
      "riet": 6132,
      "Ġmetall": 6133,
      "Ġpainting": 6134,
      "Ar": 6135,
      "ĠTro": 6136,
      "ado": 6137,
      "ĠMy": 6138,
      "ĠLater": 6139,
      "ĠDu": 6140,
      "Ġextinct": 6141,
      "Ġphr": 6142,
      "Ġphot": 6143,
      "Ġconsideration": 6144,
      "Ġpositions": 6145,
      "Ġfurnace": 6146,
      "Ġperformed": 6147,
      "Ġaccordance": 6148,
      "rians": 6149,
      "ĠLie": 6150,
      "Ġpoison": 6151,
      "ĠLeipzig": 6152,
      "Ġ1846": 6153,
      "ĠColumb": 6154,
      "Ġvariations": 6155,
      "Ġenjoyed": 6156,
      "Ġduchy": 6157,
      "Ġdig": 6158,
      "Ġattitude": 6159,
      "Ġtransm": 6160,
      "riction": 6161,
      "Ġobservation": 6162,
      "bu": 6163,
      "iro": 6164,
      "Ġopt": 6165,
      "ĠOt": 6166,
      "Ġobst": 6167,
      "Ġweek": 6168,
      "ublin": 6169,
      "Ġ1832": 6170,
      "1897": 6171,
      "Î¿Î½": 6172,
      "bes": 6173,
      "ipe": 6174,
      "iac": 6175,
      "Ġvote": 6176,
      "Ġcoinc": 6177,
      "Ġ130": 6178,
      "idden": 6179,
      "igen": 6180,
      "Ġhered": 6181,
      "Ġrou": 6182,
      "ĠYet": 6183,
      "Ġinvari": 6184,
      "1910": 6185,
      "Ġgenu": 6186,
      "Ġavoid": 6187,
      "ĠMilan": 6188,
      "ĠSamuel": 6189,
      "Ġinterpret": 6190,
      "iel": 6191,
      "ooth": 6192,
      "Â§": 6193,
      "Ġtold": 6194,
      "ensation": 6195,
      "oking": 6196,
      "orses": 6197,
      "Ġ65": 6198,
      "ĠPhys": 6199,
      "Ġshortly": 6200,
      "Ġchapel": 6201,
      "ĠMexico": 6202,
      "Ġdelivered": 6203,
      "73": 6204,
      "ricted": 6205,
      "ĠAnne": 6206,
      "Ġequation": 6207,
      "ĠAndrew": 6208,
      "Ġpotassium": 6209,
      ",...": 6210,
      "Ġgrew": 6211,
      "Ġformal": 6212,
      "Ġdism": 6213,
      "Ġjunction": 6214,
      "Ġreck": 6215,
      "Ġtroub": 6216,
      "Ġjudicial": 6217,
      "Ġexactly": 6218,
      "Ġpicturesque": 6219,
      "ĠTemple": 6220,
      "rations": 6221,
      "ati": 6222,
      "unci": 6223,
      "Ġzinc": 6224,
      "ĠOrleans": 6225,
      "Ġconstantly": 6226,
      "ĠJersey": 6227,
      "Ġprosperity": 6228,
      "ners": 6229,
      "rim": 6230,
      "Ġgla": 6231,
      "quest": 6232,
      "Ġinstances": 6233,
      "Ġdioc": 6234,
      "ĠBetween": 6235,
      "ga": 6236,
      "olt": 6237,
      "idel": 6238,
      "Ġheard": 6239,
      "Ġproceeded": 6240,
      "Ġagent": 6241,
      "Ġenemies": 6242,
      "yss": 6243,
      "ĠDec": 6244,
      "Ġcareful": 6245,
      "ĠArabic": 6246,
      "Ġconcerning": 6247,
      "Ġdischarge": 6248,
      "Ġdemonst": 6249,
      "kh": 6250,
      "oil": 6251,
      "Ġtone": 6252,
      "Ġhorn": 6253,
      "Ġlif": 6254,
      "Ġascend": 6255,
      "estine": 6256,
      "ĠLeon": 6257,
      "Ġcalc": 6258,
      "ĠPortugal": 6259,
      "Ġtissue": 6260,
      "Ġlimestone": 6261,
      "mund": 6262,
      "aten": 6263,
      "Ġdiffer": 6264,
      "Ġ75": 6265,
      "Ġintervals": 6266,
      "Ġ1910": 6267,
      "Ġcurve": 6268,
      "Ġmerit": 6269,
      "ĠAntio": 6270,
      "Ġgeological": 6271,
      "Ġsynod": 6272,
      "ĠSouthern": 6273,
      "ĠAe": 6274,
      "Ġ42": 6275,
      "ologie": 6276,
      "ĠAugustus": 6277,
      "Ġannually": 6278,
      "Ġvillages": 6279,
      "Ġlegislature": 6280,
      "Ġpreceding": 6281,
      "Ġsafe": 6282,
      "Ġarchitecture": 6283,
      "Ġprice": 6284,
      "xide": 6285,
      "adt": 6286,
      "Ġstro": 6287,
      "Ġ1815": 6288,
      "Ġpoly": 6289,
      "Ġacknow": 6290,
      "Ġpeninsula": 6291,
      "fortun": 6292,
      "ĠMeanwhile": 6293,
      "ĠSa": 6294,
      "Ġearn": 6295,
      "Ġoutbre": 6296,
      "1898": 6297,
      "Ġconstitu": 6298,
      "Ġagreed": 6299,
      "mont": 6300,
      "ples": 6301,
      "ĠBened": 6302,
      "Ġsections": 6303,
      "ĠDis": 6304,
      "Ġaccession": 6305,
      "ĠOrder": 6306,
      "Ġdetermine": 6307,
      "Ġbegins": 6308,
      "Ġcandid": 6309,
      "ĠGothic": 6310,
      "Ġnavigable": 6311,
      "ĠBengal": 6312,
      "gn": 6313,
      "intend": 6314,
      "Ġpamph": 6315,
      "Ġnations": 6316,
      "Ġgrey": 6317,
      "osopher": 6318,
      "Ġconsult": 6319,
      "Ġproducing": 6320,
      "Ġevil": 6321,
      "Ġambass": 6322,
      "ĠCel": 6323,
      "ota": 6324,
      "âĢĿ)": 6325,
      "jected": 6326,
      "ĠDev": 6327,
      "Ġresulted": 6328,
      "Ġclay": 6329,
      "Ġcorrespondence": 6330,
      "Ġprotected": 6331,
      "Ġthousand": 6332,
      "roid": 6333,
      "ĠFar": 6334,
      "quer": 6335,
      "ĠNich": 6336,
      "ĠNorthern": 6337,
      "Ġyds": 6338,
      "Ġspot": 6339,
      "ĠAsh": 6340,
      "iency": 6341,
      "Ġnobles": 6342,
      "Ġabolished": 6343,
      "ĠSicily": 6344,
      "lam": 6345,
      "Ġinland": 6346,
      "ulous": 6347,
      "ĠHal": 6348,
      "osure": 6349,
      "Ġrepr": 6350,
      "Ġedge": 6351,
      "Ġpolice": 6352,
      "Ġevid": 6353,
      "Ġfarm": 6354,
      "Ġdoctrines": 6355,
      "aud": 6356,
      "hi": 6357,
      "ients": 6358,
      "war": 6359,
      "Ġtask": 6360,
      "arith": 6361,
      "oting": 6362,
      "Ġprosec": 6363,
      "Ġchair": 6364,
      "Ġplague": 6365,
      "atherine": 6366,
      "ĠConn": 6367,
      "Ġ1835": 6368,
      "Ġmagist": 6369,
      "Ġbrothers": 6370,
      "Ġgoing": 6371,
      "Ġcheck": 6372,
      "Ġmoist": 6373,
      "cribed": 6374,
      "rusted": 6375,
      "itia": 6376,
      "onder": 6377,
      "Ġdesire": 6378,
      "Ġinduced": 6379,
      "pendicular": 6380,
      "Ġ1839": 6381,
      "Ġsket": 6382,
      "Ġtriumph": 6383,
      "Ġdiscussion": 6384,
      "stein": 6385,
      "Ġtar": 6386,
      "Ġtheological": 6387,
      "ĠMess": 6388,
      "Ġselected": 6389,
      "Ġcoloured": 6390,
      "Ġplat": 6391,
      "Ġpursu": 6392,
      "Ġsemi": 6393,
      "Ġtal": 6394,
      "rier": 6395,
      "ĠElect": 6396,
      "ĠFederal": 6397,
      "ĠChic": 6398,
      "Ġmodel": 6399,
      "1895": 6400,
      "ippi": 6401,
      "Ġpreparation": 6402,
      "ĠSweden": 6403,
      "ĠHungary": 6404,
      "Ġwithdra": 6405,
      "Ġjourney": 6406,
      "ĠOhio": 6407,
      "inia": 6408,
      "Ġband": 6409,
      "ambers": 6410,
      "Ġvice": 6411,
      "Ġ1814": 6412,
      "Ġspeaking": 6413,
      "Ġauthors": 6414,
      "Ġslowly": 6415,
      "ĠAntioch": 6416,
      "Ġtail": 6417,
      "Ġbones": 6418,
      "ĠLady": 6419,
      "Ġarts": 6420,
      "Ġattacks": 6421,
      "Ġ1844": 6422,
      "Ġ1836": 6423,
      "Î¿Ïħ": 6424,
      "Ġstatesman": 6425,
      "cop": 6426,
      "zer": 6427,
      "orate": 6428,
      "Ġassemb": 6429,
      "osal": 6430,
      "Ġnotable": 6431,
      "Ġarc": 6432,
      "Ġsplend": 6433,
      "Ġarmies": 6434,
      "Ġ1820": 6435,
      "Ġhistorian": 6436,
      "Ġsupersed": 6437,
      "Ġabsolutely": 6438,
      "Ġviolent": 6439,
      "Ġanswer": 6440,
      "Al": 6441,
      "sal": 6442,
      "hent": 6443,
      "itus": 6444,
      "Ġanat": 6445,
      "Ġdistant": 6446,
      "Ġretire": 6447,
      "ĠStephen": 6448,
      "matrix": 6449,
      "arches": 6450,
      "rane": 6451,
      "Ġagree": 6452,
      "erman": 6453,
      "Ġfinished": 6454,
      "Ġ1841": 6455,
      "Ġantiquity": 6456,
      "Ġinscriptions": 6457,
      "Ġpendulum": 6458,
      "bb": 6459,
      "har": 6460,
      "ĠMc": 6461,
      "asses": 6462,
      "ellion": 6463,
      "ĠThree": 6464,
      "Ġcircular": 6465,
      "uset": 6466,
      "ĠMrs": 6467,
      "ĠPresbyterian": 6468,
      "De": 6469,
      "hil": 6470,
      "Ġcub": 6471,
      "Ġbree": 6472,
      "ĠGosp": 6473,
      "Ġdepri": 6474,
      "Ġsummon": 6475,
      "Ġreading": 6476,
      "Ġrecognition": 6477,
      "Ġidentified": 6478,
      "Ġimprovement": 6479,
      "Am": 6480,
      "inger": 6481,
      "Ġappropri": 6482,
      "Ġroom": 6483,
      "ĠSeveral": 6484,
      "ĠSpani": 6485,
      "Ġvisible": 6486,
      "eks": 6487,
      "Ġtub": 6488,
      "Ġsed": 6489,
      "itors": 6490,
      "anes": 6491,
      "Ġvii": 6492,
      "agne": 6493,
      "Ġcompounds": 6494,
      "Ġdesert": 6495,
      "Ġeffort": 6496,
      "Ġsuccessfully": 6497,
      "Ġinvestigation": 6498,
      "Ġborrow": 6499,
      "Ġinvented": 6500,
      "Ġadapted": 6501,
      "Ġmoderate": 6502,
      "Ġabroad": 6503,
      "ĠShah": 6504,
      "ĠAv": 6505,
      "ĠBed": 6506,
      "achuset": 6507,
      "1907": 6508,
      "Ġadditional": 6509,
      "Ġdramatic": 6510,
      "Ġproblems": 6511,
      "ĠLetters": 6512,
      "achusetts": 6513,
      "Ġtin": 6514,
      "Ġmes": 6515,
      "lab": 6516,
      "Ġexceed": 6517,
      "Ġnotably": 6518,
      "ibus": 6519,
      "Ġunderstood": 6520,
      "Ġsubord": 6521,
      "Ġaccused": 6522,
      "ĠMichael": 6523,
      "phew": 6524,
      "cut": 6525,
      "cular": 6526,
      "ja": 6527,
      "rus": 6528,
      "Ġbounded": 6529,
      "asions": 6530,
      "ompl": 6531,
      "ĠActs": 6532,
      "laimed": 6533,
      "ĠWhere": 6534,
      "ilding": 6535,
      "Ġvalued": 6536,
      "Ġdecision": 6537,
      "obe": 6538,
      "Ġrepresentation": 6539,
      "Ġspecimens": 6540,
      "Ġfifteen": 6541,
      "ĠJesus": 6542,
      "Ġdaily": 6543,
      "Ġoxygen": 6544,
      "Ġov": 6545,
      "Ġchrom": 6546,
      "ĠDublin": 6547,
      "Ġplains": 6548,
      "Ġregiment": 6549,
      "Ġoffer": 6550,
      "Ġderiv": 6551,
      "1899": 6552,
      "Ġsurfaces": 6553,
      "Ġmanuscript": 6554,
      "put": 6555,
      "Î¸": 6556,
      "ĠDiction": 6557,
      "ĠKon": 6558,
      "Ġpeop": 6559,
      "Ġdoubtful": 6560,
      "Ġutil": 6561,
      "Ġrevolt": 6562,
      "Ġproceedings": 6563,
      "Ġobvious": 6564,
      "ĠByzantine": 6565,
      "Ġundoubtedly": 6566,
      "Ġaw": 6567,
      "Ġfitted": 6568,
      "Ġdating": 6569,
      "ĠCatherine": 6570,
      "irm": 6571,
      "Ġweather": 6572,
      "issions": 6573,
      "Ġmonuments": 6574,
      "Ġnegative": 6575,
      "Ġcolonial": 6576,
      "Ġsacrifice": 6577,
      "Ġpatriarch": 6578,
      "Ġopportunity": 6579,
      "Cl": 6580,
      "inous": 6581,
      "Ġmart": 6582,
      "Ġexpense": 6583,
      "Ġartist": 6584,
      "1903": 6585,
      "itherto": 6586,
      "1891": 6587,
      "Ġfavourable": 6588,
      "Ġsuperintend": 6589,
      "Ġcivilization": 6590,
      "gal": 6591,
      "Ġcreat": 6592,
      "ĠWood": 6593,
      "oused": 6594,
      "Ġ2000": 6595,
      "ĠUl": 6596,
      "Ġextant": 6597,
      "ymn": 6598,
      "Ġsqq": 6599,
      "ĠNorman": 6600,
      "Ġmagnificent": 6601,
      "pres": 6602,
      "ĠTy": 6603,
      "ĠTim": 6604,
      "ĠCord": 6605,
      "ĠEle": 6606,
      "ĠRes": 6607,
      "pert": 6608,
      "Ġweap": 6609,
      "Ġcoeff": 6610,
      "Ġpassages": 6611,
      "Ġshel": 6612,
      "Ġsympt": 6613,
      "Ġcomparison": 6614,
      "ĠMassachusetts": 6615,
      "Ġtelescope": 6616,
      "istan": 6617,
      "Ġ1812": 6618,
      "Ġaccompl": 6619,
      "Ġended": 6620,
      "ĠAtt": 6621,
      "ropical": 6622,
      "Ġdeclined": 6623,
      "Ġcontrary": 6624,
      "icon": 6625,
      "Ġalike": 6626,
      "ĠGard": 6627,
      "acles": 6628,
      "Ġboiling": 6629,
      "Ġminerals": 6630,
      "Ġdetail": 6631,
      "Ġopinions": 6632,
      "Ġperfectly": 6633,
      "ĠTor": 6634,
      "olid": 6635,
      "chlor": 6636,
      "Ġconsec": 6637,
      "Ġconcluded": 6638,
      "ograp": 6639,
      "Ġquad": 6640,
      "Ġreceiving": 6641,
      "Ġ1834": 6642,
      "ĠIsa": 6643,
      "Ġdiver": 6644,
      "Ġverb": 6645,
      "Î¿Î¹": 6646,
      "Ġrespects": 6647,
      "Ġsubstant": 6648,
      "Ġpowder": 6649,
      "Ġisolated": 6650,
      "Ġworn": 6651,
      "anus": 6652,
      "urre": 6653,
      "ĠBor": 6654,
      "eless": 6655,
      "Ġvow": 6656,
      "ources": 6657,
      "acc": 6658,
      "acle": 6659,
      "Ġcarriage": 6660,
      "Ġcharacterized": 6661,
      "ĠâĪĤ": 6662,
      "Ġ1838": 6663,
      "Ġstatute": 6664,
      "Ġmuscles": 6665,
      "eper": 6666,
      "mu": 6667,
      "Ġwounded": 6668,
      "icity": 6669,
      "ĠMir": 6670,
      "ĠEst": 6671,
      "ĠEth": 6672,
      "Ġremainder": 6673,
      "ĠAlexandria": 6674,
      "Ġvolcanic": 6675,
      "ĠBour": 6676,
      "ĠBell": 6677,
      "Ġcompound": 6678,
      "Ġwhereas": 6679,
      "Ġcharges": 6680,
      "Ġgoverned": 6681,
      "Ġintermedi": 6682,
      "Ġrestricted": 6683,
      "Ġdispute": 6684,
      "Ġcaptain": 6685,
      "Ġassisted": 6686,
      "Ġgentle": 6687,
      "ģĦ": 6688,
      "Ġbath": 6689,
      "ican": 6690,
      "ĠBos": 6691,
      "Ġleather": 6692,
      "ager": 6693,
      "ĠVar": 6694,
      "Ġartistic": 6695,
      "ĠMarg": 6696,
      "Ġoxide": 6697,
      "Ġindicate": 6698,
      ".\"": 6699,
      "pent": 6700,
      "Ġdrew": 6701,
      "Ġhorses": 6702,
      "ĠMong": 6703,
      "ĠFour": 6704,
      "ĠDur": 6705,
      "ieu": 6706,
      "Ġconflict": 6707,
      "Ġcondemned": 6708,
      "An": 6709,
      "Ġtong": 6710,
      "ĠTal": 6711,
      "imal": 6712,
      "adem": 6713,
      "igma": 6714,
      "Ġexpected": 6715,
      "ĠJo": 6716,
      "Ġperf": 6717,
      "Ġaddressed": 6718,
      "Ġ1831": 6719,
      "Ġphilosopher": 6720,
      "Ġgoes": 6721,
      "Ġerror": 6722,
      "ground": 6723,
      "Ġdisappeared": 6724,
      "Ġcensus": 6725,
      "''": 6726,
      "ĠSaint": 6727,
      "seud": 6728,
      "Ġknights": 6729,
      "ĠArth": 6730,
      "Ġfacult": 6731,
      "Ġlectures": 6732,
      "Ġrib": 6733,
      "Ġfishing": 6734,
      "Ġlib": 6735,
      "Ġrevers": 6736,
      "ĠHon": 6737,
      "agen": 6738,
      "Ġperpet": 6739,
      "1896": 6740,
      "Ġtreas": 6741,
      "Ġvariation": 6742,
      "Ġindividuals": 6743,
      "Ġparents": 6744,
      "ĠAssociation": 6745,
      "Ġexpansion": 6746,
      "Ġpil": 6747,
      "Ġmile": 6748,
      "Ġlives": 6749,
      "ĠOs": 6750,
      "vels": 6751,
      "Ġflood": 6752,
      "Ġstudent": 6753,
      "1892": 6754,
      "Ġslopes": 6755,
      "ĠPhilosoph": 6756,
      "Ġfortune": 6757,
      "century": 6758,
      "Ġcontempor": 6759,
      "western": 6760,
      "Ġhope": 6761,
      "ĠMiddle": 6762,
      "ĠLuther": 6763,
      "quet": 6764,
      "ĠKings": 6765,
      "Ġproduces": 6766,
      "legraph": 6767,
      "Ġprede": 6768,
      "Ġtouch": 6769,
      "Ġsymbol": 6770,
      "rigation": 6771,
      "ĠArag": 6772,
      "ĠAuthor": 6773,
      "ĠGil": 6774,
      "igne": 6775,
      "Ġclub": 6776,
      "aret": 6777,
      "Ġreflex": 6778,
      "Ġcharacteristics": 6779,
      "ĠSwitzer": 6780,
      "Ġexcav": 6781,
      "Ġsteps": 6782,
      "ĠFranklin": 6783,
      "Ġobscure": 6784,
      "ĠBavaria": 6785,
      "Ġtuber": 6786,
      "ĠBru": 6787,
      "rage": 6788,
      "Ġmayor": 6789,
      "Ġ43": 6790,
      "Ġ48": 6791,
      "Ġwidth": 6792,
      "sych": 6793,
      "Ġod": 6794,
      "Ġmur": 6795,
      "Ġecl": 6796,
      "ila": 6797,
      "Ġgir": 6798,
      "ĠCic": 6799,
      "Ġabst": 6800,
      "Ġusing": 6801,
      "Ġcharity": 6802,
      "Ġ1833": 6803,
      "ĠPetersburg": 6804,
      "Ġactions": 6805,
      "ige": 6806,
      "Ġapply": 6807,
      "Ġcrops": 6808,
      "Ġmanufactured": 6809,
      "iques": 6810,
      "ombard": 6811,
      "ĠSimon": 6812,
      "Ġdiscipline": 6813,
      "Ġsty": 6814,
      "Ġformula": 6815,
      "ĠÎ½": 6816,
      "Ġoccupies": 6817,
      "Ġpopularity": 6818,
      "Ġdesigns": 6819,
      "Ġassociation": 6820,
      "Ġagriculture": 6821,
      "Ġnephew": 6822,
      "Ġadult": 6823,
      "Ġdistributed": 6824,
      "Ġexport": 6825,
      "Ġknight": 6826,
      "shaped": 6827,
      "uller": 6828,
      "Ġslope": 6829,
      "Ġconstitutional": 6830,
      "Ġuncle": 6831,
      "Ġelementary": 6832,
      "ĠSwitzerland": 6833,
      "ĠIll": 6834,
      "ĠHerm": 6835,
      "ĠRock": 6836,
      "Ġtempor": 6837,
      "Ġtemporary": 6838,
      "ĠProv": 6839,
      "Ġstead": 6840,
      "Ġkey": 6841,
      "Ġembry": 6842,
      "ĠGeorg": 6843,
      "Ġlowest": 6844,
      "Ġerr": 6845,
      "making": 6846,
      "arse": 6847,
      "Ġgain": 6848,
      "Ġchart": 6849,
      "Ġrelated": 6850,
      "Ġinfl": 6851,
      "Ġentrusted": 6852,
      "Ġmetropol": 6853,
      "Ġrestoration": 6854,
      "herent": 6855,
      "Ġenlarged": 6856,
      "Ġtact": 6857,
      "Ġace": 6858,
      "esp": 6859,
      "Ġheir": 6860,
      "Ġresort": 6861,
      "Ġroof": 6862,
      "Ġmarble": 6863,
      "Ġdirections": 6864,
      "1893": 6865,
      "Ġprecise": 6866,
      "Ġmercury": 6867,
      "Ġalcohol": 6868,
      "Ġmanifest": 6869,
      "Ġoutbreak": 6870,
      "press": 6871,
      "anth": 6872,
      "oles": 6873,
      "idal": 6874,
      "ĠNow": 6875,
      "Ġnoticed": 6876,
      "Ġunable": 6877,
      "Ġexports": 6878,
      "Ġpassion": 6879,
      "Ġcommissioners": 6880,
      "ĠTrinity": 6881,
      "Ġroads": 6882,
      "ĠOriental": 6883,
      "ded": 6884,
      "whe": 6885,
      "otic": 6886,
      "ĠRem": 6887,
      "Ġmarine": 6888,
      "Ġfactory": 6889,
      "Ġgrandson": 6890,
      "Ġhospitals": 6891,
      "Ġsuspend": 6892,
      "Ġvicinity": 6893,
      "Ġremoval": 6894,
      "Ġarbitr": 6895,
      "Ġhabits": 6896,
      "Ġban": 6897,
      "igration": 6898,
      "ĠBalt": 6899,
      "Ġchamp": 6900,
      "ĠDou": 6901,
      "Ġfreely": 6902,
      "Ġprinting": 6903,
      "Ġcovering": 6904,
      "ĠMoreover": 6905,
      "Ġteachers": 6906,
      "athered": 6907,
      "Ġroute": 6908,
      "aur": 6909,
      "Ġbond": 6910,
      "Ġreaches": 6911,
      "ĠChem": 6912,
      "ĠFlor": 6913,
      "iferous": 6914,
      "Ġaccum": 6915,
      "Ġ\\\\\\": 6916,
      "Ġmyth": 6917,
      "Ġthoroughly": 6918,
      "Ġintellectual": 6919,
      "Ġwrong": 6920,
      "atist": 6921,
      "Ġcode": 6922,
      "esse": 6923,
      "terbury": 6924,
      "ĠRad": 6925,
      "Ġimages": 6926,
      "Ġimposed": 6927,
      "Ġappend": 6928,
      "Ġsupplement": 6929,
      "Ġprior": 6930,
      "1885": 6931,
      "ĠPhiladelphia": 6932,
      "Ġspirits": 6933,
      "ĠAnglo": 6934,
      "ĠLiberal": 6935,
      "cast": 6936,
      "got": 6937,
      "Ġmasters": 6938,
      "rot": 6939,
      "rics": 6940,
      "Ġresident": 6941,
      "Ġstruck": 6942,
      "Ġsentence": 6943,
      "Ġgraduated": 6944,
      "Ġcardinal": 6945,
      "ĠCaesar": 6946,
      "ait": 6947,
      "Ġix": 6948,
      "ication": 6949,
      "ĠSab": 6950,
      "Ġ39": 6951,
      "Ġobser": 6952,
      "Ġeverywhere": 6953,
      "Ġmeasured": 6954,
      "Ġpenet": 6955,
      "ĠTurkey": 6956,
      "Ġslaves": 6957,
      "Ġsanct": 6958,
      "Ġdocument": 6959,
      "ĠGovernment": 6960,
      "bot": 6961,
      "krit": 6962,
      "pur": 6963,
      "âĪ": 6964,
      "ĠBrown": 6965,
      "ĠBrand": 6966,
      "Ġalleg": 6967,
      "ĠStan": 6968,
      "Ġregulations": 6969,
      "Ġslave": 6970,
      "Ġfalse": 6971,
      "ĠMountains": 6972,
      "gam": 6973,
      "ilton": 6974,
      "otting": 6975,
      "ĠPublic": 6976,
      "ĠRoc": 6977,
      "Ġabbey": 6978,
      "Ġrod": 6979,
      "Ġrecovered": 6980,
      "Ġscattered": 6981,
      "160": 6982,
      "Ġreceives": 6983,
      "Ġembod": 6984,
      "Ġfibre": 6985,
      "Ġgranite": 6986,
      "Ġprolong": 6987,
      "mus": 6988,
      "inated": 6989,
      "ĠLog": 6990,
      "Ġspin": 6991,
      "Ġrelatively": 6992,
      "Ġminim": 6993,
      "Ġlayer": 6994,
      "Ġexhibited": 6995,
      "Ġargument": 6996,
      "Ġgenuine": 6997,
      "rass": 6998,
      "Ġcul": 6999,
      "Ġfame": 7000,
      "ĠMes": 7001,
      "elle": 7002,
      "ĠNile": 7003,
      "Ġrebu": 7004,
      "ĠBenedict": 7005,
      "wall": 7006,
      "Ġwing": 7007,
      "iciency": 7008,
      "Ġsphere": 7009,
      "issippi": 7010,
      "ologist": 7011,
      "Ġsupplies": 7012,
      "amps": 7013,
      "Ġevolution": 7014,
      "azine": 7015,
      "Ġpaint": 7016,
      "Ġanti": 7017,
      "Ġgeomet": 7018,
      "Ġfortress": 7019,
      "Ġtraditions": 7020,
      "Ġpunishment": 7021,
      "hr": 7022,
      "Ġfever": 7023,
      "roc": 7024,
      "ĠCas": 7025,
      "Ġartillery": 7026,
      "1894": 7027,
      "Ġcomparative": 7028,
      "ĠJustinian": 7029,
      "Ġmerchant": 7030,
      "ĠSpaniards": 7031,
      "Ġmamm": 7032,
      "lay": 7033,
      "about": 7034,
      "ĠDam": 7035,
      "Ġneck": 7036,
      "Ġclim": 7037,
      "Ġ140": 7038,
      "Ġseparation": 7039,
      "Ġdistinguish": 7040,
      "Ġaltered": 7041,
      "Ġdependent": 7042,
      "Ġbelieve": 7043,
      "Ġaccuracy": 7044,
      "Ġdignity": 7045,
      "Ġbreech": 7046,
      "Ġreasons": 7047,
      "ĠBad": 7048,
      "ĠJah": 7049,
      "Ġpersec": 7050,
      "Ġenv": 7051,
      "Ġsuburb": 7052,
      "ĠUp": 7053,
      "Ġpear": 7054,
      "aneously": 7055,
      "took": 7056,
      "Ġmilk": 7057,
      "Ġtribun": 7058,
      "works": 7059,
      "Ġeventually": 7060,
      "eor": 7061,
      "Ġsession": 7062,
      "amen": 7063,
      "ĠWhe": 7064,
      "ĠWall": 7065,
      "ĠChronic": 7066,
      "eworthy": 7067,
      "Ġdescribes": 7068,
      "five": 7069,
      "inence": 7070,
      "Ġnet": 7071,
      "Ġwaste": 7072,
      "esses": 7073,
      "agger": 7074,
      "Ġupwards": 7075,
      "aceous": 7076,
      "prise": 7077,
      "Ġcopy": 7078,
      "ĠCommission": 7079,
      "Ġliberal": 7080,
      "ozo": 7081,
      "ya": 7082,
      "orious": 7083,
      "ĠTen": 7084,
      "olph": 7085,
      "igs": 7086,
      "Ġintention": 7087,
      "ectic": 7088,
      "Ġ41": 7089,
      "Ġ400": 7090,
      "Ġenam": 7091,
      "issance": 7092,
      "Ġdecay": 7093,
      "Ġapproach": 7094,
      "Ġsurvived": 7095,
      "ĠMahommedan": 7096,
      "Ġunsuccess": 7097,
      "eastern": 7098,
      "Ġbone": 7099,
      "ĠClement": 7100,
      "ira": 7101,
      "ĠPot": 7102,
      "ĠLab": 7103,
      "ensions": 7104,
      "Ġevident": 7105,
      "Ġsubstit": 7106,
      "ĠInstitute": 7107,
      "ĠMississippi": 7108,
      "ÏīÎ½": 7109,
      "Ġgarrison": 7110,
      "ĠAristot": 7111,
      "ĠModern": 7112,
      "aest": 7113,
      "Ġthink": 7114,
      "Ġreaching": 7115,
      "ĠFried": 7116,
      "ĠRog": 7117,
      "Ġchron": 7118,
      "Ġallies": 7119,
      "ocene": 7120,
      "Ġgeneration": 7121,
      "Ġattract": 7122,
      "Ġrelie": 7123,
      "Ġtransp": 7124,
      "Ġloose": 7125,
      "rague": 7126,
      "Ġnarrative": 7127,
      "Ġdeposit": 7128,
      "Ġconquered": 7129,
      "Ġgods": 7130,
      "light": 7131,
      "olis": 7132,
      "essions": 7133,
      "ensed": 7134,
      "cester": 7135,
      "ĠHistorical": 7136,
      "ĠHerod": 7137,
      "yright": 7138,
      "Ġobtaining": 7139,
      "ĠMaced": 7140,
      "Ġdiscussed": 7141,
      "Ġornament": 7142,
      "cont": 7143,
      "pes": 7144,
      "Ġworth": 7145,
      "Ġtraged": 7146,
      "ĠScript": 7147,
      "Ġreduction": 7148,
      "ĠAbyss": 7149,
      "Ġoccupy": 7150,
      "Ġtemperatures": 7151,
      "loqu": 7152,
      "ĠAnton": 7153,
      "ĠSimilar": 7154,
      "Ġfeudal": 7155,
      "je": 7156,
      "no": 7157,
      "Ġgases": 7158,
      "Ġrice": 7159,
      "ĠInn": 7160,
      "Ġpartial": 7161,
      "Ġinterc": 7162,
      "Ġblocks": 7163,
      "Ġruled": 7164,
      "Ġplanet": 7165,
      "ĠPoland": 7166,
      "Ġtaxes": 7167,
      "Ġmoving": 7168,
      "Ġescaped": 7169,
      "Ġnegotiations": 7170,
      "master": 7171,
      "Ġoath": 7172,
      "Ġwines": 7173,
      "Ġpan": 7174,
      "osh": 7175,
      "cium": 7176,
      "ciences": 7177,
      "ogen": 7178,
      "ensis": 7179,
      "Ġ46": 7180,
      "ĠMarie": 7181,
      "ĠJohnson": 7182,
      "Ġinfluenced": 7183,
      "ĠZealand": 7184,
      "Ġprisoner": 7185,
      "Ġsubdiv": 7186,
      "chief": 7187,
      "ĠPom": 7188,
      "Ġexchange": 7189,
      "ĠâĢŀ": 7190,
      "Ġability": 7191,
      "Ġroots": 7192,
      "Ġrevival": 7193,
      "Ġhousehold": 7194,
      "Ġwooden": 7195,
      "Ġstrengthen": 7196,
      "Ġbulk": 7197,
      "Ġinitial": 7198,
      "ny": 7199,
      "pool": 7200,
      "}^{": 7201,
      "Ġaim": 7202,
      "Ġfit": 7203,
      "Ġmounted": 7204,
      "ĠHand": 7205,
      "Ġviii": 7206,
      "Ġ1800": 7207,
      "agan": 7208,
      "ava": 7209,
      "inding": 7210,
      "Ġweeks": 7211,
      "Ġgenera": 7212,
      "ĠArgent": 7213,
      "Ġconferred": 7214,
      "Ġsimilarly": 7215,
      "cription": 7216,
      "Ġwidow": 7217,
      "Ġfruits": 7218,
      "Ġsurrender": 7219,
      "borough": 7220,
      "Ġpill": 7221,
      "Ġfab": 7222,
      "Ġreward": 7223,
      "ĠDiv": 7224,
      "Ġclock": 7225,
      "oys": 7226,
      "Ġ1825": 7227,
      "Ġdepartments": 7228,
      "Ġwinds": 7229,
      "Ġdescendants": 7230,
      "Ġbringing": 7231,
      "Ġportrait": 7232,
      "ĠReformation": 7233,
      "Ġinquiry": 7234,
      "Ġaccomplished": 7235,
      "Ġinternational": 7236,
      "ĠMalt": 7237,
      "Ġranks": 7238,
      "Ġsharp": 7239,
      "Ġarise": 7240,
      "ffic": 7241,
      "Ġmoreover": 7242,
      "ologists": 7243,
      "Ġrests": 7244,
      "Ġcirculation": 7245,
      "Ġguar": 7246,
      "ĠClub": 7247,
      "Ġhandsome": 7248,
      "Ġprevented": 7249,
      "ĠPresident": 7250,
      "ĠRelig": 7251,
      "Ġquartz": 7252,
      "rehens": 7253,
      "Ġdye": 7254,
      "Ġhitherto": 7255,
      "ĠNether": 7256,
      "Ġaccident": 7257,
      "Ġpresents": 7258,
      "ĠLeg": 7259,
      "Ġprophe": 7260,
      "ructive": 7261,
      "Ġsulphate": 7262,
      "ĠLittle": 7263,
      "ĠGregory": 7264,
      "Ġsocieties": 7265,
      "Ġsymptoms": 7266,
      "Ġintermediate": 7267,
      "Ġsultan": 7268,
      "Ġmole": 7269,
      "ĠTre": 7270,
      "idney": 7271,
      "Ġeditor": 7272,
      "Ġrefer": 7273,
      "Ġincident": 7274,
      "Ġsimult": 7275,
      "Ġabsent": 7276,
      "Ġbeneath": 7277,
      "Ġinscription": 7278,
      "cill": 7279,
      "âģĦ": 7280,
      "aration": 7281,
      "ĠIl": 7282,
      "Ġshot": 7283,
      "Ġdiseases": 7284,
      "ealous": 7285,
      "kins": 7286,
      "rete": 7287,
      "Ġbold": 7288,
      "aly": 7289,
      "ĠHaw": 7290,
      "Ġconvent": 7291,
      "ĠGene": 7292,
      "emed": 7293,
      "phon": 7294,
      "Ġparticles": 7295,
      "Ġcreation": 7296,
      "Ġmotor": 7297,
      "Ġelectricity": 7298,
      "Ġrainfall": 7299,
      "Ġdiplomatic": 7300,
      "Ġimprisonment": 7301,
      "piece": 7302,
      "Ġmetallic": 7303,
      "mans": 7304,
      "idity": 7305,
      "ĠMic": 7306,
      "ruption": 7307,
      "Ġ44": 7308,
      "Ġpurs": 7309,
      "Ġpatent": 7310,
      "Ġtriang": 7311,
      "Ġplayer": 7312,
      "Ġrebellion": 7313,
      "Ġsummoned": 7314,
      "Ġtur": 7315,
      "ione": 7316,
      "Ġhear": 7317,
      "Ġcongreg": 7318,
      "ĠOcean": 7319,
      "Ġleaf": 7320,
      "Ġthereby": 7321,
      "clop": 7322,
      "1889": 7323,
      "Ġcommissioner": 7324,
      "Ġpredecess": 7325,
      "It": 7326,
      "Ġocean": 7327,
      "adow": 7328,
      "ĠHyd": 7329,
      "ĠPy": 7330,
      "Ġstories": 7331,
      "achment": 7332,
      "Ġsmooth": 7333,
      "Ġfactories": 7334,
      "Ġzero": 7335,
      "Ġdelicate": 7336,
      "Ġ1828": 7337,
      "Ġ1829": 7338,
      "Ġaltar": 7339,
      "Ġascribed": 7340,
      "Ġmillion": 7341,
      "Ġvirtue": 7342,
      "father": 7343,
      "Ġol": 7344,
      "Ġought": 7345,
      "Ġdress": 7346,
      "rogen": 7347,
      "ĠLar": 7348,
      "Ġexported": 7349,
      "Ġgrave": 7350,
      "1883": 7351,
      "Ġaccordingly": 7352,
      "Ġfinding": 7353,
      "Ġmagnetic": 7354,
      "ĠBraz": 7355,
      "Ġsulphuric": 7356,
      "ĠEducation": 7357,
      "Ġfold": 7358,
      "Ġdated": 7359,
      "Ġgathered": 7360,
      "ĠCrom": 7361,
      "Ġorthodox": 7362,
      "Ġnoteworthy": 7363,
      "Ġknew": 7364,
      "Ġparas": 7365,
      "Ġinterse": 7366,
      "Ġrequires": 7367,
      "ĠPolit": 7368,
      "Ġfifth": 7369,
      "Ġsatisfactory": 7370,
      "rupted": 7371,
      "Ġfloor": 7372,
      "ographer": 7373,
      "pass": 7374,
      "Ġsail": 7375,
      "ĠBir": 7376,
      "riff": 7377,
      "Ġanterior": 7378,
      "ĠForm": 7379,
      "Ġsearch": 7380,
      "Ġ1843": 7381,
      "Ġfriendship": 7382,
      "Ġlogarith": 7383,
      "ĠArmy": 7384,
      "Ġnegroes": 7385,
      "sburg": 7386,
      "Ġbapt": 7387,
      "itual": 7388,
      "Ġpack": 7389,
      "Ġmurd": 7390,
      "ĠSel": 7391,
      "ĠSard": 7392,
      "igo": 7393,
      "ĠRiver": 7394,
      "Ġlev": 7395,
      "Ġtownship": 7396,
      "1908": 7397,
      "Ġpropriet": 7398,
      "Ġincreases": 7399,
      "Ġorganic": 7400,
      "Ġphysi": 7401,
      "Ġvigorous": 7402,
      "ni": 7403,
      "oz": 7404,
      "Ġtum": 7405,
      "Ġaud": 7406,
      "otus": 7407,
      "ĠDist": 7408,
      "Ġintensity": 7409,
      "Ġcanals": 7410,
      "Ġsystematic": 7411,
      "Ġcrop": 7412,
      "Ġ1823": 7413,
      "ĠNear": 7414,
      "Ġsoul": 7415,
      "ĠCanterbury": 7416,
      "Ġanalysis": 7417,
      "ĠHamilton": 7418,
      "Ġborne": 7419,
      "ĠDenmark": 7420,
      "Ġobliged": 7421,
      "bours": 7422,
      "Ġfled": 7423,
      "Ġstem": 7424,
      "aya": 7425,
      "ĠInf": 7426,
      "Ġ47": 7427,
      "Ġapost": 7428,
      "Ġchapter": 7429,
      "',": 7430,
      "ape": 7431,
      "hard": 7432,
      "Ġbands": 7433,
      "Ġhat": 7434,
      "ĠSus": 7435,
      "Ġgone": 7436,
      "idents": 7437,
      "ĠLor": 7438,
      "ĠJeff": 7439,
      "ĠChile": 7440,
      "Ġremem": 7441,
      "Ġdiffers": 7442,
      "Ġ1824": 7443,
      "ĠSyria": 7444,
      "ĠConfeder": 7445,
      "Ġpeoples": 7446,
      "hall": 7447,
      "Ġpus": 7448,
      "Ġrein": 7449,
      "idian": 7450,
      "uli": 7451,
      "cian": 7452,
      "ache": 7453,
      "Ġmanagement": 7454,
      "Ġcompon": 7455,
      "Ġstrata": 7456,
      "Ġirrigation": 7457,
      "Ġpatient": 7458,
      "Ġlegislative": 7459,
      "Ġsenate": 7460,
      "Ġexclusively": 7461,
      "Ġconcentrated": 7462,
      "ĠBelgium": 7463,
      "ĠSecond": 7464,
      "ĠPrincip": 7465,
      "Ġacknowled": 7466,
      "jud": 7467,
      "oining": 7468,
      "yers": 7469,
      "Ġsn": 7470,
      "aling": 7471,
      "cement": 7472,
      "ptic": 7473,
      "Ġintimate": 7474,
      "ructions": 7475,
      "Ġfee": 7476,
      "ommod": 7477,
      "ĠConvention": 7478,
      "Ġsteep": 7479,
      "ĠScots": 7480,
      "ĠPhilipp": 7481,
      "ÏģÎ¹": 7482,
      "ĠRhodes": 7483,
      "Ġillustrated": 7484,
      "ĠMemoirs": 7485,
      "Ġpermitted": 7486,
      "Ġsuddenly": 7487,
      "Ġhereditary": 7488,
      "gro": 7489,
      "pired": 7490,
      "Ġfro": 7491,
      "Ġglands": 7492,
      "ĠGood": 7493,
      "ĠWind": 7494,
      "ĠDal": 7495,
      "theta": 7496,
      "Ġlooked": 7497,
      "Ġdissolved": 7498,
      "ussels": 7499,
      "ĠIndepend": 7500,
      "Ġevidently": 7501,
      "icians": 7502,
      "oung": 7503,
      "ĠBuc": 7504,
      "agu": 7505,
      "ints": 7506,
      "Ġpeas": 7507,
      "Ġdoor": 7508,
      "Ġreturning": 7509,
      "Ġepit": 7510,
      "ikh": 7511,
      "Ġacquaint": 7512,
      "Ġruler": 7513,
      "Ġpredomin": 7514,
      "ĠSaxony": 7515,
      "Ġbalance": 7516,
      "Ġeggs": 7517,
      "ding": 7518,
      "Ġib": 7519,
      "Ġundertook": 7520,
      "eldom": 7521,
      "Ġtitles": 7522,
      "Ġimperfect": 7523,
      "ĠVenet": 7524,
      "ĠBibliography": 7525,
      "Ġdefinition": 7526,
      "ĠCicero": 7527,
      "arks": 7528,
      "Ġmol": 7529,
      "ĠMaxim": 7530,
      "ĠDas": 7531,
      "Ġrav": 7532,
      "Ġbox": 7533,
      "ĠLeop": 7534,
      "Ġcontinue": 7535,
      "Ġ1793": 7536,
      "ĠWalter": 7537,
      "Ġprisoners": 7538,
      "buch": 7539,
      "gel": 7540,
      "Ġsick": 7541,
      "Ġbare": 7542,
      "ĠLang": 7543,
      "ifts": 7544,
      "ibl": 7545,
      "ĠThrough": 7546,
      "Ġpromoted": 7547,
      "Ġmedium": 7548,
      "Ġsuperv": 7549,
      "Ġresearch": 7550,
      "Ġdedicated": 7551,
      "Ġprofessional": 7552,
      "Ġenclosed": 7553,
      "ĠFurther": 7554,
      "Ġvoyage": 7555,
      "Ġambassador": 7556,
      "100": 7557,
      "Eng": 7558,
      "bach": 7559,
      "gow": 7560,
      "icle": 7561,
      "ĠTar": 7562,
      "iron": 7563,
      "Ġchoice": 7564,
      "ustion": 7565,
      "ĠStat": 7566,
      "Ġenters": 7567,
      "Ġchiefs": 7568,
      "ĠOnly": 7569,
      "Ġsoluble": 7570,
      "1882": 7571,
      "ĠManchester": 7572,
      "Ġdialects": 7573,
      "Ġintegral": 7574,
      "ben": 7575,
      "Ġpist": 7576,
      "Ġlad": 7577,
      "ĠHart": 7578,
      "ĠRena": 7579,
      "Ġpossessions": 7580,
      "Ġdiet": 7581,
      "1887": 7582,
      "Ġconstitute": 7583,
      "ĠLords": 7584,
      "Ġdemanded": 7585,
      "Ġresearches": 7586,
      "Ġimprovements": 7587,
      "Ġsubmitted": 7588,
      "Ġfluid": 7589,
      "Ġconversion": 7590,
      "ĠWorks": 7591,
      "ez": 7592,
      "fts": 7593,
      "lock": 7594,
      "Ġtracts": 7595,
      "oni": 7596,
      "isive": 7597,
      "Ġseldom": 7598,
      "Ġingen": 7599,
      "ĠBank": 7600,
      "order": 7601,
      "Ġunp": 7602,
      "ĠGermans": 7603,
      "Ġzone": 7604,
      "Ġ1827": 7605,
      "ĠWhat": 7606,
      "Ġcrystalline": 7607,
      "Ġvoluntary": 7608,
      "ĠSanta": 7609,
      "Ġquickly": 7610,
      "Ġsuspended": 7611,
      "Ġur": 7612,
      "Ġtru": 7613,
      "Ġpairs": 7614,
      "chi": 7615,
      "rift": 7616,
      "Ġsigns": 7617,
      "Ġfortun": 7618,
      "Ġkeeping": 7619,
      "Ġdisplayed": 7620,
      "ĠNicholas": 7621,
      "Ġreprinted": 7622,
      "Ġsuperseded": 7623,
      "ĠArthur": 7624,
      "bell": 7625,
      "olics": 7626,
      "ĠGo": 7627,
      "ĠRos": 7628,
      "ĠDun": 7629,
      "landers": 7630,
      "class": 7631,
      "Ġmarch": 7632,
      "tenance": 7633,
      "Ġdecree": 7634,
      "Ġconstituted": 7635,
      "Ġreforms": 7636,
      "ĠLiterature": 7637,
      "Ġgh": 7638,
      "ĠHug": 7639,
      "ricks": 7640,
      "Ġconscious": 7641,
      "Ġpret": 7642,
      "Ġadvice": 7643,
      "Ġleads": 7644,
      "book": 7645,
      "ĠMadrid": 7646,
      "Ġspeaks": 7647,
      "Ġcomplicated": 7648,
      "ĠChicago": 7649,
      "ĠAuthorities": 7650,
      "uen": 7651,
      "isen": 7652,
      "Ġff": 7653,
      "Ġmould": 7654,
      "leton": 7655,
      "Ġimpression": 7656,
      "Ġcommitted": 7657,
      "Ġsetting": 7658,
      "Ġsuccessors": 7659,
      "Ġfactor": 7660,
      "Ġgradual": 7661,
      "Ġmagnet": 7662,
      "ĠConstitution": 7663,
      "ĠLiver": 7664,
      "Ġhelped": 7665,
      "Ġrevolutionary": 7666,
      "Ġburning": 7667,
      "}+\\": 7668,
      "Ġbreadth": 7669,
      "Ġphrase": 7670,
      "53": 7671,
      "more": 7672,
      "Ġburg": 7673,
      "ĠLo": 7674,
      "Ġregarding": 7675,
      "ĠCarl": 7676,
      "Ġmanufacturing": 7677,
      "Ġnavigation": 7678,
      "Ġquarters": 7679,
      "ĠCastile": 7680,
      "Ġyields": 7681,
      "Ġresembl": 7682,
      "comm": 7683,
      "Ġtowers": 7684,
      "Ġhind": 7685,
      "ambe": 7686,
      "ĠPrague": 7687,
      "Ġimported": 7688,
      "Ġmonks": 7689,
      "ĠIndies": 7690,
      "Ġtreatises": 7691,
      "Ġelector": 7692,
      "ipping": 7693,
      "Ġsuspic": 7694,
      "Ġdescended": 7695,
      "gments": 7696,
      "uh": 7697,
      "Ġholy": 7698,
      "ĠGa": 7699,
      "ĠGran": 7700,
      "Ġchambers": 7701,
      "ĠObs": 7702,
      "ĠSpart": 7703,
      "Ġtraffic": 7704,
      "Ġtemples": 7705,
      "ĠEdmund": 7706,
      "Ġvariable": 7707,
      "Ġwoollen": 7708,
      "Ġafforded": 7709,
      "Ġmonarchy": 7710,
      "Ġdismiss": 7711,
      "lan": 7712,
      "Ġfix": 7713,
      "ĠTert": 7714,
      "Ġlens": 7715,
      "Ġstay": 7716,
      "istle": 7717,
      "Ġrational": 7718,
      "ustic": 7719,
      "Ġopera": 7720,
      "Ġfalling": 7721,
      "Ġmerchants": 7722,
      "Ġendeavoured": 7723,
      "ki": 7724,
      "alla": 7725,
      "umed": 7726,
      "Ġalle": 7727,
      "Ġresign": 7728,
      "Ġ52": 7729,
      "Ġentering": 7730,
      "Ġsuppressed": 7731,
      "Ġtrained": 7732,
      "Ġcurrents": 7733,
      "Ġextremity": 7734,
      "56": 7735,
      "rants": 7736,
      "ÏĨ": 7737,
      "ĠCass": 7738,
      "ĠCret": 7739,
      "aders": 7740,
      "Ġsuit": 7741,
      "ĠRoss": 7742,
      "ĠFranco": 7743,
      "Ġpersu": 7744,
      "Ġfallen": 7745,
      "Ġassume": 7746,
      "Ġverses": 7747,
      "Ġtaxation": 7748,
      "Ġpupils": 7749,
      "Ġgardens": 7750,
      "Ġinclined": 7751,
      "Ġmurder": 7752,
      "aed": 7753,
      "Ġfuel": 7754,
      "omed": 7755,
      "racy": 7756,
      "ĠPont": 7757,
      "Ġvest": 7758,
      "Ġ1813": 7759,
      "aca": 7760,
      "Ġemer": 7761,
      "Ġelectro": 7762,
      "1876": 7763,
      "Ġtranslations": 7764,
      "Ġadoption": 7765,
      "Ġembra": 7766,
      "Ġcutting": 7767,
      "Ġholds": 7768,
      "Ġundertaken": 7769,
      "ĠCardinal": 7770,
      "ĠLiverpool": 7771,
      "oras": 7772,
      "lyn": 7773,
      "ĠTown": 7774,
      "ĠCond": 7775,
      "ĠBou": 7776,
      "ĠBuch": 7777,
      "Ġstore": 7778,
      "Ġ+...": 7779,
      "Ġpublications": 7780,
      "ĠRussians": 7781,
      "Ġjoin": 7782,
      "Ġexplain": 7783,
      "imensions": 7784,
      "Ġportraits": 7785,
      "ĠYears": 7786,
      "Ġconnecting": 7787,
      "ĠColonel": 7788,
      "Ġdeprived": 7789,
      ")-": 7790,
      "Ġtheolog": 7791,
      "Ġfriction": 7792,
      "ilation": 7793,
      "ĠCart": 7794,
      "ulae": 7795,
      "ĠEvery": 7796,
      "ĠDomin": 7797,
      "ĠOl": 7798,
      "Ġaccommod": 7799,
      "Ġreported": 7800,
      "Ġacute": 7801,
      "Ġcouncill": 7802,
      "Ġinhab": 7803,
      "Ġimprisoned": 7804,
      "Ġinterpretation": 7805,
      "atra": 7806,
      "Ġbought": 7807,
      "Ġtoler": 7808,
      "sea": 7809,
      "ĠMax": 7810,
      "oderm": 7811,
      "clam": 7812,
      "Ġ53": 7813,
      "Ġimports": 7814,
      "Ġsheet": 7815,
      "Ġ1821": 7816,
      "1880": 7817,
      "ÏģÎ±": 7818,
      "ĠArabs": 7819,
      "Ġdrama": 7820,
      "Ġsoda": 7821,
      "Ġsuggestion": 7822,
      "Ġabsorbed": 7823,
      "Ġwonder": 7824,
      "Ġced": 7825,
      "Ġlock": 7826,
      "igan": 7827,
      "ĠGust": 7828,
      "ĠChron": 7829,
      "Ġagents": 7830,
      "Ġconserv": 7831,
      "Ġoffence": 7832,
      "ĠAlf": 7833,
      "Ġmonastic": 7834,
      "Ġsuccessively": 7835,
      "ouraged": 7836,
      "remacy": 7837,
      "Ġsanction": 7838,
      "Ġhypothes": 7839,
      "Ġsympathy": 7840,
      "Ġvapour": 7841,
      "but": 7842,
      "Ġbull": 7843,
      "oma": 7844,
      "ĠBall": 7845,
      "opl": 7846,
      "âĢĿ-": 7847,
      "ĠOd": 7848,
      "Ġraising": 7849,
      "Ġbrass": 7850,
      "Ġlasted": 7851,
      "Ġstring": 7852,
      "1888": 7853,
      "Ġcolouring": 7854,
      "ĠLike": 7855,
      "Ġsignificance": 7856,
      "ĠNetherlands": 7857,
      "Gr": 7858,
      "bably": 7859,
      "Ġreality": 7860,
      "ĠRic": 7861,
      "Ġratio": 7862,
      "Ġresources": 7863,
      "ĠÎ¶": 7864,
      "ĠIndo": 7865,
      "Ġowner": 7866,
      "unting": 7867,
      "Ġaltitude": 7868,
      "Ġdefinitely": 7869,
      "ĠConstantine": 7870,
      "Ġmoon": 7871,
      "ĠFinally": 7872,
      "ĠEssex": 7873,
      "Ġrifle": 7874,
      "writ": 7875,
      "orf": 7876,
      "Ġdece": 7877,
      "ĠRam": 7878,
      "Ġpartially": 7879,
      "Ġraise": 7880,
      "Ġeleven": 7881,
      "ĠReal": 7882,
      "Ġirrit": 7883,
      "Ġadvis": 7884,
      "Ġclean": 7885,
      "Ġsword": 7886,
      "Ġtributary": 7887,
      "ĠBoliv": 7888,
      "uy": 7889,
      "}{": 7890,
      "ĠSher": 7891,
      "riages": 7892,
      "esty": 7893,
      "ateg": 7894,
      "akers": 7895,
      "Ġcompla": 7896,
      "Ġprime": 7897,
      "ioxide": 7898,
      "Ġequil": 7899,
      "Ġpromise": 7900,
      "ĠCatholics": 7901,
      "ombay": 7902,
      "Ġignor": 7903,
      "Ġhollow": 7904,
      "ĠHospital": 7905,
      "Ġdimensions": 7906,
      "ĠPierre": 7907,
      "Ġ1818": 7908,
      "Ġquoted": 7909,
      "Ġraw": 7910,
      "ĠRec": 7911,
      "ĠArctic": 7912,
      "Ġherself": 7913,
      "Ġmaintenance": 7914,
      "Ġ1792": 7915,
      "withstanding": 7916,
      "Ġbrain": 7917,
      "Ġexceedingly": 7918,
      "Ġinherit": 7919,
      "Ġthreatened": 7920,
      "ĠAragon": 7921,
      "fare": 7922,
      "feld": 7923,
      "gart": 7924,
      "orce": 7925,
      "orian": 7926,
      "Ġment": 7927,
      "omical": 7928,
      "ĠBart": 7929,
      "ĠBudd": 7930,
      "ums": 7931,
      "Ġvain": 7932,
      "Ġrhet": 7933,
      "asts": 7934,
      "ocent": 7935,
      "orning": 7936,
      "Ġsuppose": 7937,
      "Ġretreat": 7938,
      "Ġprofound": 7939,
      "1886": 7940,
      "iscount": 7941,
      "Ġ1803": 7942,
      "Ġsafety": 7943,
      "ĠBulgar": 7944,
      "ĠMunich": 7945,
      "ĠPompe": 7946,
      "Ġbrew": 7947,
      "Ġdeleg": 7948,
      "ĠEnt": 7949,
      "ĠThose": 7950,
      "Ġaggreg": 7951,
      "Ġcoll": 7952,
      "Ġfear": 7953,
      "tolem": 7954,
      "Ġseparately": 7955,
      "Ġfortified": 7956,
      "Ġcopies": 7957,
      "Ġflowing": 7958,
      "Ġphilosophical": 7959,
      "Ġbehalf": 7960,
      "Ġproclaimed": 7961,
      "Ne": 7962,
      "sm": 7963,
      "Ġoct": 7964,
      "Ġcup": 7965,
      "Ġham": 7966,
      "ulse": 7967,
      "ĠJur": 7968,
      "Ġintrig": 7969,
      "ipes": 7970,
      "Ġpole": 7971,
      "Ġmemb": 7972,
      "Ġfeathers": 7973,
      "Ġconfusion": 7974,
      "Ġelectrical": 7975,
      "Ġrequest": 7976,
      "Ġgeographical": 7977,
      "ĠOffice": 7978,
      "ĠMargaret": 7979,
      "Ġacquaintance": 7980,
      "wart": 7981,
      "arum": 7982,
      "Ġfra": 7983,
      "Ġrent": 7984,
      "raine": 7985,
      "iforn": 7986,
      "ĠDo": 7987,
      "ĠKant": 7988,
      "Ġcoron": 7989,
      "Ġfourteen": 7990,
      "Ġdoubtless": 7991,
      "54": 7992,
      "lie": 7993,
      "uing": 7994,
      "ĠBill": 7995,
      "ĠGre": 7996,
      "Ġrout": 7997,
      "Ġunfortun": 7998,
      "Ġflight": 7999,
      "Ġfault": 8000,
      "Ġcrowned": 8001,
      "Ġdissol": 8002,
      "Ġmechanism": 8003,
      "oen": 8004,
      "Ġpier": 8005,
      "Ġpension": 8006,
      "Ġdense": 8007,
      "este": 8008,
      "ĠWol": 8009,
      "Ġridge": 8010,
      "Ġimpress": 8011,
      "rund": 8012,
      "Ġ49": 8013,
      "ĠÎ·": 8014,
      "Ġincome": 8015,
      "Ġarmed": 8016,
      "ĠOrigin": 8017,
      "1881": 8018,
      "Ġ1789": 8019,
      "Ġextensively": 8020,
      "ĠAgricult": 8021,
      "ĠGlas": 8022,
      "ĠTeut": 8023,
      "ĠDictionary": 8024,
      "mble": 8025,
      "ĠEu": 8026,
      "ĠWell": 8027,
      "Ġ54": 8028,
      "Ġequations": 8029,
      "Ġdrainage": 8030,
      "Ġlegit": 8031,
      "Ġrecognize": 8032,
      "ĠNorway": 8033,
      "Ġadmirable": 8034,
      "vant": 8035,
      "Ġcoc": 8036,
      "asi": 8037,
      "Ġgot": 8038,
      "ĠHud": 8039,
      "essed": 8040,
      "ĠNum": 8041,
      "aea": 8042,
      "ĠOrd": 8043,
      "aniel": 8044,
      "Ġsupremacy": 8045,
      "Ġresembling": 8046,
      "Ġfatal": 8047,
      "Ġammonia": 8048,
      "Ġbibliography": 8049,
      "vard": 8050,
      "isons": 8051,
      "Ġsailed": 8052,
      "enh": 8053,
      "Ġpseud": 8054,
      "roph": 8055,
      "Ġgift": 8056,
      "ĠIx": 8057,
      "ĠBag": 8058,
      "ĠMuch": 8059,
      "estab": 8060,
      "Ġuses": 8061,
      "ĠAnat": 8062,
      "Ġlanded": 8063,
      "ĠProp": 8064,
      "anni": 8065,
      "ĠMethod": 8066,
      "Ġregularly": 8067,
      "Ġprefer": 8068,
      "ĠKhan": 8069,
      "ulsion": 8070,
      "Ġseverely": 8071,
      "Ġlicence": 8072,
      "Ġtissues": 8073,
      "Ġapproximately": 8074,
      "ĠWorld": 8075,
      "Ġexpenditure": 8076,
      "Ġresemblance": 8077,
      "52": 8078,
      "Ġcrow": 8079,
      "itis": 8080,
      "Ġmos": 8081,
      "Ġmills": 8082,
      "ĠSans": 8083,
      "usc": 8084,
      "ĠBath": 8085,
      "ĠPost": 8086,
      "Ġshores": 8087,
      "Ġregist": 8088,
      "Ġcanons": 8089,
      "Ġtransverse": 8090,
      "Ġnewly": 8091,
      "Ġseriously": 8092,
      "Ġoccurrence": 8093,
      "Ġcopyright": 8094,
      "57": 8095,
      "tus": 8096,
      "ishe": 8097,
      "ĠTrent": 8098,
      "ĠMarsh": 8099,
      "ĠPun": 8100,
      "Ġshared": 8101,
      "lesh": 8102,
      "Ġoccasions": 8103,
      "Ġdoing": 8104,
      "Ġmonop": 8105,
      "Ġtelegraph": 8106,
      "Â°,": 8107,
      "Ġresulting": 8108,
      "ienne": 8109,
      "Ġneeded": 8110,
      "ĠTrade": 8111,
      "ĠEarl": 8112,
      "Ġarrested": 8113,
      "Ġrenewed": 8114,
      "Ġdiocese": 8115,
      "urrection": 8116,
      "Ġtongue": 8117,
      "Co": 8118,
      "gence": 8119,
      "isse": 8120,
      "atum": 8121,
      "icus": 8122,
      "Ġheres": 8123,
      "ĠRet": 8124,
      "ĠRest": 8125,
      "Ġrat": 8126,
      "ĠOst": 8127,
      "Ġemph": 8128,
      "Ġdiscont": 8129,
      "Ġrevived": 8130,
      "Ġlights": 8131,
      "Ġprivy": 8132,
      "Ġdisposition": 8133,
      "Ġphysician": 8134,
      "lemn": 8135,
      "Ġburned": 8136,
      "Ġconsumption": 8137,
      "ĠSlavonic": 8138,
      "Ġrebuilt": 8139,
      "rer": 8140,
      "Ġinev": 8141,
      "Ġfate": 8142,
      "asse": 8143,
      "Ġdrum": 8144,
      "ĠAber": 8145,
      "Ġgild": 8146,
      "ĠBapt": 8147,
      "ĠMid": 8148,
      "ĠPtolem": 8149,
      "ĠGib": 8150,
      "Ġexile": 8151,
      "ĠNever": 8152,
      "ighter": 8153,
      "ĠKal": 8154,
      "Ġwear": 8155,
      "orsal": 8156,
      "Ġcourses": 8157,
      "ĠAncient": 8158,
      "Ġowners": 8159,
      "Ġepid": 8160,
      "Ġepoch": 8161,
      "Ġlook": 8162,
      "imentary": 8163,
      "Ġtotem": 8164,
      "Ġstructures": 8165,
      "Ġhydrochlor": 8166,
      "iasm": 8167,
      "Ġcorner": 8168,
      "Ġhostile": 8169,
      "ĠJapanese": 8170,
      "Ġcontributions": 8171,
      "Ġlof": 8172,
      "Ġloyal": 8173,
      "ĠLibrary": 8174,
      "illon": 8175,
      "Ġserving": 8176,
      "Ġcounsel": 8177,
      "Ġparticip": 8178,
      "Ġcrust": 8179,
      "ĠReview": 8180,
      "Ġwatch": 8181,
      "ĠMadame": 8182,
      "Ġexamined": 8183,
      "Ġdominions": 8184,
      "quisition": 8185,
      "Ġsplendid": 8186,
      "gate": 8187,
      "Ġdust": 8188,
      "Ġgate": 8189,
      "ĠDa": 8190,
      "ousin": 8191,
      "avian": 8192,
      "Ġenable": 8193,
      "Ġeman": 8194,
      "Ġ56": 8195,
      "Ġwhereby": 8196,
      "Ġsurvey": 8197,
      "ĠAsi": 8198,
      "Ġxi": 8199,
      "Ġsuperst": 8200,
      "Ġsixteen": 8201,
      "Ġoccasional": 8202,
      "ĠMaur": 8203,
      "Ġpermission": 8204,
      "Ġtributaries": 8205,
      "afterwards": 8206,
      "Ġminimum": 8207,
      "ĠGeneva": 8208,
      "hum": 8209,
      "Ġurban": 8210,
      "Ġsongs": 8211,
      "ori": 8212,
      "Ġrejected": 8213,
      "ĠMain": 8214,
      "Ġconcess": 8215,
      "agus": 8216,
      "Ġjournal": 8217,
      "Ġcarries": 8218,
      "Ġreferences": 8219,
      "aean": 8220,
      "ĠLee": 8221,
      "ĠLeague": 8222,
      "Ġnewsp": 8223,
      "ĠShort": 8224,
      "1884": 8225,
      "Ġdaughters": 8226,
      "ĠCaliforn": 8227,
      "Ġaccurate": 8228,
      "Ġremembered": 8229,
      "58": 8230,
      "Lat": 8231,
      "Ġben": 8232,
      "Ġfly": 8233,
      "lete": 8234,
      "Ġheret": 8235,
      "ĠRay": 8236,
      "ĠOp": 8237,
      "Ġjus": 8238,
      "iffe": 8239,
      "ĠÎ¿": 8240,
      "ĠAssy": 8241,
      "Ġ1826": 8242,
      "Ġuniversities": 8243,
      "Ġ1806": 8244,
      "Ġexperien": 8245,
      "Ġdetermination": 8246,
      "ĠCommon": 8247,
      "Ġdeeply": 8248,
      "Ġdeposited": 8249,
      "Ġchemistry": 8250,
      "ĠSaxon": 8251,
      "ĠBurgund": 8252,
      "Ġurged": 8253,
      "ĠAristotle": 8254,
      "ĠRenaissance": 8255,
      "Ġlofty": 8256,
      "aic": 8257,
      "govern": 8258,
      "Ġtor": 8259,
      "Ġfisher": 8260,
      "Ġgates": 8261,
      "ello": 8262,
      "Ġspinal": 8263,
      "ĠSele": 8264,
      "ĠÎ¾": 8265,
      "Ġtransport": 8266,
      "who": 8267,
      "Ġtreasure": 8268,
      "Ġfavoured": 8269,
      "Ġproportions": 8270,
      "Ġsettlements": 8271,
      "Ġfulf": 8272,
      "ĠConserv": 8273,
      "Ġpurchased": 8274,
      "ĠRepublican": 8275,
      "Ġtorture": 8276,
      "Ġprolonged": 8277,
      "ecticut": 8278,
      "houses": 8279,
      "ito": 8280,
      "icted": 8281,
      "Ġmental": 8282,
      "stones": 8283,
      "Ġ1817": 8284,
      "Ġexagger": 8285,
      "ĠFlem": 8286,
      "Ġcommem": 8287,
      "ublished": 8288,
      "ĠAlps": 8289,
      "ĠParliament": 8290,
      "Ġrevised": 8291,
      "Ġstreet": 8292,
      "Ġsucceeding": 8293,
      "ĠSwiss": 8294,
      "Ġsettlers": 8295,
      "Ġultimate": 8296,
      "Ġfragment": 8297,
      "ighthouse": 8298,
      "ees": 8299,
      "sar": 8300,
      "Ġcam": 8301,
      "ĠChap": 8302,
      "Ġresolved": 8303,
      "Ġfoundations": 8304,
      "Ġexplor": 8305,
      "Ġcoarse": 8306,
      "Ġoverth": 8307,
      "Ġgraph": 8308,
      "Ġcouncils": 8309,
      "Ġcarbonate": 8310,
      "ĠBurke": 8311,
      "Ġarrival": 8312,
      "Ġforbidden": 8313,
      "Ġtraversed": 8314,
      "aver": 8315,
      "ky": 8316,
      "occ": 8317,
      "Ġtann": 8318,
      "ndered": 8319,
      "ĠTat": 8320,
      "ĠRab": 8321,
      "Ġsect": 8322,
      "ĠOwing": 8323,
      "acter": 8324,
      "Ġcounts": 8325,
      "ĠYoung": 8326,
      "Ġconfidence": 8327,
      "Ġindef": 8328,
      "Ġsymmet": 8329,
      "Ġexecutive": 8330,
      "Ġadjoining": 8331,
      "Ġgarden": 8332,
      "ĠCarolina": 8333,
      "ĠConnecticut": 8334,
      "Ġarbitrary": 8335,
      ".âĢĻ": 8336,
      "iens": 8337,
      "named": 8338,
      "vre": 8339,
      "Ġtry": 8340,
      "adian": 8341,
      "ĠBombay": 8342,
      "Ġrates": 8343,
      "Ġdefect": 8344,
      "Ġsolutions": 8345,
      "Ġ1808": 8346,
      "ĠCommer": 8347,
      "Ġadvantages": 8348,
      "Ġinvestigations": 8349,
      "Ġbesie": 8350,
      "Ġdeputy": 8351,
      "ĠBrazil": 8352,
      "eches": 8353,
      "script": 8354,
      "two": 8355,
      "uity": 8356,
      "Ġpont": 8357,
      "ĠBrist": 8358,
      "ĠHome": 8359,
      "ĠHamp": 8360,
      "ĠPic": 8361,
      "Ġ1816": 8362,
      "ĠGram": 8363,
      "ĠRud": 8364,
      "ĠNiger": 8365,
      "ĠOtt": 8366,
      "Ġintense": 8367,
      "Ġreports": 8368,
      "Ġattrib": 8369,
      "Ġestimate": 8370,
      "Ġlateral": 8371,
      "Ġ1822": 8372,
      "sterdam": 8373,
      "Ġposterior": 8374,
      "Ġborders": 8375,
      "ĠCounty": 8376,
      "ĠBernard": 8377,
      "Ġpaintings": 8378,
      "my": 8379,
      "rating": 8380,
      "nde": 8381,
      "Ġwave": 8382,
      "icks": 8383,
      "Ġmine": 8384,
      "Ġonwards": 8385,
      "Ġ1810": 8386,
      "ĠFree": 8387,
      "ouring": 8388,
      "Ġ3000": 8389,
      "ĠLeo": 8390,
      "Ġdepression": 8391,
      "Ġcircles": 8392,
      "Ġ1801": 8393,
      "Ġprotest": 8394,
      "Ġarrangements": 8395,
      "Ġstarting": 8396,
      "ĠEncy": 8397,
      "Ġcontemporaries": 8398,
      "cons": 8399,
      "ij": 8400,
      "power": 8401,
      "six": 8402,
      "Ġpsych": 8403,
      "ĠAh": 8404,
      "ĠCab": 8405,
      "ĠHard": 8406,
      "ĠMill": 8407,
      "ĠMend": 8408,
      "istent": 8409,
      "cius": 8410,
      "acent": 8411,
      "assy": 8412,
      "Ġexpelled": 8413,
      "Ġoriginated": 8414,
      "Ġadmission": 8415,
      "ĠAntiqu": 8416,
      "Ġexcited": 8417,
      "Ġwider": 8418,
      "ĠSwedish": 8419,
      "Ġtravelled": 8420,
      "Ġmathematical": 8421,
      "Ġenthusiasm": 8422,
      "ĠOtto": 8423,
      "vest": 8424,
      "alia": 8425,
      "Ġ115": 8426,
      "ĠCross": 8427,
      "ĠIron": 8428,
      "Ġcongress": 8429,
      "ĠPri": 8430,
      "ĠPitt": 8431,
      "eren": 8432,
      "ĠWill": 8433,
      "orde": 8434,
      "Ġcontents": 8435,
      "Ġconsul": 8436,
      "oves": 8437,
      "Ġadmit": 8438,
      "Â°.": 8439,
      "Ġadding": 8440,
      "ĠIslam": 8441,
      "Ġsentiment": 8442,
      "1879": 8443,
      "Ġadministered": 8444,
      "ĠCoast": 8445,
      "Ġrulers": 8446,
      "Ġsandy": 8447,
      "Ġachieve": 8448,
      "ĠLeopold": 8449,
      "nat": 8450,
      "Ġcards": 8451,
      "Ġflesh": 8452,
      "ĠTower": 8453,
      "thyl": 8454,
      "Ġstamp": 8455,
      "ete": 8456,
      "ainted": 8457,
      "Ġalien": 8458,
      "pping": 8459,
      "ĠChamber": 8460,
      "ĠXii": 8461,
      "Ġassistant": 8462,
      "Ġlords": 8463,
      "Ġpurchase": 8464,
      "Ġcruel": 8465,
      "ĠÃĹ": 8466,
      "Ġannexed": 8467,
      "Ġnucleus": 8468,
      "bel": 8469,
      "folk": 8470,
      "mas": 8471,
      "icia": 8472,
      "ĠTow": 8473,
      "ĠTab": 8474,
      "ĠCos": 8475,
      "tera": 8476,
      "Ġvision": 8477,
      "Ġ1819": 8478,
      "Ġarising": 8479,
      "Ġpreacher": 8480,
      "Ġproviding": 8481,
      "Ġboards": 8482,
      "ĠAlphon": 8483,
      "ierra": 8484,
      "Ġshaft": 8485,
      "Ġtransfer": 8486,
      "Ġinjury": 8487,
      "uzz": 8488,
      "Ġborrowed": 8489,
      "âĪĴ": 8490,
      "isis": 8491,
      "Ġdock": 8492,
      "ĠSing": 8493,
      "ĠCrown": 8494,
      "ĠMith": 8495,
      "ĠMans": 8496,
      "Ġseed": 8497,
      "arded": 8498,
      "Ġard": 8499,
      "ibrium": 8500,
      "Ġexpenses": 8501,
      "Ġxii": 8502,
      "Ġdecisive": 8503,
      "Ġblast": 8504,
      "Ġcrime": 8505,
      "Ġeighteen": 8506,
      "Ġeconomy": 8507,
      "Ġsweet": 8508,
      "Ġsurrendered": 8509,
      "Ġconjunction": 8510,
      "iop": 8511,
      "Ġcourage": 8512,
      "ĠHert": 8513,
      "ĠPur": 8514,
      "ĠGord": 8515,
      "Ġunits": 8516,
      "ipse": 8517,
      "Ġperpendicular": 8518,
      "luence": 8519,
      "1878": 8520,
      "Ġsuperf": 8521,
      "Ġ1805": 8522,
      "ĠXiv": 8523,
      "Ġburnt": 8524,
      "haus": 8525,
      "Ġpraet": 8526,
      "Ġexceptional": 8527,
      "Ġcredit": 8528,
      "Ġrigid": 8529,
      "ĠFriedrich": 8530,
      "On": 8531,
      "Ġtang": 8532,
      "Ġlace": 8533,
      "ĠSystem": 8534,
      "Ġasked": 8535,
      "abul": 8536,
      "Ġ250": 8537,
      "ocracy": 8538,
      "ĠUt": 8539,
      "Ġdefended": 8540,
      "Ġadditions": 8541,
      "Ġclassification": 8542,
      "Ġdelay": 8543,
      "ĠYorkshire": 8544,
      "Ġdetailed": 8545,
      "Ġera": 8546,
      "Ġwitnesses": 8547,
      "Ġdiscoveries": 8548,
      "ĠÊ½A": 8549,
      "Ġpilgr": 8550,
      "pi": 8551,
      "Ġserm": 8552,
      "Ġpit": 8553,
      "ĠToul": 8554,
      "Ġexpect": 8555,
      "ĠFri": 8556,
      "ifies": 8557,
      "ĠDanish": 8558,
      "Ġsolemn": 8559,
      "ucid": 8560,
      "Ġeminent": 8561,
      "Ġremote": 8562,
      "orms": 8563,
      "ĠÎĶ": 8564,
      "ologne": 8565,
      "Ġperiodical": 8566,
      "Ġinspired": 8567,
      "Ġzur": 8568,
      "Ġfriendly": 8569,
      "ĠSenate": 8570,
      "ĠNevertheless": 8571,
      "ĠBristol": 8572,
      "59": 8573,
      "po": 8574,
      "Ġtour": 8575,
      "atur": 8576,
      "ĠSac": 8577,
      "ĠSomer": 8578,
      "imo": 8579,
      "ĠCumberland": 8580,
      "Ġvine": 8581,
      "arte": 8582,
      "Ġ5000": 8583,
      "Ġsixty": 8584,
      "Ġcontrolled": 8585,
      "Ġpotash": 8586,
      "Ġlabours": 8587,
      "Ġpleasure": 8588,
      "ĠValley": 8589,
      "For": 8590,
      "box": 8591,
      "Ġtheories": 8592,
      "isbury": 8593,
      "Ġcogn": 8594,
      "anz": 8595,
      "ĠPis": 8596,
      "aints": 8597,
      "Ġsequ": 8598,
      "ogene": 8599,
      "ocation": 8600,
      "Ġpreval": 8601,
      "Ġregulated": 8602,
      "ĠÎ³": 8603,
      "Ġcoff": 8604,
      "Ġpossibility": 8605,
      "Ġsets": 8606,
      "Ġinterested": 8607,
      "Ġdevised": 8608,
      "Ġturning": 8609,
      "Ġdetermining": 8610,
      "going": 8611,
      "ĠBohemian": 8612,
      "Ġprivilege": 8613,
      "Ġdiminished": 8614,
      "Ġnerves": 8615,
      "Ġsaved": 8616,
      "Ġnominated": 8617,
      "ĠHorace": 8618,
      "Ġhydrochloric": 8619,
      "-),": 8620,
      "matic": 8621,
      "Ġul": 8622,
      "Ġwished": 8623,
      "aters": 8624,
      "Ġflex": 8625,
      "Ġeloqu": 8626,
      "ĠSon": 8627,
      "Ġric": 8628,
      "andin": 8629,
      "Ġabdom": 8630,
      "avi": 8631,
      "Ġdisk": 8632,
      "Ġquiet": 8633,
      "Ġmarry": 8634,
      "ĠâĪ«": 8635,
      "Ġrestrict": 8636,
      "Ġzeal": 8637,
      "Ġ1807": 8638,
      "Ġflower": 8639,
      "Ġessay": 8640,
      "Ġterritories": 8641,
      "board": 8642,
      "worthy": 8643,
      "ĠDanube": 8644,
      "ĠObserv": 8645,
      "ĠGustav": 8646,
      "Phil": 8647,
      "zz": 8648,
      "}=": 8649,
      "Ġworthy": 8650,
      "Ġciv": 8651,
      "ĠTreat": 8652,
      "Ġanx": 8653,
      "Ġseap": 8654,
      "Ġformations": 8655,
      "Ġdistances": 8656,
      "Ġrooms": 8657,
      "Ġamend": 8658,
      "Ġxl": 8659,
      "upon": 8660,
      "Ġsubjected": 8661,
      "ĠIsle": 8662,
      "Ġeverything": 8663,
      "Ġeru": 8664,
      "Ġshallow": 8665,
      "Ġdomain": 8666,
      "Ġbiography": 8667,
      "Ġvegetable": 8668,
      "Ġreconst": 8669,
      "Ġphosphorus": 8670,
      "ĠNatural": 8671,
      "unciation": 8672,
      "Ġsteadily": 8673,
      "Ġunsuccessful": 8674,
      "ĠHudson": 8675,
      "was": 8676,
      "zing": 8677,
      "ioned": 8678,
      "left": 8679,
      "idency": 8680,
      "Ġsust": 8681,
      "Ġseal": 8682,
      "Ġhistoric": 8683,
      "Ġfields": 8684,
      "Ġestablishments": 8685,
      "Ġclerk": 8686,
      "Ġcorporation": 8687,
      "Ġfestival": 8688,
      "51": 8689,
      "forth": 8690,
      "lamb": 8691,
      "wa": 8692,
      "Ġtropical": 8693,
      "Ġapt": 8694,
      "Ġpitch": 8695,
      "Ġmm": 8696,
      "ima": 8697,
      "ĠIce": 8698,
      "Ġstations": 8699,
      "ĠFra": 8700,
      "ĠRio": 8701,
      "Ġrings": 8702,
      "ogy": 8703,
      "Ġ1790": 8704,
      "Ġcontent": 8705,
      "Ġregent": 8706,
      "Ġrecover": 8707,
      "archy": 8708,
      "Ġepic": 8709,
      "Ġ1809": 8710,
      "Ġprevailed": 8711,
      "yrus": 8712,
      "Ġdespat": 8713,
      "Ġobviously": 8714,
      "Ġowed": 8715,
      "castle": 8716,
      "uits": 8717,
      "Åĵ": 8718,
      "Ġdorsal": 8719,
      "ĠTot": 8720,
      "ĠPoint": 8721,
      "Ġven": 8722,
      "Ġneeds": 8723,
      "Ġformally": 8724,
      "ĠThames": 8725,
      "enser": 8726,
      "Ġimpulse": 8727,
      "Ġspl": 8728,
      "neys": 8729,
      "Ġacademy": 8730,
      "Ġinvaded": 8731,
      "Ġexceptions": 8732,
      "Ġcheap": 8733,
      "ancing": 8734,
      "Ġvegetation": 8735,
      "miral": 8736,
      "Ġopponent": 8737,
      "Ġfaculty": 8738,
      "Ġequilibrium": 8739,
      "ĠCalifornia": 8740,
      "inum": 8741,
      "Ġcalls": 8742,
      "Ġmess": 8743,
      "Ġdioxide": 8744,
      "Ġnut": 8745,
      "ĠLud": 8746,
      "ĠDra": 8747,
      "cio": 8748,
      "Ġritual": 8749,
      "ĠChal": 8750,
      "ipel": 8751,
      "Ġpover": 8752,
      "aug": 8753,
      "Ġinsol": 8754,
      "Ġlinear": 8755,
      "Ġpressed": 8756,
      "Ġsalmon": 8757,
      "Ġcommunities": 8758,
      "Ġbenefit": 8759,
      "Ġsubsid": 8760,
      "onymous": 8761,
      "Ġsubordinate": 8762,
      "ĠCromwell": 8763,
      "ĠTeutonic": 8764,
      "bing": 8765,
      "ef": 8766,
      "Ġlady": 8767,
      "imony": 8768,
      "ĠCob": 8769,
      "ĠPad": 8770,
      "Ġpercent": 8771,
      "ansas": 8772,
      "Ġ58": 8773,
      "ĠRef": 8774,
      "ĠSpir": 8775,
      "Ġmainland": 8776,
      "liny": 8777,
      "Ġterra": 8778,
      "Ġdegener": 8779,
      "ĠBrussels": 8780,
      "ĠGlou": 8781,
      "Ġauthent": 8782,
      "ĠForest": 8783,
      "%.": 8784,
      "fl": 8785,
      "}.": 8786,
      "Ġnick": 8787,
      "ĠMuller": 8788,
      "Ġ1811": 8789,
      "Ġsever": 8790,
      "ranch": 8791,
      "iffs": 8792,
      "Ġcarp": 8793,
      "Ġgovernments": 8794,
      "Ġdivide": 8795,
      "ĠCarth": 8796,
      "ĠWhit": 8797,
      "ĠAdam": 8798,
      "Ġcalcium": 8799,
      "Ġlocalities": 8800,
      "Ġdenote": 8801,
      "ĠMahomet": 8802,
      "ĠSalisbury": 8803,
      "Ġnearest": 8804,
      "Ġtreasury": 8805,
      "clamation": 8806,
      "eous": 8807,
      "gian": 8808,
      "arre": 8809,
      "asa": 8810,
      "Ġgre": 8811,
      "ĠPius": 8812,
      "ĠGaul": 8813,
      "Ġrid": 8814,
      "ĠJourn": 8815,
      "Ġunus": 8816,
      "rup": 8817,
      "Ġjealous": 8818,
      "Ġapprent": 8819,
      "Ġ600": 8820,
      "Ġlimbs": 8821,
      "Ġsteady": 8822,
      "Ġstatutes": 8823,
      "ĠNext": 8824,
      "ĠAugustine": 8825,
      "Ġturns": 8826,
      "ĠAfgh": 8827,
      "Ġ1794": 8828,
      "Ġinstituted": 8829,
      "Ġperformance": 8830,
      "Ġcovers": 8831,
      "Ġenterprise": 8832,
      "ĠGiov": 8833,
      "Ġdamage": 8834,
      "Ġinflamm": 8835,
      "isheries": 8836,
      "town": 8837,
      "tically": 8838,
      "Ïĩ": 8839,
      "Ġille": 8840,
      "itud": 8841,
      "arius": 8842,
      "ĠSig": 8843,
      "ĠSud": 8844,
      "ĠâĢĻ": 8845,
      "Ġcompensation": 8846,
      "Ġweigh": 8847,
      "Ġcoasts": 8848,
      "1873": 8849,
      "Ġepiscopal": 8850,
      "Ġprevailing": 8851,
      "Ġcatal": 8852,
      "ĠMalay": 8853,
      "Ġsensation": 8854,
      "Ġconceived": 8855,
      "ĠRoger": 8856,
      "Ġpoverty": 8857,
      "han": 8858,
      "Ġmild": 8859,
      "Ġdried": 8860,
      "ĠHay": 8861,
      "ateau": 8862,
      "Ġimitation": 8863,
      "Ġadequ": 8864,
      "Ġfiring": 8865,
      "Ġexposure": 8866,
      "Ġremove": 8867,
      "Ġcoins": 8868,
      "ĠAnth": 8869,
      "ships": 8870,
      "Ġreader": 8871,
      "1877": 8872,
      "Ġsteamers": 8873,
      "Ġviolence": 8874,
      "Ġfaithful": 8875,
      "ĠPapers": 8876,
      "Ġretirement": 8877,
      "Ġchartered": 8878,
      "cus": 8879,
      "lest": 8880,
      "Ġcited": 8881,
      "Ġinch": 8882,
      "Ġlod": 8883,
      "ĠAth": 8884,
      "ĠSum": 8885,
      "vert": 8886,
      "Ġvo": 8887,
      "ĠLiv": 8888,
      "ĠJour": 8889,
      "Ġ57": 8890,
      "Ġinside": 8891,
      "1872": 8892,
      "Ġpenalty": 8893,
      "ĠApol": 8894,
      "Ġencouraged": 8895,
      "Ġradius": 8896,
      "Ġpreceded": 8897,
      "Ġromance": 8898,
      "ĠWinchester": 8899,
      "Ġhypothesis": 8900,
      "sor": 8901,
      "inter": 8902,
      "Ġbatter": 8903,
      "Ġpin": 8904,
      "lements": 8905,
      "ĠTimes": 8906,
      "ĠAk": 8907,
      "isting": 8908,
      "Ġinte": 8909,
      "Ġunlike": 8910,
      "Ġgrants": 8911,
      "Ġ66": 8912,
      "Ġevap": 8913,
      "Ġinfluences": 8914,
      "Î¹Î±": 8915,
      "1875": 8916,
      "Ġgeology": 8917,
      "1867": 8918,
      "Ġtrading": 8919,
      "ĠCanal": 8920,
      "ĠThomson": 8921,
      "ĠPalestine": 8922,
      "Ġadjacent": 8923,
      "iest": 8924,
      "iating": 8925,
      "yll": 8926,
      "arc": 8927,
      "oro": 8928,
      "icles": 8929,
      "Ġlibr": 8930,
      "Ġ(Â§": 8931,
      "ĠSqu": 8932,
      "Ġgifts": 8933,
      "imore": 8934,
      "Ġconcil": 8935,
      "ĠWald": 8936,
      "Ġnumbered": 8937,
      "ĠDef": 8938,
      "Ġprize": 8939,
      "Ġprobability": 8940,
      "ĠBeau": 8941,
      "Ġmilitia": 8942,
      "Ġsuffer": 8943,
      "Ġtribute": 8944,
      "Ġconcrete": 8945,
      "Ġ1802": 8946,
      "Ġdirector": 8947,
      "Ġburial": 8948,
      "ĠJulius": 8949,
      "ĠLorraine": 8950,
      "aired": 8951,
      "Ġble": 8952,
      "aro": 8953,
      "urt": 8954,
      "urance": 8955,
      "Ġaside": 8956,
      "Ġbutter": 8957,
      "ĠVan": 8958,
      "Ġ51": 8959,
      "Ġnumer": 8960,
      "Ġfactors": 8961,
      "Ġreturns": 8962,
      "Ġ110": 8963,
      "Ġsucceed": 8964,
      "Ġ1798": 8965,
      "Ġearthqu": 8966,
      "Ġlatitude": 8967,
      "Ġresembles": 8968,
      "ĠAlphonso": 8969,
      "jan": 8970,
      "spe": 8971,
      "rene": 8972,
      "ĠSund": 8973,
      "riac": 8974,
      "Ġchoir": 8975,
      "ĠDion": 8976,
      "Ġshorter": 8977,
      "aga": 8978,
      "Ġsport": 8979,
      "Ġindirect": 8980,
      "Ġpeer": 8981,
      "Ġending": 8982,
      "ĠYah": 8983,
      "Ġequator": 8984,
      "ĠHistoria": 8985,
      "Ġruined": 8986,
      "Ġdevotion": 8987,
      "Ġworst": 8988,
      "Ġillumin": 8989,
      "Ġ1795": 8990,
      "Ġfinds": 8991,
      "Ġslain": 8992,
      "Ġtraditional": 8993,
      "Ġabundance": 8994,
      "Ġmicros": 8995,
      "Ġcalculated": 8996,
      "Ġtubes": 8997,
      "Ġpursued": 8998,
      "ĠGlasgow": 8999,
      "lambda": 9000,
      "pole": 9001,
      "recht": 9002,
      "Ġward": 9003,
      "Ġfoc": 9004,
      "Ġdensity": 9005,
      "ĠAld": 9006,
      "imen": 9007,
      "ĠCant": 9008,
      "ĠCamb": 9009,
      "Ġconject": 9010,
      "ĠLombard": 9011,
      "ĠRou": 9012,
      "Ġmangan": 9013,
      "ifferent": 9014,
      "Ġplum": 9015,
      "Ġassign": 9016,
      "Ġreduce": 9017,
      "Ġreview": 9018,
      "Ġrealized": 9019,
      "Ġapproved": 9020,
      "Ġlayers": 9021,
      "ĠReport": 9022,
      "ĠFrancisco": 9023,
      "ĠGreenland": 9024,
      "Ġperfection": 9025,
      "ĠIndependence": 9026,
      "Ġinhabited": 9027,
      "200": 9028,
      "Ġtide": 9029,
      "Ġblu": 9030,
      "ali": 9031,
      "stadt": 9032,
      "ĠField": 9033,
      "urer": 9034,
      "Ġarsen": 9035,
      "Ġmarched": 9036,
      "Ġplans": 9037,
      "Ġappeals": 9038,
      "Ġflank": 9039,
      "Ġassert": 9040,
      "Ġcolleges": 9041,
      "Ġrestore": 9042,
      "Ġpropag": 9043,
      "ĠAbra": 9044,
      "Ġneglected": 9045,
      "Ġtends": 9046,
      "Ġmachines": 9047,
      "ĠVictor": 9048,
      "ĠBasel": 9049,
      "Ġcooling": 9050,
      "ĠHanover": 9051,
      "Ġculmin": 9052,
      "ĠAsiatic": 9053,
      "burn": 9054,
      "mph": 9055,
      "Ġdt": 9056,
      "stead": 9057,
      "changed": 9058,
      "ĠBald": 9059,
      "Ġvul": 9060,
      "Ġsure": 9061,
      "Ġproceeding": 9062,
      "ĠâĢĺ": 9063,
      "atern": 9064,
      "Ġdesir": 9065,
      "oths": 9066,
      "Ġendowed": 9067,
      "ĠPhoen": 9068,
      "Ġaddress": 9069,
      "ĠScandin": 9070,
      "Ġfinite": 9071,
      "ĠAbbey": 9072,
      "Ġuniversally": 9073,
      "1870": 9074,
      "ĠBruns": 9075,
      "Ġbreach": 9076,
      "Ġmountainous": 9077,
      "Ġlatest": 9078,
      "Ġdescribe": 9079,
      "Ġmathematics": 9080,
      "Ġreckoned": 9081,
      "Ġintercourse": 9082,
      "gi": 9083,
      "jo": 9084,
      "rust": 9085,
      "ridge": 9086,
      "Ġau": 9087,
      "Ġpir": 9088,
      "Ġgor": 9089,
      "Ġgather": 9090,
      "ĠHom": 9091,
      "Ġstrange": 9092,
      "Ġdeuts": 9093,
      "ĠRol": 9094,
      "ryan": 9095,
      "Ġimpart": 9096,
      "Ġprincess": 9097,
      "Ġcontinental": 9098,
      "Ġstatues": 9099,
      "aska": 9100,
      "ski": 9101,
      "Ġpetition": 9102,
      "Ġdiagram": 9103,
      "Ġholes": 9104,
      "ĠBenj": 9105,
      "Ġvolunte": 9106,
      "Ġlinen": 9107,
      "Ġbattles": 9108,
      "sigma": 9109,
      "vo": 9110,
      "wig": 9111,
      "Ġcousin": 9112,
      "cca": 9113,
      "ucas": 9114,
      "Ġoffences": 9115,
      "Ġxv": 9116,
      "Ġyearly": 9117,
      "Ġglobe": 9118,
      "1868": 9119,
      "ĠPolish": 9120,
      "ĠProtestants": 9121,
      "Ġexhaust": 9122,
      "lot": 9123,
      "rite": 9124,
      "Ġincur": 9125,
      "Ġboats": 9126,
      "Ġsolar": 9127,
      "begin": 9128,
      "Ġkeen": 9129,
      "ĠImper": 9130,
      "Ġabandon": 9131,
      "Ġflourished": 9132,
      "Ġinvariably": 9133,
      "Ġstroke": 9134,
      "Ġsketch": 9135,
      "pow": 9136,
      "rons": 9137,
      "inates": 9138,
      "Ġcf": 9139,
      "ĠAqu": 9140,
      "ĠMu": 9141,
      "ĠMack": 9142,
      "acre": 9143,
      "ĠChannel": 9144,
      "Ġcomprehens": 9145,
      "Ġconsolid": 9146,
      "Ġdistill": 9147,
      "Ġemig": 9148,
      "Ġaffection": 9149,
      "1874": 9150,
      "Ġamounts": 9151,
      "Ġelevated": 9152,
      "ĠMissou": 9153,
      "Ġromantic": 9154,
      "ĠSiber": 9155,
      "uminous": 9156,
      "ĠKarl": 9157,
      "Ġtombs": 9158,
      "Ġgirls": 9159,
      "ĠMalta": 9160,
      "Ġinheritance": 9161,
      "tered": 9162,
      "rels": 9163,
      "alus": 9164,
      "alph": 9165,
      "urious": 9166,
      "ĠHim": 9167,
      "ĠMort": 9168,
      "eme": 9169,
      "antly": 9170,
      "ĠOut": 9171,
      "ocy": 9172,
      "Ġcompass": 9173,
      "lius": 9174,
      "Ġeleg": 9175,
      "Ġfeed": 9176,
      "Ġfinance": 9177,
      "Ġeastward": 9178,
      "Ġneglect": 9179,
      "1869": 9180,
      "Ġveh": 9181,
      "ĠMonte": 9182,
      "Ġengineering": 9183,
      "Ġexcessive": 9184,
      "Ġrecommended": 9185,
      "ĠColumbia": 9186,
      "jab": 9187,
      "hetic": 9188,
      "Ġwa": 9189,
      "Ġske": 9190,
      "Ġpine": 9191,
      "Ġmorning": 9192,
      "ilia": 9193,
      "seat": 9194,
      "ĠCode": 9195,
      "ĠHy": 9196,
      "antes": 9197,
      "Ġarches": 9198,
      "Ġcompuls": 9199,
      "Ġspoke": 9200,
      "Ġprelim": 9201,
      "weh": 9202,
      "ologna": 9203,
      "Ġpark": 9204,
      "Ġhanded": 9205,
      "Ġpromised": 9206,
      "Ġbishopric": 9207,
      "Ġdemands": 9208,
      "Ġmagnitude": 9209,
      "Ġslavery": 9210,
      "Ġdecline": 9211,
      "Ġtroubles": 9212,
      "Ġacknowledged": 9213,
      "ĠSanskrit": 9214,
      "ref": 9215,
      "anch": 9216,
      "Ġhuge": 9217,
      "ĠTig": 9218,
      "omach": 9219,
[...]
